{
  "version": "1.0",
  "truncation": null,
  "padding": null,
  "added_tokens": [
    {
      "id": 0,
      "content": "<|endoftext|>",
      "single_word": false,
      "lstrip": false,
      "rstrip": false,
      "normalized": false,
      "special": true
    }
  ],
  "normalizer": null,
  "pre_tokenizer": {
    "type": "Sequence",
    "pretokenizers": [
      {
        "type": "Split",
        "pattern": {
          "Regex": " ?\\$?\\d[\\d,]*(?:\\.\\d+)?%?| ?\\p{L}+| ?[^\\s\\p{L}\\d]+|\\s+"
        },
        "behavior": "Isolated",
        "invert": false
      },
      {
        "type": "ByteLevel",
        "add_prefix_space": false,
        "trim_offsets": true,
        "use_regex": false
      }
    ]
  },
  "post_processor": null,
  "decoder": {
    "type": "ByteLevel",
    "add_prefix_space": true,
    "trim_offsets": true,
    "use_regex": true
  },
  "model": {
    "type": "BPE",
    "dropout": null,
    "unk_token": null,
    "continuing_subword_prefix": null,
    "end_of_word_suffix": null,
    "fuse_unk": false,
    "byte_fallback": false,
    "ignore_merges": false,
    "vocab": {
      "<|endoftext|>": 0,
      "!": 1,
      "\"": 2,
      "#": 3,
      "$": 4,
      "%": 5,
      "&": 6,
      "'": 7,
      "(": 8,
      ")": 9,
      "*": 10,
      "+": 11,
      ",": 12,
      "-": 13,
      ".": 14,
      "/": 15,
      "0": 16,
      "1": 17,
      "2": 18,
      "3": 19,
      "4": 20,
      "5": 21,
      "6": 22,
      "7": 23,
      "8": 24,
      "9": 25,
      ":": 26,
      ";": 27,
      "<": 28,
      "=": 29,
      ">": 30,
      "?": 31,
      "@": 32,
      "A": 33,
      "B": 34,
      "C": 35,
      "D": 36,
      "E": 37,
      "F": 38,
      "G": 39,
      "H": 40,
      "I": 41,
      "J": 42,
      "K": 43,
      "L": 44,
      "M": 45,
      "N": 46,
      "O": 47,
      "P": 48,
      "Q": 49,
      "R": 50,
      "S": 51,
      "T": 52,
      "U": 53,
      "V": 54,
      "W": 55,
      "X": 56,
      "Y": 57,
      "Z": 58,
      "[": 59,
      "\\": 60,
      "]": 61,
      "^": 62,
      "_": 63,
      "`": 64,
      "a": 65,
      "b": 66,
      "c": 67,
      "d": 68,
      "e": 69,
      "f": 70,
      "g": 71,
      "h": 72,
      "i": 73,
      "j": 74,
      "k": 75,
      "l": 76,
      "m": 77,
      "n": 78,
      "o": 79,
      "p": 80,
      "q": 81,
      "r": 82,
      "s": 83,
      "t": 84,
      "u": 85,
      "v": 86,
      "w": 87,
      "x": 88,
      "y": 89,
      "z": 90,
      "{": 91,
      "|": 92,
      "}": 93,
      "~": 94,
      "¡": 95,
      "¢": 96,
      "£": 97,
      "¤": 98,
      "¥": 99,
      "¦": 100,
      "§": 101,
      "¨": 102,
      "©": 103,
      "ª": 104,
      "«": 105,
      "¬": 106,
      "®": 107,
      "¯": 108,
      "°": 109,
      "±": 110,
      "²": 111,
      "³": 112,
      "´": 113,
      "µ": 114,
      "¶": 115,
      "·": 116,
      "¸": 117,
      "¹": 118,
      "º": 119,
      "»": 120,
      "¼": 121,
      "½": 122,
      "¾": 123,
      "¿": 124,
      "À": 125,
      "Á": 126,
      "Â": 127,
      "Ã": 128,
      "Ä": 129,
      "Å": 130,
      "Æ": 131,
      "Ç": 132,
      "È": 133,
      "É": 134,
      "Ê": 135,
      "Ë": 136,
      "Ì": 137,
      "Í": 138,
      "Î": 139,
      "Ï": 140,
      "Ð": 141,
      "Ñ": 142,
      "Ò": 143,
      "Ó": 144,
      "Ô": 145,
      "Õ": 146,
      "Ö": 147,
      "×": 148,
      "Ø": 149,
      "Ù": 150,
      "Ú": 151,
      "Û": 152,
      "Ü": 153,
      "Ý": 154,
      "Þ": 155,
      "ß": 156,
      "à": 157,
      "á": 158,
      "â": 159,
      "ã": 160,
      "ä": 161,
      "å": 162,
      "æ": 163,
      "ç": 164,
      "è": 165,
      "é": 166,
      "ê": 167,
      "ë": 168,
      "ì": 169,
      "í": 170,
      "î": 171,
      "ï": 172,
      "ð": 173,
      "ñ": 174,
      "ò": 175,
      "ó": 176,
      "ô": 177,
      "õ": 178,
      "ö": 179,
      "÷": 180,
      "ø": 181,
      "ù": 182,
      "ú": 183,
      "û": 184,
      "ü": 185,
      "ý": 186,
      "þ": 187,
      "ÿ": 188,
      "Ā": 189,
      "ā": 190,
      "Ă": 191,
      "ă": 192,
      "Ą": 193,
      "ą": 194,
      "Ć": 195,
      "ć": 196,
      "Ĉ": 197,
      "ĉ": 198,
      "Ċ": 199,
      "ċ": 200,
      "Č": 201,
      "č": 202,
      "Ď": 203,
      "ď": 204,
      "Đ": 205,
      "đ": 206,
      "Ē": 207,
      "ē": 208,
      "Ĕ": 209,
      "ĕ": 210,
      "Ė": 211,
      "ė": 212,
      "Ę": 213,
      "ę": 214,
      "Ě": 215,
      "ě": 216,
      "Ĝ": 217,
      "ĝ": 218,
      "Ğ": 219,
      "ğ": 220,
      "Ġ": 221,
      "ġ": 222,
      "Ģ": 223,
      "ģ": 224,
      "Ĥ": 225,
      "ĥ": 226,
      "Ħ": 227,
      "ħ": 228,
      "Ĩ": 229,
      "ĩ": 230,
      "Ī": 231,
      "ī": 232,
      "Ĭ": 233,
      "ĭ": 234,
      "Į": 235,
      "į": 236,
      "İ": 237,
      "ı": 238,
      "Ĳ": 239,
      "ĳ": 240,
      "Ĵ": 241,
      "ĵ": 242,
      "Ķ": 243,
      "ķ": 244,
      "ĸ": 245,
      "Ĺ": 246,
      "ĺ": 247,
      "Ļ": 248,
      "ļ": 249,
      "Ľ": 250,
      "ľ": 251,
      "Ŀ": 252,
      "ŀ": 253,
      "Ł": 254,
      "ł": 255,
      "Ń": 256,
      "Ġa": 257,
      "in": 258,
      "Ġt": 259,
      "re": 260,
      "Ġo": 261,
      "er": 262,
      "on": 263,
      "he": 264,
      "ti": 265,
      "en": 266,
      "es": 267,
      "an": 268,
      "Ġthe": 269,
      "Ġc": 270,
      "ed": 271,
      "al": 272,
      "or": 273,
      "Ġan": 274,
      "at": 275,
      "Ġof": 276,
      "Ġin": 277,
      "ĊĊ": 278,
      "Ġp": 279,
      "Ġs": 280,
      "Ġf": 281,
      "Ġand": 282,
      "tion": 283,
      "it": 284,
      "ing": 285,
      "Ġre": 286,
      "ar": 287,
      "ur": 288,
      "om": 289,
      "ent": 290,
      "is": 291,
      "Ġto": 292,
      "Ġw": 293,
      "Ġb": 294,
      "Ġm": 295,
      "Ġd": 296,
      "ic": 297,
      "ec": 298,
      "as": 299,
      "ro": 300,
      "ment": 301,
      "il": 302,
      "Ġe": 303,
      "ation": 304,
      "st": 305,
      "et": 306,
      "20": 307,
      "ve": 308,
      "ĠC": 309,
      "Ġl": 310,
      "un": 311,
      "Ġ20": 312,
      "ce": 313,
      "ul": 314,
      "Ġn": 315,
      "Ġas": 316,
      "omp": 317,
      "Ġour": 318,
      "ate": 319,
      "Ġth": 320,
      "ol": 321,
      "ct": 322,
      "ly": 323,
      "ĠA": 324,
      "Ġor": 325,
      "us": 326,
      "âĢ": 327,
      "le": 328,
      "Ġfor": 329,
      "Ġpro": 330,
      "id": 331,
      "ĠS": 332,
      "Ġcon": 333,
      "th": 334,
      "ab": 335,
      "qu": 336,
      "im": 337,
      "ers": 338,
      "Ġon": 339,
      "lo": 340,
      "Ġex": 341,
      "ĠT": 342,
      "ated": 343,
      "Ġ201": 344,
      "ch": 345,
      "Ġh": 346,
      "Ġinc": 347,
      "em": 348,
      "ot": 349,
      "ay": 350,
      "ci": 351,
      "Ġbe": 352,
      "1,": 353,
      "li": 354,
      "red": 355,
      "Ġst": 356,
      "Ġ(": 357,
      "ĠI": 358,
      "ge": 359,
      "Ġsu": 360,
      "Ġwe": 361,
      "ity": 362,
      "ith": 363,
      "Ġis": 364,
      "ess": 365,
      "ompan": 366,
      "ect": 367,
      "ĠD": 368,
      "ments": 369,
      "ut": 370,
      "Ġwith": 371,
      "Ġ$": 372,
      "res": 373,
      "ĠF": 374,
      "se": 375,
      "Ġ1": 376,
      "Ġg": 377,
      "ain": 378,
      "ir": 379,
      "ĠP": 380,
      "per": 381,
      "Ġac": 382,
      "ompany": 383,
      "ties": 384,
      "Ġare": 385,
      "Ġde": 386,
      "ff": 387,
      "Ġthat": 388,
      "end": 389,
      "ri": 390,
      "Ġco": 391,
      "ts": 392,
      "tive": 393,
      "ber": 394,
      "00": 395,
      "Ġ3": 396,
      "Ġby": 397,
      "ue": 398,
      "ver": 399,
      "por": 400,
      "ud": 401,
      "Ġv": 402,
      "ra": 403,
      "Ġun": 404,
      "ance": 405,
      "ations": 406,
      "ther": 407,
      "able": 408,
      "Ġres": 409,
      "ition": 410,
      "ĠR": 411,
      "Ġint": 412,
      "oc": 413,
      "Ġad": 414,
      "ĠM": 415,
      "ĠE": 416,
      "du": 417,
      "est": 418,
      "oun": 419,
      "ran": 420,
      "ĠCompany": 421,
      "ig": 422,
      "su": 423,
      "ĠThe": 424,
      "if": 425,
      "ĠIn": 426,
      "omm": 427,
      "pp": 428,
      "cial": 429,
      "ĠO": 430,
      "os": 431,
      "ities": 432,
      "Ġper": 433,
      "inan": 434,
      "rom": 435,
      "Ġcomp": 436,
      "ist": 437,
      "od": 438,
      "Ġass": 439,
      "Ġnot": 440,
      "ha": 441,
      "Ġexp": 442,
      "age": 443,
      "Ġwh": 444,
      "and": 445,
      "ll": 446,
      "Ġcont": 447,
      "ock": 448,
      "orm": 449,
      "ember": 450,
      "ĠN": 451,
      "âĢĻ": 452,
      "its": 453,
      "ac": 454,
      "ase": 455,
      "Ġfrom": 456,
      "ye": 457,
      "Ġmay": 458,
      "qui": 459,
      "inancial": 460,
      "lud": 461,
      "Ġat": 462,
      "ren": 463,
      "ter": 464,
      "ĠB": 465,
      "der": 466,
      "ust": 467,
      "Ġr": 468,
      "Ġha": 469,
      "illi": 470,
      "Ġother": 471,
      "ion": 472,
      "ĠL": 473,
      "illion": 474,
      "ich": 475,
      "tions": 476,
      "Ġoper": 477,
      "Ġus": 478,
      "Ġapp": 479,
      "ure": 480,
      "ard": 481,
      "port": 482,
      "ome": 483,
      "tain": 484,
      "Ġwhich": 485,
      "ecember": 486,
      "iv": 487,
      "2,": 488,
      "Ġinclud": 489,
      "Ġpr": 490,
      "ill": 491,
      "Ġmillion": 492,
      "ark": 493,
      "low": 494,
      "Ġ31,": 495,
      "ens": 496,
      "Ġcomm": 497,
      "dition": 498,
      "ets": 499,
      "iz": 500,
      "ĠDecember": 501,
      "ax": 502,
      "ant": 503,
      "erv": 504,
      "ount": 505,
      "ary": 506,
      "Ġsha": 507,
      "ĠâĢ": 508,
      "year": 509,
      "uld": 510,
      "iness": 511,
      "Ġacc": 512,
      "Ġam": 513,
      "usiness": 514,
      "ates": 515,
      "Ġhave": 516,
      "ree": 517,
      "Ġsub": 518,
      "ĠW": 519,
      "Ġstock": 520,
      "um": 521,
      "duct": 522,
      "Ġfinancial": 523,
      "ors": 524,
      "ased": 525,
      "ility": 526,
      "Ġval": 527,
      "ies": 528,
      "form": 529,
      "Ġyear": 530,
      "Ġreg": 531,
      "ru": 532,
      "ally": 533,
      "Ġim": 534,
      "erm": 535,
      "ĠU": 536,
      "eg": 537,
      "ign": 538,
      "Ġrec": 539,
      "Ġfa": 540,
      "isc": 541,
      "ating": 542,
      "hi": 543,
      "ĠSt": 544,
      "ap": 545,
      "Ġresul": 546,
      "Ġinv": 547,
      "0.": 548,
      "5,": 549,
      "3,": 550,
      "ore": 551,
      "Ġal": 552,
      "0,": 553,
      "ash": 554,
      "4,": 555,
      "Ġbusiness": 556,
      "Ġli": 557,
      "Ġtax": 558,
      "Ġmark": 559,
      "el": 560,
      "ven": 561,
      "Ġany": 562,
      "Ġpar": 563,
      "ef": 564,
      "Ġrequi": 565,
      "Ġag": 566,
      "ere": 567,
      "Ġcons": 568,
      "Ġch": 569,
      "Ġman": 570,
      "ice": 571,
      "Ġimp": 572,
      "erest": 573,
      "Ġproduct": 574,
      "Ġunder": 575,
      "Ġcost": 576,
      "old": 577,
      "og": 578,
      "Ġ2": 579,
      "Ġwill": 580,
      "ty": 581,
      "âĢĿ": 582,
      "Ġ202": 583,
      "Ġen": 584,
      "ted": 585,
      "Ġsuch": 586,
      "6,": 587,
      "ow": 588,
      "ew": 589,
      "Ġprov": 590,
      "Ġrel": 591,
      "gh": 592,
      "ecur": 593,
      "ended": 594,
      "Ġits": 595,
      "The": 596,
      "Ġvalue": 597,
      "ire": 598,
      "7,": 599,
      "lic": 600,
      "Ġserv": 601,
      "am": 602,
      "8,": 603,
      "ad": 604,
      "Ġassets": 605,
      "oss": 606,
      "ater": 607,
      "ual": 608,
      "oan": 609,
      "urren": 610,
      "act": 611,
      "Ġwas": 612,
      "Ġle": 613,
      "9,": 614,
      "ĠG": 615,
      "In": 616,
      "Ġeff": 617,
      "ĠJ": 618,
      "Ġstate": 619,
      "ertain": 620,
      "ices": 621,
      "Ġappro": 622,
      "fer": 623,
      "Ġcould": 624,
      "Ġincome": 625,
      "ific": 626,
      "cc": 627,
      "ective": 628,
      "Ġinterest": 629,
      "Ġpur": 630,
      "Ġcash": 631,
      "up": 632,
      "Ġnet": 633,
      "Ġpl": 634,
      "Ġab": 635,
      "Ġmarket": 636,
      "Ġpay": 637,
      "irect": 638,
      "Ġinvest": 639,
      "rans": 640,
      "iod": 641,
      "ep": 642,
      "Ġhe": 643,
      "ĠEx": 644,
      "Ġincre": 645,
      "ings": 646,
      "ord": 647,
      "ital": 648,
      "ges": 649,
      "ĠWe": 650,
      "rib": 651,
      "ces": 652,
      "Ġperiod": 653,
      "mp": 654,
      "ener": 655,
      "orpor": 656,
      "ents": 657,
      "ized": 658,
      "uring": 659,
      "Ġprovid": 660,
      "ĠH": 661,
      "Ġshares": 662,
      "Ġoperations": 663,
      "Ġaddition": 664,
      "ee": 665,
      "igh": 666,
      "Ġpre": 667,
      "reement": 668,
      "tim": 669,
      "ĠâĢľ": 670,
      "Ġsal": 671,
      "Ġresp": 672,
      "ial": 673,
      "Ġcommon": 674,
      "000": 675,
      "ject": 676,
      "ilities": 677,
      "Ġob": 678,
      "ory": 679,
      "ecurities": 680,
      "agement": 681,
      "tial": 682,
      "Ġincluding": 683,
      "Ġthese": 684,
      "ons": 685,
      "apital": 686,
      "Ġreport": 687,
      "tiv": 688,
      "Ġcl": 689,
      "cip": 690,
      "val": 691,
      "Ġhas": 692,
      "urrent": 693,
      "tic": 694,
      "our": 695,
      "ange": 696,
      "Ġregul": 697,
      "ous": 698,
      "isk": 699,
      "Ġloss": 700,
      "Ġtrans": 701,
      "ub": 702,
      "velo": 703,
      "Ġliab": 704,
      "velop": 705,
      "olid": 706,
      "Ġloan": 707,
      "ustom": 708,
      "vers": 709,
      "so": 710,
      "ĠInc": 711,
      "Ġcosts": 712,
      "ail": 713,
      "ke": 714,
      "ong": 715,
      "Ġtim": 716,
      "Ġthis": 717,
      "ical": 718,
      "Ġind": 719,
      "uture": 720,
      "ract": 721,
      "Ġqu": 722,
      "Ġdisc": 723,
      "ach": 724,
      "Ġissu": 725,
      "Ġ$1": 726,
      "Ġended": 727,
      "Ġrelated": 728,
      "ine": 729,
      "ort": 730,
      "Ġop": 731,
      "Ġcertain": 732,
      "und": 733,
      "Ġterm": 734,
      "ited": 735,
      "Ġwere": 736,
      "ection": 737,
      "ense": 738,
      "Ġgener": 739,
      "Ġall": 740,
      "Ġshare": 741,
      "ative": 742,
      "Ġresult": 743,
      "ugh": 744,
      "Ġcustom": 745,
      "Ġover": 746,
      "Ġfuture": 747,
      "ected": 748,
      "olidated": 749,
      "Ġreven": 750,
      "redit": 751,
      "Ġfil": 752,
      "Ġdevelop": 753,
      "Ġproducts": 754,
      "ĠRe": 755,
      "rol": 756,
      "Ġstatements": 757,
      "Ġfair": 758,
      "ble": 759,
      "Ġout": 760,
      "Ġaff": 761,
      "ric": 762,
      "over": 763,
      "Ġref": 764,
      "op": 765,
      "the": 766,
      "Ġmater": 767,
      "ive": 768,
      "ass": 769,
      "ecu": 770,
      "Ġwhe": 771,
      "ounts": 772,
      "Ġes": 773,
      "Ġoff": 774,
      "formation": 775,
      "are": 776,
      "Ġif": 777,
      "ĠUn": 778,
      "ss": 779,
      "olders": 780,
      "eren": 781,
      "Ġrep": 782,
      "Ġsign": 783,
      "ollow": 784,
      "aw": 785,
      "Ġdec": 786,
      "Ġrisk": 787,
      "ced": 788,
      "Ġrequire": 789,
      "ures": 790,
      "ry": 791,
      "Ġup": 792,
      "row": 793,
      "Ġsp": 794,
      "ificant": 795,
      "ise": 796,
      "Ġoperating": 797,
      "ank": 798,
      "Ġyears": 799,
      "Ġtime": 800,
      "Ġdirect": 801,
      "quity": 802,
      "We": 803,
      "Ġcapital": 804,
      "Ġestim": 805,
      "Ġalso": 806,
      "enef": 807,
      "Ġme": 808,
      "Ġdet": 809,
      "ose": 810,
      "Ġresults": 811,
      "Ġtheir": 812,
      "Ġfollow": 813,
      "ĠAg": 814,
      "hip": 815,
      "Ġrece": 816,
      "4.": 817,
      "Ġsubject": 818,
      "Ġinter": 819,
      "Ġit": 820,
      "Ġcurrent": 821,
      "ffic": 822,
      "enses": 823,
      "ately": 824,
      "Ġrate": 825,
      "Ġmanagement": 826,
      "Ġno": 827,
      "Ġbased": 828,
      "ward": 829,
      "lig": 830,
      "Ġcontract": 831,
      "mplo": 832,
      "ould": 833,
      "rough": 834,
      "ered": 835,
      "arch": 836,
      "sion": 837,
      "Ġservices": 838,
      "ĠâĢĶ": 839,
      "ounting": 840,
      "all": 841,
      "Ġsignificant": 842,
      "ction": 843,
      "ases": 844,
      "oll": 845,
      "Ġnon": 846,
      "pos": 847,
      "rant": 848,
      "verse": 849,
      "ferred": 850,
      "ination": 851,
      "wn": 852,
      "ogn": 853,
      "anges": 854,
      "Ġcontrol": 855,
      "ont": 856,
      "Ġinformation": 857,
      "Ġprice": 858,
      "ied": 859,
      "ĠAct": 860,
      "ech": 861,
      "Ġdo": 862,
      "Ġamount": 863,
      "ell": 864,
      "Ġdue": 865,
      "Ġcondition": 866,
      "Ġplan": 867,
      "âĢĿ)": 868,
      "bt": 869,
      "Ġperform": 870,
      "Ġthan": 871,
      "Ġrequired": 872,
      "Ġsales": 873,
      "Ġsecurities": 874,
      "Ġcan": 875,
      "of": 876,
      "Ġliabilities": 877,
      "ĠAgreement": 878,
      "ĠComm": 879,
      "2.": 880,
      "olog": 881,
      "Ġ10": 882,
      "ensation": 883,
      "Ġproper": 884,
      "Ġmaterial": 885,
      "10": 886,
      "quis": 887,
      "art": 888,
      "arg": 889,
      "ag": 890,
      "Ġthrough": 891,
      "Ġ1,": 892,
      "3.": 893,
      "ined": 894,
      "ily": 895,
      "Ġnew": 896,
      "ĠAs": 897,
      "chase": 898,
      "ork": 899,
      "ision": 900,
      "Ġadverse": 901,
      "ĠV": 902,
      "Ġbenef": 903,
      "ex": 904,
      "eve": 905,
      "IT": 906,
      "ublic": 907,
      "holders": 908,
      "ost": 909,
      "anding": 910,
      "Ġcredit": 911,
      "Ġadditional": 912,
      "Ġinto": 913,
      "rad": 914,
      "ĠNot": 915,
      "erg": 916,
      "Ġapplic": 917,
      "Ġdef": 918,
      "ence": 919,
      "tem": 920,
      "air": 921,
      "echn": 922,
      "quisition": 923,
      "Ġcompany": 924,
      "Ġexpenses": 925,
      "ĠForm": 926,
      "resent": 927,
      "ast": 928,
      "tif": 929,
      "Ġ5": 930,
      "nal": 931,
      "tit": 932,
      "Ġlim": 933,
      "change": 934,
      "Ġactiv": 935,
      "Ġimpact": 936,
      "Ġpa": 937,
      "ivid": 938,
      "Ġthere": 939,
      "Ġeach": 940,
      "Ġreporting": 941,
      "ĠNo": 942,
      "Ġ8": 943,
      "vail": 944,
      "Ġincrease": 945,
      "Ġemplo": 946,
      "Ġbeen": 947,
      "Ġma": 948,
      "Ġcontin": 949,
      "verage": 950,
      "Ġdeterm": 951,
      "Ġmore": 952,
      "ues": 953,
      "urance": 954,
      "Ġ2020": 955,
      "hib": 956,
      "Ġrecogn": 957,
      "cess": 958,
      "ari": 959,
      "1.": 960,
      "Ġlaw": 961,
      "Ġduring": 962,
      "Ġpri": 963,
      "standing": 964,
      "Ġexpense": 965,
      "incip": 966,
      "Ġdebt": 967,
      "atory": 968,
      "__": 969,
      "ectively": 970,
      "25": 971,
      "sid": 972,
      "Ġsh": 973,
      "vi": 974,
      "ĠEn": 975,
      "Ġrevenue": 976,
      "15": 977,
      "Ġdate": 978,
      "Ġown": 979,
      "Ġrest": 980,
      "ceed": 981,
      "Ġdi": 982,
      "Ġ4": 983,
      "ible": 984,
      "xim": 985,
      "Ġdes": 986,
      "Ġprim": 987,
      "oard": 988,
      "ecutive": 989,
      "arn": 990,
      "istrib": 991,
      "Ġrecord": 992,
      "eral": 993,
      "Ġmon": 994,
      "ĠFinancial": 995,
      "Ġfollowing": 996,
      "tal": 997,
      "arter": 998,
      "Ġability": 999,
      "ram": 1000,
      "Ġconsolidated": 1001,
      "Ġpart": 1002,
      "Ġloans": 1003,
      "Ġfund": 1004,
      "iscal": 1005,
      "Ġoblig": 1006,
      "ĠPro": 1007,
      "sure": 1008,
      "Ġchanges": 1009,
      "cy": 1010,
      "nual": 1011,
      "Ġcustomers": 1012,
      "Ġ200": 1013,
      "stan": 1014,
      "omb": 1015,
      "Ġwould": 1016,
      "aus": 1017,
      "erence": 1018,
      "Ġbas": 1019,
      "19": 1020,
      "ution": 1021,
      "les": 1022,
      "Ġissued": 1023,
      "otal": 1024,
      "ĠPl": 1025,
      ").": 1026,
      "Ġinvestment": 1027,
      "we": 1028,
      "ĠState": 1029,
      "Ġreceiv": 1030,
      "ĠStock": 1031,
      "Ġdis": 1032,
      "Ġeffect": 1033,
      "Ġins": 1034,
      "Ġtransac": 1035,
      "Ġfiled": 1036,
      "ability": 1037,
      "Ġapproxim": 1038,
      "Ġdevelopment": 1039,
      "alance": 1040,
      "ational": 1041,
      "Ġequity": 1042,
      "ia": 1043,
      "ĠOur": 1044,
      "Ġavail": 1045,
      "econ": 1046,
      "righ": 1047,
      "arily": 1048,
      "just": 1049,
      "Ġev": 1050,
      "out": 1051,
      "umber": 1052,
      "yst": 1053,
      "echnolog": 1054,
      "ved": 1055,
      "uth": 1056,
      "ential": 1057,
      "ĠAn": 1058,
      "ood": 1059,
      "ird": 1060,
      "cep": 1061,
      "ederal": 1062,
      "cing": 1063,
      "ata": 1064,
      "ership": 1065,
      "ace": 1066,
      "Ġacquisition": 1067,
      "Ġredu": 1068,
      "Ġj": 1069,
      "Ġrem": 1070,
      "lement": 1071,
      "ified": 1072,
      "overn": 1073,
      "ĠAcc": 1074,
      "Ġrigh": 1075,
      "ees": 1076,
      "Ġfac": 1077,
      "hibit": 1078,
      "Ġtotal": 1079,
      "Ġupon": 1080,
      "Ġrequirements": 1081,
      "Ġapproximately": 1082,
      "Ġbasis": 1083,
      "Ġest": 1084,
      "Ġflow": 1085,
      "stru": 1086,
      "Ġdep": 1087,
      "ĠAm": 1088,
      "Ġequi": 1089,
      "12": 1090,
      "rust": 1091,
      "tiz": 1092,
      "Ġvari": 1093,
      "13": 1094,
      "Ġoutstanding": 1095,
      "utions": 1096,
      "Ġfiscal": 1097,
      "hed": 1098,
      "ile": 1099,
      "Ġdistrib": 1100,
      "Ġactivities": 1101,
      "6.": 1102,
      "Ġone": 1103,
      "Ġmain": 1104,
      "ĠReg": 1105,
      "ercial": 1106,
      "ĠReport": 1107,
      "14": 1108,
      "ld": 1109,
      "ystem": 1110,
      "Ġconsid": 1111,
      "Ġregist": 1112,
      "EC": 1113,
      "ns": 1114,
      "sum": 1115,
      "Ġwell": 1116,
      "Ġext": 1117,
      "ission": 1118,
      "Ġ2014": 1119,
      "Ġrates": 1120,
      "Ġuse": 1121,
      "ticip": 1122,
      "Ġprincip": 1123,
      "75": 1124,
      "DA": 1125,
      "Ġ2016": 1126,
      "anu": 1127,
      "ĠAd": 1128,
      "Total": 1129,
      "Ġaccounting": 1130,
      "Ġincluded": 1131,
      "18": 1132,
      "Ġemploye": 1133,
      "ĠTh": 1134,
      "Ġinclude": 1135,
      "Ġ2015": 1136,
      "lect": 1137,
      "orporated": 1138,
      "gram": 1139,
      "suant": 1140,
      "itt": 1141,
      "Ġprimarily": 1142,
      "fact": 1143,
      "atur": 1144,
      "Ġ2013": 1145,
      "Ġcompensation": 1146,
      "Ġret": 1147,
      "âĢľ": 1148,
      "Ġpublic": 1149,
      "Ġperformance": 1150,
      "Ġaffect": 1151,
      "to": 1152,
      "ause": 1153,
      "Ġlosses": 1154,
      "ever": 1155,
      "ult": 1156,
      "Ġini": 1157,
      "Ġavailable": 1158,
      "Ġprovide": 1159,
      "Ġthose": 1160,
      "Ġused": 1161,
      "99": 1162,
      "ompanies": 1163,
      "Ġfore": 1164,
      "uthor": 1165,
      "7.": 1166,
      "Ġbet": 1167,
      "ER": 1168,
      "Ġcoll": 1169,
      "ower": 1170,
      "sidi": 1171,
      "Ġreference": 1172,
      "Ġregulatory": 1173,
      "Ġthird": 1174,
      "Ġcar": 1175,
      "for": 1176,
      "dust": 1177,
      "als": 1178,
      "Ġatt": 1179,
      "Ġspec": 1180,
      "aim": 1181,
      "),": 1182,
      "ang": 1183,
      "16": 1184,
      "Ġrespectively": 1185,
      "Ġhigh": 1186,
      "erc": 1187,
      "Ġagreement": 1188,
      "Ġent": 1189,
      "Ġ30,": 1190,
      "anuary": 1191,
      "Ġdirectors": 1192,
      "Ġproperty": 1193,
      "fter": 1194,
      "ES": 1195,
      "Ġ2017": 1196,
      "inical": 1197,
      "Ġfact": 1198,
      "Ġlease": 1199,
      "olic": 1200,
      "NT": 1201,
      "ack": 1202,
      "eb": 1203,
      "inc": 1204,
      "ared": 1205,
      "vest": 1206,
      "33": 1207,
      "ĠLL": 1208,
      "Ġallow": 1209,
      "Ġreal": 1210,
      "Ġearn": 1211,
      "Ġmet": 1212,
      "ĠPlan": 1213,
      "Ġbeli": 1214,
      "Ġtrad": 1215,
      "valu": 1216,
      "Ġar": 1217,
      "Ġasset": 1218,
      "Ġamounts": 1219,
      "pr": 1220,
      "ween": 1221,
      "ption": 1222,
      "Ġnumber": 1223,
      "Ġbec": 1224,
      "Ġmeas": 1225,
      "reements": 1226,
      "own": 1227,
      "andard": 1228,
      "vel": 1229,
      "Our": 1230,
      "Ġpers": 1231,
      "50": 1232,
      "10.": 1233,
      "5.": 1234,
      "ombination": 1235,
      "ortiz": 1236,
      "ason": 1237,
      "Ġaud": 1238,
      "Ġ2018": 1239,
      "Ġbetween": 1240,
      "rate": 1241,
      "ĠJanuary": 1242,
      "ĠBank": 1243,
      "Ġcommercial": 1244,
      "17": 1245,
      "Ġtechnolog": 1246,
      "int": 1247,
      "Ġcompanies": 1248,
      "osition": 1249,
      "ior": 1250,
      "Ġrecorded": 1251,
      "Ġservice": 1252,
      "ite": 1253,
      "une": 1254,
      "Ġ6": 1255,
      "Ġquarter": 1256,
      "Ġdecre": 1257,
      "Ġ(âĢľ": 1258,
      "Net": 1259,
      "AT": 1260,
      "ĠOffic": 1261,
      "Ġpurchase": 1262,
      "ĠThese": 1263,
      "Ġterms": 1264,
      "Ġ9": 1265,
      "Ġ2012": 1266,
      "Ġlong": 1267,
      "Ġinvestments": 1268,
      "Ġgovern": 1269,
      "Ġpot": 1270,
      "reg": 1271,
      "Ġsubsidi": 1272,
      "Ġprocess": 1273,
      "Ġgrow": 1274,
      "Ġmanu": 1275,
      "lass": 1276,
      "Ġclaim": 1277,
      "Ġmanufact": 1278,
      "Ġlaws": 1279,
      "orporation": 1280,
      "king": 1281,
      "gage": 1282,
      "Ġrestric": 1283,
      "Ġadjust": 1284,
      "Ġexpected": 1285,
      "ĠIf": 1286,
      "Ġpat": 1287,
      "Ġwithin": 1288,
      "term": 1289,
      "til": 1290,
      "Ġprior": 1291,
      "Ġenti": 1292,
      "isting": 1293,
      "Ġprogram": 1294,
      "Ġeffective": 1295,
      "Ġregulations": 1296,
      "Ġobligations": 1297,
      "Item": 1298,
      "Ġsystem": 1299,
      "Ġ2019": 1300,
      "Ġoffic": 1301,
      "Ġincreased": 1302,
      "Ġgenerally": 1303,
      "Ġwhen": 1304,
      "Ġsale": 1305,
      "ividend": 1306,
      "ix": 1307,
      "ON": 1308,
      "par": 1309,
      "40": 1310,
      "alth": 1311,
      "Ġliability": 1312,
      "Ġrecognized": 1313,
      "ept": 1314,
      "oci": 1315,
      "io": 1316,
      "Ġevalu": 1317,
      "ĠMarch": 1318,
      "28": 1319,
      "ĠLLC": 1320,
      "Ġoffer": 1321,
      "Ġapplicable": 1322,
      "onsolidated": 1323,
      "Ġacqui": 1324,
      "ĠY": 1325,
      "Ġexper": 1326,
      "Ġcompe": 1327,
      "Ġra": 1328,
      "Ġpayments": 1329,
      "Ġmonth": 1330,
      "lis": 1331,
      "eptember": 1332,
      "11": 1333,
      "ants": 1334,
      "min": 1335,
      "Ġ2021": 1336,
      "Ġdata": 1337,
      "23": 1338,
      "Ġincur": 1339,
      "let": 1340,
      "Ġ7": 1341,
      "Ġindust": 1342,
      "Ġsa": 1343,
      "ight": 1344,
      "Ġassoci": 1345,
      "Ġ-": 1346,
      "Ġinternal": 1347,
      "Ġchange": 1348,
      "Ġobtain": 1349,
      "rants": 1350,
      "eriv": 1351,
      "Ġloc": 1352,
      "0,000": 1353,
      "Ġdated": 1354,
      "ĠStates": 1355,
      "ines": 1356,
      "Ġauthor": 1357,
      "ress": 1358,
      "ade": 1359,
      "Ġdiff": 1360,
      "endent": 1361,
      "Ġqual": 1362,
      "Ġset": 1363,
      "Ġconditions": 1364,
      "ii": 1365,
      "26": 1366,
      "Ġprof": 1367,
      "Ġgu": 1368,
      "24": 1369,
      "tially": 1370,
      "ĠSecurities": 1371,
      "Ġpaid": 1372,
      ".,": 1373,
      "eed": 1374,
      "ame": 1375,
      "29": 1376,
      "Ġfederal": 1377,
      "aries": 1378,
      "based": 1379,
      "orrow": 1380,
      "ĠK": 1381,
      "ĠExhibit": 1382,
      "Ġimpair": 1383,
      "minist": 1384,
      "ys": 1385,
      "Ġfir": 1386,
      "Ġsupp": 1387,
      "Ġprodu": 1388,
      "IN": 1389,
      "Ġrights": 1390,
      "Ġpursuant": 1391,
      "Ġadversely": 1392,
      "EM": 1393,
      "ĠJune": 1394,
      "ross": 1395,
      "Ġmaintain": 1396,
      "Ġdeferred": 1397,
      "ĠBoard": 1398,
      "Ġpresent": 1399,
      "ĠUnited": 1400,
      "inancing": 1401,
      "OR": 1402,
      "Ex": 1403,
      "Ġagreements": 1404,
      "ear": 1405,
      "arge": 1406,
      "ove": 1407,
      "ĠOfficer": 1408,
      "Ġapproval": 1409,
      "Ġrevenues": 1410,
      "93": 1411,
      "Ġsubstan": 1412,
      "ize": 1413,
      "range": 1414,
      "ili": 1415,
      "Ġless": 1416,
      "ĠSeptember": 1417,
      "tig": 1418,
      "Ġwar": 1419,
      "ĠDirect": 1420,
      "ources": 1421,
      "Ġclinical": 1422,
      "Ġcarry": 1423,
      "Ġdisclo": 1424,
      "Ġdesign": 1425,
      "ĠExchange": 1426,
      "ĠMan": 1427,
      "liance": 1428,
      "Ġhad": 1429,
      "Ġfactors": 1430,
      "Ġlic": 1431,
      "Ġadv": 1432,
      "Ġcustomer": 1433,
      "Ġestimated": 1434,
      "tical": 1435,
      "ĠPart": 1436,
      "Ġproceed": 1437,
      "Ġmod": 1438,
      "ending": 1439,
      "wards": 1440,
      "ĠComp": 1441,
      "Ġtaxes": 1442,
      "ving": 1443,
      "Ġfees": 1444,
      "Ġposition": 1445,
      "ration": 1446,
      "ĠNote": 1447,
      "Ġcontinue": 1448,
      "ays": 1449,
      "Ġflows": 1450,
      "ortgage": 1451,
      "fore": 1452,
      "Ġafter": 1453,
      "Ġheld": 1454,
      "Ġemployees": 1455,
      "pment": 1456,
      "tives": 1457,
      "econom": 1458,
      "30": 1459,
      "ecurity": 1460,
      "uted": 1461,
      "Ġreason": 1462,
      "SU": 1463,
      "cent": 1464,
      "27": 1465,
      "Ġsell": 1466,
      "Ġpolic": 1467,
      "ccess": 1468,
      "ergy": 1469,
      "Ġrisks": 1470,
      "hief": 1471,
      "gan": 1472,
      "view": 1473,
      "Ġlevel": 1474,
      "ful": 1475,
      "Ġassociated": 1476,
      "quid": 1477,
      "iden": 1478,
      "Ġprincipal": 1479,
      "urther": 1480,
      "Ġrespect": 1481,
      "Ġmake": 1482,
      "orporate": 1483,
      "Ġassess": 1484,
      "ization": 1485,
      "ND": 1486,
      "Ġcontracts": 1487,
      "Ġoptions": 1488,
      "urn": 1489,
      "AR": 1490,
      "one": 1491,
      "Ġ%": 1492,
      "ĠCon": 1493,
      "Ġprovision": 1494,
      "older": 1495,
      "enior": 1496,
      "Ġexperi": 1497,
      "Ġaccord": 1498,
      "Ġcomplet": 1499,
      "Ġform": 1500,
      "Ġstandard": 1501,
      "ĠFor": 1502,
      "ak": 1503,
      "Ġpotential": 1504,
      "Ġdividend": 1505,
      "ĠCh": 1506,
      "ĠLoan": 1507,
      "tific": 1508,
      "Ġren": 1509,
      "Ġexerc": 1510,
      "Ġleg": 1511,
      "Ġconn": 1512,
      "hod": 1513,
      "Ġinitial": 1514,
      "Ġforeign": 1515,
      "Ġperson": 1516,
      "Inc": 1517,
      "Ġprovided": 1518,
      "rateg": 1519,
      "Ġborrow": 1520,
      "ortf": 1521,
      "tis": 1522,
      "8.": 1523,
      "Ġgrowth": 1524,
      "ciation": 1525,
      "Ġeconom": 1526,
      "Ġunc": 1527,
      "ĠStatements": 1528,
      "arm": 1529,
      "St": 1530,
      "Ġseg": 1531,
      "Ġbelieve": 1532,
      "Ġbalance": 1533,
      "Ġremain": 1534,
      "Ġ2022": 1535,
      "Other": 1536,
      "Ġannual": 1537,
      "Ġtransactions": 1538,
      "Ġvol": 1539,
      "Ġtri": 1540,
      "Ġ$0.": 1541,
      "Ġbank": 1542,
      "Ġregard": 1543,
      "ning": 1544,
      "Ġmarkets": 1545,
      "Ġimpairment": 1546,
      "Ġmade": 1547,
      "Ġvalu": 1548,
      "Ġclaims": 1549,
      "ond": 1550,
      "ĠMr": 1551,
      "Ġstockholders": 1552,
      "ablis": 1553,
      "35": 1554,
      "ortfol": 1555,
      "ĠThis": 1556,
      "Ġbut": 1557,
      "Ġusing": 1558,
      "Ġestimates": 1559,
      "Ġearnings": 1560,
      "Ġlimited": 1561,
      "mental": 1562,
      "Ġcombination": 1563,
      "Ġexpect": 1564,
      "Ġderiv": 1565,
      "As": 1566,
      "Ġcompared": 1567,
      "Ġamortiz": 1568,
      "ĠSha": 1569,
      "Ġtw": 1570,
      "ances": 1571,
      "Ġbenefit": 1572,
      "andid": 1573,
      "ebru": 1574,
      "ebruary": 1575,
      "Ġful": 1576,
      "Ġocc": 1577,
      "ruct": 1578,
      "mit": 1579,
      "Ġperiods": 1580,
      "Ġiden": 1581,
      "ĠSEC": 1582,
      "Ġconsider": 1583,
      "sump": 1584,
      "ĠRegist": 1585,
      "AN": 1586,
      "Ġpartn": 1587,
      "pri": 1588,
      "Ġgas": 1589,
      "ck": 1590,
      "Ġwhether": 1591,
      "Ġmethod": 1592,
      "SC": 1593,
      "ober": 1594,
      "ĠNotes": 1595,
      "ulated": 1596,
      "Ġgain": 1597,
      "Ġclass": 1598,
      "Ġsuccess": 1599,
      "greg": 1600,
      "Ġamong": 1601,
      "Ġequipment": 1602,
      "60": 1603,
      "Ġcap": 1604,
      "Ġfail": 1605,
      "line": 1606,
      "Ġfin": 1607,
      "ule": 1608,
      "____": 1609,
      "Ġbelow": 1610,
      "Ġprices": 1611,
      "Ġcandid": 1612,
      "Ġinsurance": 1613,
      "ĠTrust": 1614,
      "ĠOper": 1615,
      "yp": 1616,
      "Ġaverage": 1617,
      "Ġestablis": 1618,
      "Ġgeneral": 1619,
      "49": 1620,
      "roup": 1621,
      "Ġlimit": 1622,
      "ules": 1623,
      "ortfolio": 1624,
      "Ġpayment": 1625,
      "dic": 1626,
      "Ġsim": 1627,
      "ittee": 1628,
      "Ġconnection": 1629,
      "Ġthey": 1630,
      "Ġact": 1631,
      "Ġwork": 1632,
      "Ġbo": 1633,
      "uly": 1634,
      "Ġvarious": 1635,
      "led": 1636,
      "Ġcoun": 1637,
      "22": 1638,
      "Ġprot": 1639,
      "ependent": 1640,
      "ib": 1641,
      "ug": 1642,
      "Ġfinancing": 1643,
      "45": 1644,
      "Ġexisting": 1645,
      "Ġmat": 1646,
      "ension": 1647,
      "Ġfunds": 1648,
      "Ġnotes": 1649,
      "Ġclo": 1650,
      "38": 1651,
      "Ġadop": 1652,
      "Ġaccount": 1653,
      "Ġ)": 1654,
      "48": 1655,
      "Ġneg": 1656,
      "ian": 1657,
      "Ġstrateg": 1658,
      "Ġmeet": 1659,
      "cept": 1660,
      "will": 1661,
      "Ġindustry": 1662,
      "ĠFebruary": 1663,
      "Ġsc": 1664,
      "ĠCont": 1665,
      "Ġred": 1666,
      "Ġ12": 1667,
      "Ġgood": 1668,
      "Ġinf": 1669,
      "arket": 1670,
      "vir": 1671,
      "Ġdem": 1672,
      "Ġreview": 1673,
      "Ġinstru": 1674,
      "ĠServ": 1675,
      "ĠExecutive": 1676,
      "ĠSection": 1677,
      "Ġagain": 1678,
      "âĢ¢": 1679,
      "ident": 1680,
      "36": 1681,
      "ctober": 1682,
      "ially": 1683,
      "Ġliquid": 1684,
      "AL": 1685,
      "Ġaccordance": 1686,
      "Ġpor": 1687,
      "98": 1688,
      "Ġaccounts": 1689,
      "Ġcurrently": 1690,
      "Ġy": 1691,
      "tible": 1692,
      "rit": 1693,
      "Ġassump": 1694,
      "cedures": 1695,
      "ĠRes": 1696,
      "Ġhealth": 1697,
      "Ġmin": 1698,
      "Ġunits": 1699,
      "Ġconsum": 1700,
      "ĠInter": 1701,
      "Ġ15": 1702,
      "On": 1703,
      "05": 1704,
      "ĠPartn": 1705,
      "Ġadminist": 1706,
      "Ġtechnology": 1707,
      "urchase": 1708,
      "gregate": 1709,
      "icing": 1710,
      "ph": 1711,
      "ilar": 1712,
      "Ġ2016,": 1713,
      "ically": 1714,
      "47": 1715,
      "ters": 1716,
      "Ġagainst": 1717,
      "Ġtre": 1718,
      "46": 1719,
      "9.": 1720,
      "Ġ2015,": 1721,
      "cies": 1722,
      "ide": 1723,
      "roll": 1724,
      "Ġ2014,": 1725,
      "Ġneed": 1726,
      "Ġparties": 1727,
      "37": 1728,
      "Ġbenefits": 1729,
      "Ġsubsidiaries": 1730,
      "Ġaudit": 1731,
      "ient": 1732,
      "ĠOn": 1733,
      "ĠChief": 1734,
      "ote": 1735,
      "Ġ13": 1736,
      "ED": 1737,
      "hens": 1738,
      "ety": 1739,
      "pril": 1740,
      "Ġdetermined": 1741,
      "ĠClass": 1742,
      "Ġ2013,": 1743,
      "rehens": 1744,
      "Ġthree": 1745,
      "rehensive": 1746,
      "viron": 1747,
      "ĠMay": 1748,
      "Ġacquired": 1749,
      ",âĢĿ": 1750,
      "ĠAl": 1751,
      "Ġpayable": 1752,
      "21": 1753,
      "Ġ2,": 1754,
      "Ġreceived": 1755,
      "ĠSu": 1756,
      "Ġend": 1757,
      "Ġsol": 1758,
      "Ġ2017,": 1759,
      "Ġtable": 1760,
      "Ġplans": 1761,
      "AS": 1762,
      "Ġ2011": 1763,
      "Pro": 1764,
      "loss": 1765,
      "atural": 1766,
      "Ġexecutive": 1767,
      "pport": 1768,
      "sp": 1769,
      "ulation": 1770,
      "ĠCorporation": 1771,
      "Ġexchange": 1772,
      "0%": 1773,
      "rac": 1774,
      "Ġpurch": 1775,
      "ĠAccounting": 1776,
      "Ġeconomic": 1777,
      "Ġofficers": 1778,
      "Ġregarding": 1779,
      "Ġindic": 1780,
      "ĠOctober": 1781,
      "oint": 1782,
      "gin": 1783,
      "sed": 1784,
      "ĠâĢĵ": 1785,
      "irc": 1786,
      "loc": 1787,
      "Ġassumptions": 1788,
      "ands": 1789,
      "Ġcontinu": 1790,
      "Ġdecrease": 1791,
      "Ġfacilities": 1792,
      "Ġtransaction": 1793,
      "quent": 1794,
      "ĠInd": 1795,
      "ĠQ": 1796,
      "ised": 1797,
      "Ġcontain": 1798,
      "Un": 1799,
      "mber": 1800,
      "terest": 1801,
      "Ġable": 1802,
      "Ġpercent": 1803,
      "cl": 1804,
      "Ġmarketing": 1805,
      "Ġaggregate": 1806,
      "ports": 1807,
      "Ġportfolio": 1808,
      "Ġincludes": 1809,
      "ute": 1810,
      "06": 1811,
      "ENT": 1812,
      "Ġdepos": 1813,
      "Ġportion": 1814,
      "rug": 1815,
      "ĠCredit": 1816,
      "Ġ10.": 1817,
      "ded": 1818,
      "angible": 1819,
      "Ġcompeti": 1820,
      "Ġdefined": 1821,
      "ION": 1822,
      "ĠAnnual": 1823,
      "Ġcompliance": 1824,
      "clud": 1825,
      "Ġproject": 1826,
      "Ġsome": 1827,
      "ĠApril": 1828,
      "ular": 1829,
      "ighted": 1830,
      "Ġ2018,": 1831,
      "ugust": 1832,
      "Ġtarg": 1833,
      "Ġtyp": 1834,
      "Ġ$1.": 1835,
      "ale": 1836,
      "ages": 1837,
      "Ġph": 1838,
      "Ġmonths": 1839,
      "abor": 1840,
      "ring": 1841,
      "ware": 1842,
      "Ġuncertain": 1843,
      "rued": 1844,
      "crib": 1845,
      "ĠCO": 1846,
      "Am": 1847,
      "Ġshe": 1848,
      "ecess": 1849,
      "Ġsupport": 1850,
      "Ġincurred": 1851,
      "Ġsee": 1852,
      "Ġsimilar": 1853,
      "Ġparty": 1854,
      "holder": 1855,
      "Ġtwo": 1856,
      "Ġidentif": 1857,
      "ĠJuly": 1858,
      "ip": 1859,
      "Ġpriv": 1860,
      "Ġcal": 1861,
      "entive": 1862,
      "Ġel": 1863,
      "Ġregistrant": 1864,
      "Ġonly": 1865,
      "Ġ2020,": 1866,
      "Ġ\"": 1867,
      "not": 1868,
      "Ġsystems": 1869,
      "Ġfirst": 1870,
      "ĠConsolidated": 1871,
      "ĠFDA": 1872,
      "Ġrepresent": 1873,
      "Ġoption": 1874,
      "Ġu": 1875,
      "39": 1876,
      "eries": 1877,
      "Ġparticip": 1878,
      "ler": 1879,
      "Ġprocedures": 1880,
      "Ġexperience": 1881,
      "ecured": 1882,
      "tili": 1883,
      "Ġhere": 1884,
      "Ġconduct": 1885,
      "Ġcarrying": 1886,
      "Ġdistribution": 1887,
      "ĠManagement": 1888,
      "Ġ2019,": 1889,
      "Ġentered": 1890,
      "set": 1891,
      "65": 1892,
      "eric": 1893,
      "Ġevents": 1894,
      "rative": 1895,
      "78": 1896,
      "Ġimpro": 1897,
      "Acc": 1898,
      "ĠAND": 1899,
      "ĠSp": 1900,
      "ev": 1901,
      "Ġfacility": 1902,
      "Ġ2021,": 1903,
      "Ġinvol": 1904,
      "man": 1905,
      "kn": 1906,
      "ĠNove": 1907,
      "Ġelect": 1908,
      "ĠNovember": 1909,
      "Ġissuance": 1910,
      "qual": 1911,
      "put": 1912,
      "Ġdoes": 1913,
      "ĠRE": 1914,
      "party": 1915,
      "Ġproperties": 1916,
      "lob": 1917,
      "Ġcandidates": 1918,
      "Ġdividends": 1919,
      "ou": 1920,
      "Ġsecurity": 1921,
      "lu": 1922,
      "Ġabove": 1923,
      "Ġ2012,": 1924,
      "ertific": 1925,
      "ness": 1926,
      "Ġtest": 1927,
      "ince": 1928,
      "44": 1929,
      "her": 1930,
      "Ġdel": 1931,
      "Ġinstruments": 1932,
      "IC": 1933,
      "ob": 1934,
      "pro": 1935,
      "owever": 1936,
      "ency": 1937,
      "ĠAugust": 1938,
      "68": 1939,
      "Ġhist": 1940,
      "ĠBusiness": 1941,
      "Ġestate": 1942,
      "urrency": 1943,
      "ivers": 1944,
      "Ġarrange": 1945,
      "Ġrese": 1946,
      "ification": 1947,
      "ife": 1948,
      "Ġvaluation": 1949,
      "Ġincorporated": 1950,
      "Ġsett": 1951,
      "ĠDirectors": 1952,
      "Ġallowance": 1953,
      "Ġconsist": 1954,
      "erve": 1955,
      "Ġindependent": 1956,
      "Ġsegment": 1957,
      "Ġboth": 1958,
      "08": 1959,
      "Ġdeli": 1960,
      "Ġ2023": 1961,
      "Ġnatural": 1962,
      "Ġlike": 1963,
      "Ġdifferen": 1964,
      "Ġoccur": 1965,
      "ĠII": 1966,
      "oing": 1967,
      "ĠNew": 1968,
      "Ġenviron": 1969,
      "ĠOF": 1970,
      "Ġamended": 1971,
      "00,": 1972,
      "cer": 1973,
      "Ġanal": 1974,
      "less": 1975,
      "ables": 1976,
      "imum": 1977,
      "Ġprovides": 1978,
      "nel": 1979,
      "aid": 1980,
      "resident": 1981,
      "Ġwhere": 1982,
      "ixed": 1983,
      "Ġdiscus": 1984,
      "ranted": 1985,
      "Ġequival": 1986,
      "Ġorder": 1987,
      "rel": 1988,
      "edi": 1989,
      "Ġmaterially": 1990,
      "ple": 1991,
      "Ġsold": 1992,
      "Ġreported": 1993,
      "Ġpatent": 1994,
      "inated": 1995,
      "reciation": 1996,
      "Ġpolicies": 1997,
      "Ġstandards": 1998,
      "Ġguid": 1999,
      "encies": 2000,
      "atives": 2001,
      "Ġleases": 2002,
      "ationship": 2003,
      "Ġaffili": 2004,
      "Ġproduction": 2005,
      "Ġawards": 2006,
      "67": 2007,
      "tigation": 2008,
      "vent": 2009,
      "poses": 2010,
      "Ġboard": 2011,
      "Ġmeasure": 2012,
      "Ġcompon": 2013,
      "ds": 2014,
      "wise": 2015,
      "Ġproceeds": 2016,
      "55": 2017,
      "Ġvest": 2018,
      "Ġcontrols": 2019,
      "Ġann": 2020,
      "vertible": 2021,
      "Ġnecess": 2022,
      "Ġreasonable": 2023,
      "ously": 2024,
      "Ġhold": 2025,
      "Ġresearch": 2026,
      "97": 2027,
      "Ġdrug": 2028,
      "Ġapproved": 2029,
      "Ġevent": 2030,
      "Ġrecover": 2031,
      "Ġlegal": 2032,
      "Ġrestricted": 2033,
      "Ġprofit": 2034,
      "Re": 2035,
      "31": 2036,
      "Ġfurther": 2037,
      "Ġ0.": 2038,
      "Ġtarget": 2039,
      "ĠCommon": 2040,
      "ries": 2041,
      "endment": 2042,
      "ĠDe": 2043,
      "Ġotherwise": 2044,
      "Comm": 2045,
      "tility": 2046,
      "econd": 2047,
      "Ad": 2048,
      "Ġpurposes": 2049,
      "arant": 2050,
      "pl": 2051,
      "Ġlower": 2052,
      "Ġexercise": 2053,
      "ĠPr": 2054,
      "Ġchar": 2055,
      "lobal": 2056,
      "ribut": 2057,
      "stances": 2058,
      "emb": 2059,
      "ake": 2060,
      "Cash": 2061,
      "ten": 2062,
      "Ġcorporate": 2063,
      "Ġgovernment": 2064,
      "Ġforward": 2065,
      "ĠInvest": 2066,
      "Ġpati": 2067,
      "ĠEquity": 2068,
      "Ġfollows": 2069,
      "sures": 2070,
      "ĠItem": 2071,
      "urse": 2072,
      "34": 2073,
      "Ġnegative": 2074,
      "Ġhigher": 2075,
      "Ġbegin": 2076,
      "jor": 2077,
      "ĠTax": 2078,
      "Ġbeing": 2079,
      "udg": 2080,
      "Ġindivid": 2081,
      "iel": 2082,
      "Ġwarrants": 2083,
      "cribed": 2084,
      "Ġoil": 2085,
      "Ġspecific": 2086,
      "95": 2087,
      "serv": 2088,
      "Ġ3,": 2089,
      "Ġro": 2090,
      "ins": 2091,
      "ĠCapital": 2092,
      "ĠAss": 2093,
      "ĠEnergy": 2094,
      "Ġoffset": 2095,
      "07": 2096,
      "Ġdemand": 2097,
      "ering": 2098,
      "Ġmortgage": 2099,
      "Ġche": 2100,
      "Ġpres": 2101,
      "efer": 2102,
      "Ġimplement": 2103,
      "Ġaffected": 2104,
      "mitted": 2105,
      "Ġhed": 2106,
      "Ġmanufacturing": 2107,
      "Ġgrant": 2108,
      "chi": 2109,
      "AP": 2110,
      "Ġ&": 2111,
      "Ġshareholders": 2112,
      "alized": 2113,
      "Ġsubstantial": 2114,
      "Ġrespons": 2115,
      "Ġbefore": 2116,
      "lying": 2117,
      "ough": 2118,
      "Ġstat": 2119,
      "Ġreduce": 2120,
      "ctions": 2121,
      "Ġmust": 2122,
      "Ġcommit": 2123,
      "For": 2124,
      "Ġassurance": 2125,
      "celer": 2126,
      "ĠIncome": 2127,
      "Ġcirc": 2128,
      "national": 2129,
      "ysis": 2130,
      "Ġreceive": 2131,
      "cont": 2132,
      "Ġresulting": 2133,
      "Ġalloc": 2134,
      "sing": 2135,
      "Ġreflect": 2136,
      "Ġthous": 2137,
      "Ġcomple": 2138,
      "Ġrequires": 2139,
      "Ġcalc": 2140,
      "sequent": 2141,
      "Ġord": 2142,
      "UR": 2143,
      "ify": 2144,
      "Ġinstit": 2145,
      "Ġcause": 2146,
      "Ġsum": 2147,
      "Ġprograms": 2148,
      "umulated": 2149,
      "Ġadministrative": 2150,
      "Ġabout": 2151,
      "Ġutili": 2152,
      "Ġsuccessful": 2153,
      "Ġextent": 2154,
      "Ġprovisions": 2155,
      "ĠHold": 2156,
      "Ġresources": 2157,
      "iss": 2158,
      "Ġbro": 2159,
      "ope": 2160,
      "asing": 2161,
      "ither": 2162,
      "ĠAc": 2163,
      "Ġmajor": 2164,
      "Ġbecause": 2165,
      "66": 2166,
      "evel": 2167,
      "ĠPre": 2168,
      "Ġachi": 2169,
      "Ġtrust": 2170,
      "Ġoffering": 2171,
      "01": 2172,
      "fficient": 2173,
      "Ġgranted": 2174,
      "ptions": 2175,
      "ĠAmeric": 2176,
      "Ġem": 2177,
      "Ġmost": 2178,
      "acy": 2179,
      "Ġhistor": 2180,
      "Ġamortization": 2181,
      "Ġunable": 2182,
      "âĢĿ),": 2183,
      "58": 2184,
      "Ġbusinesses": 2185,
      "Ġstatement": 2186,
      "Ġdiscount": 2187,
      "venue": 2188,
      "Ġposs": 2189,
      "OL": 2190,
      "Ġmanufacture": 2191,
      "Ġ2022,": 2192,
      "ĠCommission": 2193,
      "ticular": 2194,
      "Ġwho": 2195,
      "Ġcurrency": 2196,
      "Ġgre": 2197,
      "ĠDisc": 2198,
      "Ġexam": 2199,
      "Ġmed": 2200,
      "Ġdil": 2201,
      "ured": 2202,
      "itures": 2203,
      "Ġrelating": 2204,
      "Ġuntil": 2205,
      "av": 2206,
      "Ġbillion": 2207,
      "Ġrev": 2208,
      "Ġcannot": 2209,
      "Ġcomprehensive": 2210,
      "ĠCompensation": 2211,
      "oft": 2212,
      "Ġentity": 2213,
      "Ġcircum": 2214,
      "ĠOther": 2215,
      "Ġrules": 2216,
      "Ġanticip": 2217,
      "Ġreports": 2218,
      "Ġ$3": 2219,
      "ium": 2220,
      "Ġbu": 2221,
      "by": 2222,
      "Ġparticular": 2223,
      "portun": 2224,
      "1,8": 2225,
      "inal": 2226,
      "Ġmatur": 2227,
      "Ġherein": 2228,
      "onsor": 2229,
      "Ġsame": 2230,
      "ĠPresident": 2231,
      "Ġprevi": 2232,
      "ĠStatement": 2233,
      "Ġkn": 2234,
      "pt": 2235,
      "âĢĶ": 2236,
      "Ġconf": 2237,
      "Ġdisclosure": 2238,
      "ĠCommittee": 2239,
      "Ġtrading": 2240,
      "Ġrelationship": 2241,
      "ining": 2242,
      "Ġinterests": 2243,
      "ding": 2244,
      "Ġreserv": 2245,
      "inion": 2246,
      "tire": 2247,
      "Ġattribut": 2248,
      "Ġtreat": 2249,
      "Ġdays": 2250,
      "Ġrele": 2251,
      "ĠThere": 2252,
      "Ġaccess": 2253,
      "77": 2254,
      "inary": 2255,
      "ĠRel": 2256,
      "Ġopportun": 2257,
      "Ġorig": 2258,
      "Ġexpend": 2259,
      "Ġstud": 2260,
      "ĠMed": 2261,
      "10,": 2262,
      "very": 2263,
      "Ġmodel": 2264,
      "Ġnecessary": 2265,
      "ĠFund": 2266,
      "ĠRest": 2267,
      "Ġindividual": 2268,
      "ĠOperations": 2269,
      "Ġowned": 2270,
      "lation": 2271,
      "Ġeng": 2272,
      "Ġreturn": 2273,
      "Ġso": 2274,
      "Ġwithout": 2275,
      "Ġreceivable": 2276,
      "Ġequivalents": 2277,
      "ellect": 2278,
      "Ch": 2279,
      "ellectual": 2280,
      "Ġlife": 2281,
      "09": 2282,
      "work": 2283,
      "Ġremaining": 2284,
      "Ġdescribed": 2285,
      "Ġcount": 2286,
      "Ġsaf": 2287,
      "equ": 2288,
      "ĠAt": 2289,
      "yment": 2290,
      "ĠTrans": 2291,
      "oftware": 2292,
      "oking": 2293,
      "Ġcontrib": 2294,
      "Ġsever": 2295,
      "ey": 2296,
      "Ġaccrued": 2297,
      "Ġunit": 2298,
      "Ġ15,": 2299,
      "CO": 2300,
      "ulti": 2301,
      "uris": 2302,
      "Ġconsideration": 2303,
      "Ġacquisitions": 2304,
      "Ġ1.": 2305,
      "Ġsuppli": 2306,
      "Ġ$5": 2307,
      "Ġfixed": 2308,
      "Ġunre": 2309,
      "ollar": 2310,
      "Ġcircumstances": 2311,
      "urch": 2312,
      "orn": 2313,
      "Ġgoodwill": 2314,
      "omes": 2315,
      "ĠServices": 2316,
      "IS": 2317,
      "..": 2318,
      "ĠVal": 2319,
      "ĠRegistrant": 2320,
      "cri": 2321,
      "Ġke": 2322,
      "ĠFac": 2323,
      "Ġinteg": 2324,
      "Ġderivative": 2325,
      "gy": 2326,
      "Ġpost": 2327,
      "Ġfull": 2328,
      "Ġbeginning": 2329,
      "):": 2330,
      "Ġwhol": 2331,
      "ators": 2332,
      "ature": 2333,
      "Ġprac": 2334,
      "âĢĿ).": 2335,
      "Ġutiliz": 2336,
      "Ġinvent": 2337,
      "incorporated": 2338,
      "Ġorgan": 2339,
      "Ġ4.": 2340,
      "emption": 2341,
      "Ġactual": 2342,
      "urisdic": 2343,
      "Ġshort": 2344,
      "Ġintangible": 2345,
      "mall": 2346,
      "eferred": 2347,
      "Ġlikely": 2348,
      "rent": 2349,
      "Ġgross": 2350,
      "ITEM": 2351,
      "Ġtrials": 2352,
      "Ġright": 2353,
      "sue": 2354,
      "Ġlevels": 2355,
      "eneral": 2356,
      "Ġfour": 2357,
      "Ġholders": 2358,
      "related": 2359,
      "Ġlicense": 2360,
      "Ġownership": 2361,
      "Ġprom": 2362,
      "tics": 2363,
      "tirement": 2364,
      "Ġbran": 2365,
      "Ġguidance": 2366,
      "ĠPublic": 2367,
      "ĠEnter": 2368,
      "04": 2369,
      "Ġretain": 2370,
      "unic": 2371,
      "Ġdetermine": 2372,
      "Ġmany": 2373,
      "Ġimprove": 2374,
      "ging": 2375,
      "5%": 2376,
      "Ġeither": 2377,
      "5,000": 2378,
      "Ġentities": 2379,
      "ĠCurrent": 2380,
      "ually": 2381,
      "ructure": 2382,
      "20,": 2383,
      "ĠPh": 2384,
      "Ġpen": 2385,
      "con": 2386,
      "idential": 2387,
      "Ġlead": 2388,
      "aged": 2389,
      "force": 2390,
      "Ġattributable": 2391,
      "Ġvalues": 2392,
      "Ġconsidered": 2393,
      "celerated": 2394,
      "32": 2395,
      "Ġprivate": 2396,
      "Ġjudg": 2397,
      "abilities": 2398,
      "Ġsince": 2399,
      "Ġexceed": 2400,
      "ĠLi": 2401,
      "Ġdepend": 2402,
      "Ġpower": 2403,
      "Ġ$2": 2404,
      "de": 2405,
      "state": 2406,
      "ateral": 2407,
      "1,5": 2408,
      "Ġitem": 2409,
      "Ġmarg": 2410,
      "ocu": 2411,
      "enture": 2412,
      "Ġestablished": 2413,
      "vis": 2414,
      "69": 2415,
      "Ġarrangements": 2416,
      "Ġintellectual": 2417,
      "Ġbecome": 2418,
      "Ġsumm": 2419,
      "ably": 2420,
      "Ġsignificantly": 2421,
      "Ġsufficient": 2422,
      "Ġte": 2423,
      "Ġdiffic": 2424,
      "88": 2425,
      "ans": 2426,
      "Ġthousands": 2427,
      "Ġcompleted": 2428,
      "puts": 2429,
      "ĠST": 2430,
      "erger": 2431,
      "Ġmemb": 2432,
      "ĠHe": 2433,
      "CI": 2434,
      "olving": 2435,
      "imb": 2436,
      "Ġsenior": 2437,
      "ĠRule": 2438,
      "Ġ2.": 2439,
      "going": 2440,
      "Ġguarant": 2441,
      "Ġequal": 2442,
      "ĠShares": 2443,
      "Ġlarge": 2444,
      "Ġexcess": 2445,
      "Ġjurisdic": 2446,
      "Ġdispos": 2447,
      "Ġear": 2448,
      "Interest": 2449,
      "ists": 2450,
      "ĠSeries": 2451,
      "Ġadequ": 2452,
      "ĠNet": 2453,
      "ok": 2454,
      "Ġcompetitive": 2455,
      "Ġobligation": 2456,
      "ĠPartnership": 2457,
      "struction": 2458,
      "Ġestimate": 2459,
      "Ġmulti": 2460,
      "Ġcomplete": 2461,
      "Ġlocal": 2462,
      "Ġappropri": 2463,
      "etary": 2464,
      "Ġbase": 2465,
      "tern": 2466,
      "Ġcomply": 2467,
      "Ġvolum": 2468,
      "ired": 2469,
      "Ġvi": 2470,
      "orts": 2471,
      "Ġshould": 2472,
      "ession": 2473,
      "Income": 2474,
      "alties": 2475,
      "Ġgains": 2476,
      "Ġregistered": 2477,
      "aging": 2478,
      "orth": 2479,
      "version": 2480,
      "itive": 2481,
      "Ġactions": 2482,
      "Ġforth": 2483,
      "Ġpreferred": 2484,
      "Ġexpenditures": 2485,
      "includ": 2486,
      "ral": 2487,
      "Ġliquidity": 2488,
      "Ġ4,": 2489,
      "ĠUnder": 2490,
      "12,": 2491,
      "Ġprep": 2492,
      "Ġadjustments": 2493,
      "Ġsubsidiary": 2494,
      "Ġfee": 2495,
      "Ġdam": 2496,
      "ĠSub": 2497,
      "Ġsoftware": 2498,
      "Ġcheck": 2499,
      "Ġthen": 2500,
      "AAP": 2501,
      "Ġbre": 2502,
      "Ġgreater": 2503,
      "ĠSee": 2504,
      "ield": 2505,
      "ĠAddition": 2506,
      "Ġcor": 2507,
      "unction": 2508,
      "ier": 2509,
      "Ġpresented": 2510,
      "ibility": 2511,
      "uc": 2512,
      "ecti": 2513,
      "ĠASU": 2514,
      "ury": 2515,
      "Ġkey": 2516,
      "Non": 2517,
      "Ġcompetit": 2518,
      ")(": 2519,
      "app": 2520,
      "epar": 2521,
      "42": 2522,
      "ĠHoldings": 2523,
      "ĠShare": 2524,
      "ĠAC": 2525,
      "ĠSenior": 2526,
      "Ġsatis": 2527,
      "Ġpersonnel": 2528,
      "ĠAr": 2529,
      "Ġemployee": 2530,
      "aff": 2531,
      "veness": 2532,
      "side": 2533,
      "ID": 2534,
      "ctu": 2535,
      "Ġsupply": 2536,
      "Ġhistorical": 2537,
      "looking": 2538,
      "Ġquality": 2539,
      "clus": 2540,
      "ocus": 2541,
      "Ġassessment": 2542,
      "ĠGroup": 2543,
      "ator": 2544,
      "Ġpatents": 2545,
      "ĠAny": 2546,
      "ĠQu": 2547,
      "Ġ$2.": 2548,
      "Ġ193": 2549,
      "ĠFacility": 2550,
      "ompanying": 2551,
      "ecre": 2552,
      "ING": 2553,
      "atform": 2554,
      "Ġse": 2555,
      "PA": 2556,
      "ingly": 2557,
      "Ġcompar": 2558,
      "Ġdecl": 2559,
      "Ġoperate": 2560,
      "Ġflu": 2561,
      "Ġprem": 2562,
      "ects": 2563,
      "Ġlitigation": 2564,
      "perating": 2565,
      "EMENT": 2566,
      "riter": 2567,
      "13,": 2568,
      "Ġfailure": 2569,
      "ner": 2570,
      "Balance": 2571,
      "Ġpricing": 2572,
      "Ġthem": 2573,
      "Ġrequ": 2574,
      "Ġrati": 2575,
      "tice": 2576,
      "hes": 2577,
      "rs": 2578,
      "Ġreserves": 2579,
      "Ġcre": 2580,
      "Ġincreases": 2581,
      "ron": 2582,
      "Ġapplications": 2583,
      "Ġpreviously": 2584,
      "Ġ2010": 2585,
      "with": 2586,
      "Ġenter": 2587,
      "02": 2588,
      "Ġdistributions": 2589,
      "though": 2590,
      "raph": 2591,
      "00,000": 2592,
      "Ġrecent": 2593,
      "ound": 2594,
      "Ġretail": 2595,
      "ĠIN": 2596,
      "Ġwr": 2597,
      "emed": 2598,
      "Ġcharges": 2599,
      "ectiveness": 2600,
      "ections": 2601,
      "Ġreimb": 2602,
      "Ġmatters": 2603,
      "ĠHowever": 2604,
      "Ġefforts": 2605,
      "43": 2606,
      "care": 2607,
      "Ġimm": 2608,
      "Ġcompetitors": 2609,
      "ĠMarket": 2610,
      "Ġopinion": 2611,
      "Ġmaterials": 2612,
      "Ġ5,": 2613,
      "Ġgroup": 2614,
      "Ġcontractual": 2615,
      "exp": 2616,
      "Ġtrade": 2617,
      "inu": 2618,
      "Ġvola": 2619,
      "Ġdev": 2620,
      "Ġpositions": 2621,
      "Stock": 2622,
      "Ġcase": 2623,
      "Ġsel": 2624,
      "uel": 2625,
      "Ġsecond": 2626,
      "Ġfirm": 2627,
      "Ġten": 2628,
      "RE": 2629,
      "Ġactivity": 2630,
      "Ġplace": 2631,
      "Ġpatients": 2632,
      "Ġplus": 2633,
      "ising": 2634,
      "ĠPri": 2635,
      "Ġdirector": 2636,
      "Ġcollateral": 2637,
      "Ġdecision": 2638,
      "ĠEur": 2639,
      "Ġaccompanying": 2640,
      "Ġinvestors": 2641,
      "1,7": 2642,
      "Ġ3.": 2643,
      "Ġcharge": 2644,
      "ĠControl": 2645,
      "57": 2646,
      "alf": 2647,
      "Ġtra": 2648,
      "Ġappropriate": 2649,
      "Ġofficer": 2650,
      "acity": 2651,
      "dress": 2652,
      "ĠCo": 2653,
      "ayment": 2654,
      "other": 2655,
      "Ġfive": 2656,
      "Ġinventory": 2657,
      "Ġfocus": 2658,
      "ensed": 2659,
      "ĠLe": 2660,
      "Ġpred": 2661,
      "Ġprosp": 2662,
      "Ġconsult": 2663,
      "Ġreduced": 2664,
      "Ġseek": 2665,
      "ics": 2666,
      "Ġ2023,": 2667,
      "Ġpolicy": 2668,
      "ĠPer": 2669,
      "Ġsatisf": 2670,
      "Ġclosing": 2671,
      "Ġinputs": 2672,
      "ĠNational": 2673,
      "Ġ2011,": 2674,
      "ĠEntergy": 2675,
      "Ġpossible": 2676,
      "ĠTerm": 2677,
      "Ġsubstantially": 2678,
      "Ġassum": 2679,
      "Comp": 2680,
      "Ġtreatment": 2681,
      "erap": 2682,
      "000,000": 2683,
      "Ġcli": 2684,
      "ĠCash": 2685,
      "rain": 2686,
      "________": 2687,
      "14,": 2688,
      "ssu": 2689,
      "ley": 2690,
      "15,": 2691,
      "Ġpercentage": 2692,
      "Ġadopted": 2693,
      "Ġsubsequent": 2694,
      "cription": 2695,
      "ention": 2696,
      "IES": 2697,
      "acc": 2698,
      "Ġexpo": 2699,
      "Ġapplication": 2700,
      "riteria": 2701,
      "96": 2702,
      "Company": 2703,
      "ĠFederal": 2704,
      "ĠDuring": 2705,
      "Ġminimum": 2706,
      "Ġrestrictions": 2707,
      "Ġweighted": 2708,
      "Ġsepar": 2709,
      "ults": 2710,
      "Ġsafety": 2711,
      "Ġenvironmental": 2712,
      "Ġmembers": 2713,
      "ĠCan": 2714,
      "Ġachieve": 2715,
      "Ġ$4": 2716,
      "Ġaction": 2717,
      "Ġcompet": 2718,
      "Ġenergy": 2719,
      "Ġdirectly": 2720,
      "xy": 2721,
      "Ġfluctu": 2722,
      "izes": 2723,
      "Ġconcer": 2724,
      "itor": 2725,
      "Ġ199": 2726,
      "lear": 2727,
      "Ġrelationships": 2728,
      "âĺ": 2729,
      "Ġdecreased": 2730,
      "Ġprevent": 2731,
      "Ġcoverage": 2732,
      "Ġreduction": 2733,
      "Ġredemption": 2734,
      "orp": 2735,
      "ĠDirector": 2736,
      "ĠRelated": 2737,
      "ource": 2738,
      "Ġaffiliates": 2739,
      "ĠRec": 2740,
      "icial": 2741,
      "Ġconvertible": 2742,
      "incipal": 2743,
      "Ġeffectiveness": 2744,
      "ĠOff": 2745,
      "oting": 2746,
      "ĠIncentive": 2747,
      "Ġplatform": 2748,
      "Ġlocated": 2749,
      "Ġfe": 2750,
      "tenance": 2751,
      "vered": 2752,
      "ici": 2753,
      "Ġtrial": 2754,
      "Ġ6,": 2755,
      "ĠExp": 2756,
      "rolling": 2757,
      "Ġserved": 2758,
      "comp": 2759,
      "lied": 2760,
      "Ġquarterly": 2761,
      "Ġhis": 2762,
      "ursuant": 2763,
      "Ġconting": 2764,
      "Ġpropos": 2765,
      "ores": 2766,
      "Ġglobal": 2767,
      "Ġdeposits": 2768,
      "ton": 2769,
      "Ġ11": 2770,
      "OT": 2771,
      "Ġconversion": 2772,
      "Ġcapacity": 2773,
      "Ġ7,": 2774,
      "orable": 2775,
      "Ġborrowings": 2776,
      "00%": 2777,
      "Ġsheet": 2778,
      "oin": 2779,
      "Note": 2780,
      "Ġ28,": 2781,
      "Ġordinary": 2782,
      "Ġpast": 2783,
      "irst": 2784,
      "Ġnote": 2785,
      "Ġtechnologies": 2786,
      "ina": 2787,
      "Ġbuil": 2788,
      "Ġauthorized": 2789,
      "Ġnetwork": 2790,
      "ĠAssets": 2791,
      "Ġconsumer": 2792,
      "ov": 2793,
      "ĠASC": 2794,
      "Ġtiming": 2795,
      "pre": 2796,
      "ĠValue": 2797,
      "Ġunderlying": 2798,
      "Ġcountries": 2799,
      "Ġexclud": 2800,
      "11,": 2801,
      "Ġmaturity": 2802,
      "Ġacquire": 2803,
      "hen": 2804,
      "Ġrede": 2805,
      "Ġcomponents": 2806,
      "Ġharm": 2807,
      "Ġestablish": 2808,
      "Ġfile": 2809,
      "Ġdesigned": 2810,
      "Ġcriteria": 2811,
      "Ġsettlement": 2812,
      "mission": 2813,
      "perty": 2814,
      "ales": 2815,
      "Ġspecified": 2816,
      "orld": 2817,
      "Ġsw": 2818,
      "off": 2819,
      "Ġseveral": 2820,
      "servable": 2821,
      "enced": 2822,
      "ext": 2823,
      "EN": 2824,
      "Ġoutside": 2825,
      "December": 2826,
      "ĠMortgage": 2827,
      "Ġpurchased": 2828,
      "vision": 2829,
      "Ġexcept": 2830,
      "including": 2831,
      "Ġpremium": 2832,
      "Ġprimary": 2833,
      "Ġdid": 2834,
      "ĠUS": 2835,
      "Ġcomb": 2836,
      "ĠAsso": 2837,
      "Ġadoption": 2838,
      "Ġfiler": 2839,
      "Ġcy": 2840,
      "Ġfav": 2841,
      "Ġissue": 2842,
      "ĠPreferred": 2843,
      "Ġdefa": 2844,
      "Ġcare": 2845,
      "IB": 2846,
      "ĠAdditionally": 2847,
      "2,8": 2848,
      "ories": 2849,
      "Ġdri": 2850,
      "Ġspecial": 2851,
      "Ġtake": 2852,
      "vant": 2853,
      "ĠWh": 2854,
      "ather": 2855,
      "Ġdelay": 2856,
      "ĠRisk": 2857,
      "Ġeffects": 2858,
      "Ġclassified": 2859,
      "Ġmeasures": 2860,
      "alty": 2861,
      "ET": 2862,
      "Ġstrategy": 2863,
      "Ġactive": 2864,
      "Ġanalysis": 2865,
      "Loss": 2866,
      "Ġsolutions": 2867,
      "ĠEnded": 2868,
      "Ġsmall": 2869,
      "ool": 2870,
      "Ġaccept": 2871,
      "ĠData": 2872,
      "ĠYear": 2873,
      "izations": 2874,
      "fe": 2875,
      "Operating": 2876,
      "Ġauthorities": 2877,
      "Ġ14": 2878,
      "Ġthings": 2879,
      "Ġ8,": 2880,
      "16,": 2881,
      "iring": 2882,
      "ĠOperating": 2883,
      "Man": 2884,
      "Ġconstruction": 2885,
      "ict": 2886,
      "Ġinst": 2887,
      "Ġprotection": 2888,
      "Ġrepurchase": 2889,
      "Ġiniti": 2890,
      "If": 2891,
      "ada": 2892,
      "ĠRegulation": 2893,
      "Form": 2894,
      "Ġentit": 2895,
      "Ġtaxable": 2896,
      "Ġjoint": 2897,
      "Ġevaluation": 2898,
      "Ġintend": 2899,
      "tices": 2900,
      "Ġreimburse": 2901,
      "ĠYork": 2902,
      "2,5": 2903,
      "ART": 2904,
      "arb": 2905,
      "ĠAmerica": 2906,
      "Ġprinciples": 2907,
      "Ġdecline": 2908,
      "ATION": 2909,
      "Ġdifferent": 2910,
      "ĠEurope": 2911,
      "Ġitems": 2912,
      "RO": 2913,
      "Ġdiscussion": 2914,
      "aceu": 2915,
      "armaceu": 2916,
      "net": 2917,
      "Ġfully": 2918,
      "Ġworking": 2919,
      "ĠAll": 2920,
      "Ġdisru": 2921,
      "Deferred": 2922,
      "Ġpenalties": 2923,
      "Ġsur": 2924,
      "ish": 2925,
      "inate": 2926,
      "rated": 2927,
      "ĠDep": 2928,
      "Ġmaintenance": 2929,
      "Ġsecured": 2930,
      "001": 2931,
      "ĠAdvis": 2932,
      "ives": 2933,
      "Ġdepreciation": 2934,
      "ĠInternal": 2935,
      "Ġpension": 2936,
      "Ġtransfer": 2937,
      "ĠCod": 2938,
      "ĠShe": 2939,
      "Ġadjusted": 2940,
      "Ġtimely": 2941,
      "Ġopportunities": 2942,
      "ĠFurther": 2943,
      "prietary": 2944,
      "ged": 2945,
      "CA": 2946,
      "18,": 2947,
      "Ġadjustment": 2948,
      "Ġidentify": 2949,
      "Ġdeposit": 2950,
      "ĠCal": 2951,
      "Ġaut": 2952,
      "emic": 2953,
      "Ġcommittee": 2954,
      "Ġrenew": 2955,
      "inued": 2956,
      "Ġaccumulated": 2957,
      "VID": 2958,
      "Ġpartners": 2959,
      "Ġenforce": 2960,
      "ĠOr": 2961,
      "Ġrealized": 2962,
      "Ġlimitations": 2963,
      "ingle": 2964,
      "Ġsched": 2965,
      "Ġtermination": 2966,
      "17,": 2967,
      "Ġcollabor": 2968,
      "64": 2969,
      "LO": 2970,
      "ertificate": 2971,
      "action": 2972,
      "Cont": 2973,
      "Ġfinance": 2974,
      "bs": 2975,
      "resents": 2976,
      "eves": 2977,
      "vertis": 2978,
      "Ġaward": 2979,
      "Ġcoven": 2980,
      "Ġday": 2981,
      "Ġtechn": 2982,
      "Ġded": 2983,
      "Ġrecognition": 2984,
      "ting": 2985,
      "hold": 2986,
      "ĠWar": 2987,
      "Ġreli": 2988,
      "03": 2989,
      "Ġleast": 2990,
      "lor": 2991,
      "Ġfunding": 2992,
      "87": 2993,
      "Ġdollar": 2994,
      "reed": 2995,
      "Ġmargin": 2996,
      "Th": 2997,
      "Ġratio": 2998,
      "Ġcommitments": 2999,
      "Ġcent": 3000,
      "urns": 3001,
      "yn": 3002,
      "Ġcr": 3003,
      "Ġmanage": 3004,
      "round": 3005,
      "thers": 3006,
      "Ġselling": 3007,
      "Ġsources": 3008,
      "Ġcompletion": 3009,
      "Ġ10,": 3010,
      "Consolidated": 3011,
      "Ġmember": 3012,
      "Ġneeds": 3013,
      "Ġdeemed": 3014,
      "Ġaddress": 3015,
      "Sha": 3016,
      "Ġoverall": 3017,
      "Ġamortized": 3018,
      "udit": 3019,
      "Ġvolatility": 3020,
      "Ġhealthcare": 3021,
      "Ġinstitutions": 3022,
      "85": 3023,
      "ĠApp": 3024,
      "Ġmajority": 3025,
      "Ġmedical": 3026,
      "Ġinternational": 3027,
      "19,": 3028,
      "Ġ(\"": 3029,
      "Ġpartially": 3030,
      "Year": 3031,
      "ĠMedic": 3032,
      "ateg": 3033,
      "osed": 3034,
      "Ġforec": 3035,
      "Ġproprietary": 3036,
      "opic": 3037,
      "Ġwhile": 3038,
      "Ġexposure": 3039,
      "ebted": 3040,
      "ĠSuch": 3041,
      "retion": 3042,
      "ĠAmendment": 3043,
      "ĠUnits": 3044,
      "dicate": 3045,
      "ĠAccord": 3046,
      "ception": 3047,
      "ebtedness": 3048,
      "ind": 3049,
      "Ġinves": 3050,
      "Ġadvis": 3051,
      "ĠTo": 3052,
      "Ġongoing": 3053,
      "oted": 3054,
      "Ġstrategic": 3055,
      "hic": 3056,
      "ves": 3057,
      "Ġ$3.": 3058,
      "alances": 3059,
      "back": 3060,
      ".0": 3061,
      "Ġagencies": 3062,
      "ĠOwn": 3063,
      "Ġhighly": 3064,
      "Ġtherap": 3065,
      "Ġenh": 3066,
      "ritical": 3067,
      "Ġdifficult": 3068,
      "ĠCombination": 3069,
      "Ġadequate": 3070,
      "ĠSupp": 3071,
      "Ġprofession": 3072,
      "ĠGeneral": 3073,
      "read": 3074,
      "Ġ9,": 3075,
      "cepted": 3076,
      "Ġ18": 3077,
      "Ġsingle": 3078,
      "ĠMe": 3079,
      "Ġaltern": 3080,
      "te": 3081,
      "ĠInvestment": 3082,
      "Ġbi": 3083,
      "land": 3084,
      "Ġexample": 3085,
      "err": 3086,
      "Ġtesting": 3087,
      "Ġproviders": 3088,
      "ĠVice": 3089,
      "Ġreasonably": 3090,
      "Ġrespective": 3091,
      "Ġevaluating": 3092,
      "Ġtypically": 3093,
      "idence": 3094,
      "Ġswap": 3095,
      "Ġfuel": 3096,
      "ASB": 3097,
      "During": 3098,
      "aster": 3099,
      "âĹ": 3100,
      "emp": 3101,
      "AC": 3102,
      "ocument": 3103,
      "Ġexclus": 3104,
      "issions": 3105,
      "emn": 3106,
      "Ġ29,": 3107,
      "ĠRevenue": 3108,
      "Ġagreed": 3109,
      "ĠPar": 3110,
      "rec": 3111,
      "Ġprotect": 3112,
      "ensive": 3113,
      "Ġdown": 3114,
      "ĠInterest": 3115,
      "IP": 3116,
      "Ġpartner": 3117,
      "Ġmis": 3118,
      "Â®": 3119,
      "ĠInformation": 3120,
      "Ġunderw": 3121,
      "iven": 3122,
      "Ġ$7": 3123,
      "Ġline": 3124,
      "Ġanticipated": 3125,
      "Ġoffice": 3126,
      "Ġ$1,": 3127,
      "ĠQuarter": 3128,
      "pose": 3129,
      "ĠSponsor": 3130,
      ".âĢĿ": 3131,
      "Ġindebtedness": 3132,
      "iii": 3133,
      "Ġexpand": 3134,
      "Ġbelieves": 3135,
      "ĠAssociation": 3136,
      "Ġ$6": 3137,
      "ched": 3138,
      "erging": 3139,
      "Ġrange": 3140,
      "itten": 3141,
      "Risk": 3142,
      "ĠRestated": 3143,
      "Indicate": 3144,
      "Ġproceedings": 3145,
      "ĠDisclo": 3146,
      "appro": 3147,
      "IV": 3148,
      "Ġrelative": 3149,
      "Ġnegatively": 3150,
      "Ġteam": 3151,
      "Ġmeasurement": 3152,
      "En": 3153,
      "94": 3154,
      "Ġvolume": 3155,
      "ayments": 3156,
      "Ġregion": 3157,
      "Ġincentive": 3158,
      "half": 3159,
      "ipel": 3160,
      "ĠPurchase": 3161,
      "Ġaccounted": 3162,
      "Ġothers": 3163,
      "ourt": 3164,
      "ĠIII": 3165,
      "Ġgenerate": 3166,
      "Ġaccepted": 3167,
      "ITIES": 3168,
      "irm": 3169,
      "isted": 3170,
      "Ġproviding": 3171,
      "Ġentitled": 3172,
      "Ġsuccessfully": 3173,
      "ultim": 3174,
      "PART": 3175,
      "Pr": 3176,
      "Ġcontinued": 3177,
      "Ġlow": 3178,
      "Ġobj": 3179,
      "Ġincreasing": 3180,
      "rial": 3181,
      "Ġcontinuing": 3182,
      "allen": 3183,
      "Ġstatut": 3184,
      "vertising": 3185,
      "ĠIns": 3186,
      "ricted": 3187,
      "Ġpartnership": 3188,
      "Ġopen": 3189,
      "Ġdefault": 3190,
      "90": 3191,
      "Ġresponsible": 3192,
      "imited": 3193,
      "Ġsummar": 3194,
      "Ġge": 3195,
      "Ġrepl": 3196,
      "Ġamend": 3197,
      "ĠCOVID": 3198,
      "Ġimport": 3199,
      "Ġve": 3200,
      "asury": 3201,
      "Ġregulation": 3202,
      "BS": 3203,
      "ĠAccordingly": 3204,
      "Ġsuppliers": 3205,
      "Ġmeasured": 3206,
      "ker": 3207,
      "ĠLevel": 3208,
      "inations": 3209,
      "see": 3210,
      "urt": 3211,
      "ĠX": 3212,
      "Level": 3213,
      "ograph": 3214,
      "2,7": 3215,
      "velopment": 3216,
      "ĠDel": 3217,
      "Ġprojects": 3218,
      "oti": 3219,
      "rast": 3220,
      "Pre": 3221,
      "Ġcover": 3222,
      "Ġund": 3223,
      "Ġcomponent": 3224,
      "Ġnature": 3225,
      "ager": 3226,
      "Ġdiscussed": 3227,
      "ĠAccount": 3228,
      "Ġdiffer": 3229,
      "paid": 3230,
      "Ġultim": 3231,
      "ises": 3232,
      "Ġtren": 3233,
      "Ġlegis": 3234,
      "ĠCourt": 3235,
      "resp": 3236,
      "ignificant": 3237,
      "Ġâĺ": 3238,
      "ffective": 3239,
      "63": 3240,
      "Ġdefin": 3241,
      "Ġdelivery": 3242,
      "Ġmonitor": 3243,
      "Con": 3244,
      "odity": 3245,
      "ĠMat": 3246,
      "ĠFile": 3247,
      "Ġpractices": 3248,
      "Ġplant": 3249,
      "cash": 3250,
      "Ġsubs": 3251,
      "Ġviol": 3252,
      "Ġjudgment": 3253,
      "ognized": 3254,
      "Ġrecognize": 3255,
      "Ġcontained": 3256,
      "--": 3257,
      "000,": 3258,
      "Ġelectric": 3259,
      "âĹı": 3260,
      "Ġrelevant": 3261,
      "herent": 3262,
      "iled": 3263,
      "Ġuncertainties": 3264,
      "MP": 3265,
      "Ġvoting": 3266,
      "An": 3267,
      "be": 3268,
      "Ġcateg": 3269,
      "Ġgenerated": 3270,
      "Ġlabor": 3271,
      "Ġreturns": 3272,
      "Ġcompetition": 3273,
      "Invest": 3274,
      "Ġemployment": 3275,
      "Ġfinal": 3276,
      "ĠCent": 3277,
      "ditional": 3278,
      "Ġidentified": 3279,
      "Ġfiling": 3280,
      "EP": 3281,
      "Ġphys": 3282,
      "62": 3283,
      "ĠBenef": 3284,
      "Ġmil": 3285,
      "Management": 3286,
      "Ġcovenants": 3287,
      "Ġvesting": 3288,
      "Ġareas": 3289,
      "Ġworld": 3290,
      "Ġjurisdictions": 3291,
      "Ġmanner": 3292,
      "Ġ14,": 3293,
      "Ġelig": 3294,
      "Ġresulted": 3295,
      "Ġcaus": 3296,
      "Ġmax": 3297,
      "Ġtherefore": 3298,
      "date": 3299,
      "utation": 3300,
      "Ġsole": 3301,
      "Ġlarg": 3302,
      "Ġaudits": 3303,
      "hair": 3304,
      "current": 3305,
      "Ġprob": 3306,
      "Al": 3307,
      "Ġchallen": 3308,
      "ences": 3309,
      "Ġavailability": 3310,
      "Ġpersons": 3311,
      "Ġwebs": 3312,
      "Ġlend": 3313,
      "Ġbehalf": 3314,
      "Ġ27,": 3315,
      "Ġvehic": 3316,
      "Res": 3317,
      "Ġreceivables": 3318,
      "Ġaccelerated": 3319,
      "Ġfra": 3320,
      "justed": 3321,
      "aware": 3322,
      "Ġservicing": 3323,
      "Ġtransport": 3324,
      "ulative": 3325,
      "\")": 3326,
      "ERS": 3327,
      "Ġvariable": 3328,
      "Ġholding": 3329,
      "ĠNon": 3330,
      "Ġcounter": 3331,
      "0.0": 3332,
      "ĠEmplo": 3333,
      "Ġtransition": 3334,
      "Ġprepar": 3335,
      "Ġdependent": 3336,
      "ĠGAAP": 3337,
      "Ġlonger": 3338,
      "Ġdeveloped": 3339,
      "Ġsegments": 3340,
      "Ġdiluted": 3341,
      "Common": 3342,
      "iforn": 3343,
      "US": 3344,
      "Ġknow": 3345,
      "ifornia": 3346,
      "ĠSTAT": 3347,
      "Ġbalances": 3348,
      "ĠCode": 3349,
      "Ġdisclosures": 3350,
      "Ġcommunic": 3351,
      "Ġ30": 3352,
      "lived": 3353,
      "Weighted": 3354,
      "ructuring": 3355,
      "500": 3356,
      "ecause": 3357,
      "Ġinherent": 3358,
      "ouse": 3359,
      "Ġredeem": 3360,
      "CE": 3361,
      "Ġprofitability": 3362,
      "Ġclients": 3363,
      "Ġ16": 3364,
      "At": 3365,
      "ling": 3366,
      "Ġimmedi": 3367,
      "Rec": 3368,
      "anced": 3369,
      "porary": 3370,
      "Ġrecovery": 3371,
      "Ġoperation": 3372,
      "Ġknown": 3373,
      "Ġinvesting": 3374,
      "formance": 3375,
      "wh": 3376,
      "CH": 3377,
      "Ġqualified": 3378,
      "aken": 3379,
      "Ġautom": 3380,
      "ites": 3381,
      "Ġrating": 3382,
      "Ġregistration": 3383,
      "Ġcontingent": 3384,
      "Ġproposed": 3385,
      "orage": 3386,
      "market": 3387,
      "aired": 3388,
      "Ġstates": 3389,
      "eu": 3390,
      "Ġcases": 3391,
      "entially": 3392,
      "Ġtem": 3393,
      "Ġpermitted": 3394,
      "ĠSystem": 3395,
      "oreign": 3396,
      "Ġearly": 3397,
      "Ġ20,": 3398,
      "Ġearned": 3399,
      "Ġstockholder": 3400,
      "Ġvariety": 3401,
      "75%": 3402,
      "Ġoutc": 3403,
      "Ġ13,": 3404,
      "Ġnam": 3405,
      "yee": 3406,
      "Ġlast": 3407,
      "State": 3408,
      "Ġdifferences": 3409,
      "ĠHealth": 3410,
      "Ġapply": 3411,
      "BIT": 3412,
      "Ġ$8": 3413,
      "Ġapproach": 3414,
      "ĠGovern": 3415,
      "Ġ12,": 3416,
      "Ġcomplex": 3417,
      "otion": 3418,
      "way": 3419,
      "Ġbroad": 3420,
      "Ġevaluate": 3421,
      "Ġ16,": 3422,
      "Ġimpacted": 3423,
      "Ġwritten": 3424,
      "Ġanti": 3425,
      "ĠCost": 3426,
      "HE": 3427,
      "ĠNorth": 3428,
      "rade": 3429,
      "ĠInt": 3430,
      "che": 3431,
      "urchases": 3432,
      "tax": 3433,
      "Ġdetail": 3434,
      "Ġmight": 3435,
      "Ġreimbursement": 3436,
      "time": 3437,
      "controlling": 3438,
      "Ġ($": 3439,
      "Ġprocesses": 3440,
      "Ġroy": 3441,
      "eful": 3442,
      "co": 3443,
      "EMENTS": 3444,
      "Ġexpress": 3445,
      "echnology": 3446,
      "Ġmanufacturers": 3447,
      "rastructure": 3448,
      "BR": 3449,
      "anes": 3450,
      "101": 3451,
      "Ġrefl": 3452,
      "Ġbanking": 3453,
      "Ġland": 3454,
      "ĠCalifornia": 3455,
      "92": 3456,
      "Ġmultiple": 3457,
      "rict": 3458,
      "Ġrepresents": 3459,
      "iversity": 3460,
      "Ġmaking": 3461,
      "Ġlet": 3462,
      "3,8": 3463,
      "Ġconver": 3464,
      "inance": 3465,
      "Ġstudies": 3466,
      "Ġcalculated": 3467,
      "Ġhowever": 3468,
      "ĠFASB": 3469,
      "ĠPa": 3470,
      "ĠCertain": 3471,
      "ĠStandard": 3472,
      "1%": 3473,
      "entures": 3474,
      "Ġintended": 3475,
      "Ġconducted": 3476,
      "Ġeven": 3477,
      "ĠREIT": 3478,
      "ft": 3479,
      "ĠAmended": 3480,
      "Ġcompete": 3481,
      "Ġpersonal": 3482,
      "invest": 3483,
      "Ġderivatives": 3484,
      "Ġunless": 3485,
      "Ġfluctuations": 3486,
      "Ġissues": 3487,
      "Ġoperational": 3488,
      "Ġuns": 3489,
      "illing": 3490,
      "ĠIP": 3491,
      "Ġuseful": 3492,
      "Ġenvironment": 3493,
      "exas": 3494,
      "Ġunrealized": 3495,
      "use": 3496,
      "Ġfavorable": 3497,
      "Ġmer": 3498,
      "actions": 3499,
      "actors": 3500,
      "aring": 3501,
      "Not": 3502,
      "me": 3503,
      "ĠAcquisition": 3504,
      "asure": 3505,
      "armaceutical": 3506,
      "lows": 3507,
      "Ġyou": 3508,
      "Ġdeg": 3509,
      "Ġ11,": 3510,
      "ĠBalance": 3511,
      "Ġ5.": 3512,
      "ĠWhile": 3513,
      "Ġalle": 3514,
      "Ġconsumm": 3515,
      "....": 3516,
      "Ġback": 3517,
      "Fair": 3518,
      "BITDA": 3519,
      "hibits": 3520,
      "Ġqualify": 3521,
      "ĠAdminist": 3522,
      "Ġpurchases": 3523,
      "Reg": 3524,
      "Ġdiscont": 3525,
      "GE": 3526,
      "ane": 3527,
      "INAN": 3528,
      "ink": 3529,
      "igital": 3530,
      "Ġdeliver": 3531,
      "Ġdetermination": 3532,
      "Ġ$4.": 3533,
      "Ġcompr": 3534,
      "ĠMerger": 3535,
      "Ġallocated": 3536,
      "Ġwarrant": 3537,
      "ĠEX": 3538,
      "Ġwholly": 3539,
      "ranch": 3540,
      "Equity": 3541,
      "earch": 3542,
      "efin": 3543,
      "Ġindicated": 3544,
      "ests": 3545,
      "Ġindemn": 3546,
      "Ġperformed": 3547,
      "ĠIssu": 3548,
      "td": 3549,
      "Exp": 3550,
      "Ġpredict": 3551,
      "interest": 3552,
      "ternal": 3553,
      "itiz": 3554,
      "Current": 3555,
      "POR": 3556,
      "Ġreserve": 3557,
      "Ġeligible": 3558,
      "Ġinvolve": 3559,
      "Ġrely": 3560,
      "MM": 3561,
      "3,7": 3562,
      "Ġpand": 3563,
      "Financial": 3564,
      "PP": 3565,
      "Ġ2024": 3566,
      "Ġdistribut": 3567,
      "ANT": 3568,
      "Ġreflected": 3569,
      "ubt": 3570,
      "Ġstatus": 3571,
      "Ġunderwrit": 3572,
      "Ac": 3573,
      "Ġeffectively": 3574,
      "iqu": 3575,
      "Ġnext": 3576,
      "Ġface": 3577,
      "Ġfourth": 3578,
      "1,0": 3579,
      "Ġshall": 3580,
      "ology": 3581,
      "1,6": 3582,
      "Ġvary": 3583,
      "Ġelim": 3584,
      "ĠProduct": 3585,
      "IBOR": 3586,
      "OC": 3587,
      "ĠAlthough": 3588,
      "Ġadvertising": 3589,
      "Ġensure": 3590,
      "Ġgoods": 3591,
      "ĠTexas": 3592,
      "Ġcred": 3593,
      "acement": 3594,
      "ĠLtd": 3595,
      "Ġarea": 3596,
      "Ġbest": 3597,
      "Ġassumed": 3598,
      "rid": 3599,
      "Ġ26,": 3600,
      "ortization": 3601,
      "ework": 3602,
      "onth": 3603,
      "Ġexec": 3604,
      "umulative": 3605,
      "Ġcovered": 3606,
      "here": 3607,
      "emark": 3608,
      "arged": 3609,
      "File": 3610,
      "4,8": 3611,
      "Ġcritical": 3612,
      "ramework": 3613,
      "Ġinstitution": 3614,
      "There": 3615,
      "Ġpotentially": 3616,
      "ick": 3617,
      "Ġ19": 3618,
      "Ġshareholder": 3619,
      "ĠChina": 3620,
      "ĠAnal": 3621,
      "Ġofferings": 3622,
      "sel": 3623,
      "Ġbond": 3624,
      "Ġfunction": 3625,
      "Ġpreparation": 3626,
      "Ġbrand": 3627,
      "Ġ25,": 3628,
      "Ġconsists": 3629,
      "Ġdiscretion": 3630,
      "TC": 3631,
      "ĠLimited": 3632,
      "ĠTre": 3633,
      "wide": 3634,
      "QU": 3635,
      "Ġdetermining": 3636,
      "ĠFactors": 3637,
      "ĠDelaware": 3638,
      "Ġobtained": 3639,
      "Ġacross": 3640,
      "Ġhedge": 3641,
      "Ġresidential": 3642,
      "Ġcomparable": 3643,
      "Ġrent": 3644,
      "icer": 3645,
      "ĠPower": 3646,
      "Ġ2009": 3647,
      "Ġ17,": 3648,
      "Ġtypes": 3649,
      "ĠCar": 3650,
      "sured": 3651,
      "ene": 3652,
      "Ġalternative": 3653,
      "Ġcell": 3654,
      "organ": 3655,
      "Ġrevolving": 3656,
      "ertification": 3657,
      "hairman": 3658,
      "Ġconsistent": 3659,
      "illed": 3660,
      "ĠCorporate": 3661,
      "Ġwebsite": 3662,
      "Ġraise": 3663,
      "See": 3664,
      "Ġindirect": 3665,
      "CIAL": 3666,
      "omestic": 3667,
      "Li": 3668,
      "Ġgovernmental": 3669,
      "Ġdise": 3670,
      "Ġdamages": 3671,
      "Ġimprovements": 3672,
      "Ġexpire": 3673,
      "Ġread": 3674,
      "owned": 3675,
      "Ġquan": 3676,
      "Ġchang": 3677,
      "Ġcarri": 3678,
      "Ġuses": 3679,
      "Ġ22,": 3680,
      "Ġpe": 3681,
      "Ġ$5.": 3682,
      "Ġenact": 3683,
      "Ġnum": 3684,
      "Ġdisposition": 3685,
      "Ġ10%": 3686,
      "more": 3687,
      "ĠEBITDA": 3688,
      "INANCIAL": 3689,
      "lemental": 3690,
      "Ġexperienced": 3691,
      "Ġstorage": 3692,
      "vate": 3693,
      "ĠSh": 3694,
      "Ġmonthly": 3695,
      "Ġcourse": 3696,
      "dra": 3697,
      "oodwill": 3698,
      "Ġ19,": 3699,
      "Ġ18,": 3700,
      "ĠResults": 3701,
      "Ġnegoti": 3702,
      "uman": 3703,
      "Ġpipel": 3704,
      "Ġcarryfor": 3705,
      "Ġvend": 3706,
      "rupt": 3707,
      "Ġcandidate": 3708,
      "Ġpandemic": 3709,
      "RC": 3710,
      "ĠReporting": 3711,
      "sha": 3712,
      "ether": 3713,
      "Ġ24,": 3714,
      "Ġsponsor": 3715,
      "Ġprocessing": 3716,
      "Ġrequest": 3717,
      "AB": 3718,
      "ah": 3719,
      "onse": 3720,
      "ĠIt": 3721,
      "Ass": 3722,
      "Ġfre": 3723,
      "Ġdeveloping": 3724,
      "sh": 3725,
      "ifications": 3726,
      "Ġname": 3727,
      "Ġfraud": 3728,
      "ĠProgram": 3729,
      "Ġsheets": 3730,
      "Ġoriginal": 3731,
      "ĠZ": 3732,
      "ĠCorp": 3733,
      "Ġpending": 3734,
      "ĠCl": 3735,
      "Ġstatutory": 3736,
      "SE": 3737,
      "Dep": 3738,
      "Ġextended": 3739,
      "Ġimpaired": 3740,
      "Ġunf": 3741,
      "Ġsubmitted": 3742,
      "Incorporated": 3743,
      "Bas": 3744,
      "obile": 3745,
      "Ġseparate": 3746,
      "osp": 3747,
      "Ġnotice": 3748,
      "ĠFair": 3749,
      "Ġdates": 3750,
      "arnings": 3751,
      "ĠPartners": 3752,
      "âĢĳ": 3753,
      "Ġserve": 3754,
      "Ġquoted": 3755,
      "izing": 3756,
      "Ġprofessional": 3757,
      "Ġyield": 3758,
      "clinical": 3759,
      "Ġcapitalized": 3760,
      "acter": 3761,
      "ĠWarrants": 3762,
      "Ġinfring": 3763,
      "stain": 3764,
      "Ġcontributions": 3765,
      "Ġsus": 3766,
      "ĠInternational": 3767,
      "abel": 3768,
      "Ġ2010,": 3769,
      "Ġcommun": 3770,
      "Ġeffic": 3771,
      "Ġlisted": 3772,
      "5,8": 3773,
      "Ġinfrastructure": 3774,
      "Ġspace": 3775,
      "41": 3776,
      "comm": 3777,
      "ĠGlobal": 3778,
      "IR": 3779,
      "ĠUp": 3780,
      "Ġcall": 3781,
      "3,5": 3782,
      "100": 3783,
      "Ġgo": 3784,
      "ism": 3785,
      "icit": 3786,
      "Ġmaximum": 3787,
      "Ġcommodity": 3788,
      "Ġmeeting": 3789,
      "Ġsatisfy": 3790,
      "ude": 3791,
      "Ġconclud": 3792,
      "Ġsuper": 3793,
      "itle": 3794,
      "Ġ6.": 3795,
      "Ġnorm": 3796,
      "Ġaccur": 3797,
      "Ġdelays": 3798,
      "Ġretirement": 3799,
      "ĠAnalysis": 3800,
      "insurance": 3801,
      "Ġemploy": 3802,
      "ĠRate": 3803,
      "Ġinvestig": 3804,
      "Ġdivers": 3805,
      "Ġinstall": 3806,
      "ĠContract": 3807,
      "ceeds": 3808,
      "Ġdr": 3809,
      "Ġpurpose": 3810,
      "Ġrental": 3811,
      "Ġinterim": 3812,
      "4,7": 3813,
      "Ġresol": 3814,
      "ĠMid": 3815,
      "istrict": 3816,
      "Ġbanks": 3817,
      "Ġwater": 3818,
      "Ox": 3819,
      "Cost": 3820,
      "Ġwa": 3821,
      "Changes": 3822,
      "error": 3823,
      "Ġadvant": 3824,
      "Ġgiven": 3825,
      "ĠBased": 3826,
      "Ġlicenses": 3827,
      "ĠSo": 3828,
      "1,4": 3829,
      "Securities": 3830,
      "Ġparticipants": 3831,
      "Ġuncertainty": 3832,
      "ensing": 3833,
      "ĠBl": 3834,
      "Ġelected": 3835,
      "3%": 3836,
      "Ġexpectations": 3837,
      "Ġsustain": 3838,
      "Ġinvolved": 3839,
      "ĠCondition": 3840,
      "Ġtrends": 3841,
      "itative": 3842,
      "ĠPhase": 3843,
      "lements": 3844,
      "ĠPrior": 3845,
      "Ġindividuals": 3846,
      "Ġreputation": 3847,
      "Ġcombined": 3848,
      "Ġpatient": 3849,
      "Ġcharged": 3850,
      "that": 3851,
      "Ġtransportation": 3852,
      "Ġran": 3853,
      "Ġaccru": 3854,
      "Ġcommercialization": 3855,
      "itial": 3856,
      "after": 3857,
      "gth": 3858,
      "ansion": 3859,
      "Ġ23,": 3860,
      "ĠAB": 3861,
      "Ġanticipate": 3862,
      "ulatory": 3863,
      "Ġnational": 3864,
      "Ġformer": 3865,
      "Ġattract": 3866,
      "Ġweak": 3867,
      "ĠLoans": 3868,
      "Ġauthority": 3869,
      "ITY": 3870,
      "Ġarising": 3871,
      "Ġvote": 3872,
      "Ġtaken": 3873,
      "Ġamendments": 3874,
      "aking": 3875,
      "Ġuna": 3876,
      "isable": 3877,
      "igned": 3878,
      "Emplo": 3879,
      "Ġinterpre": 3880,
      "ĠMatters": 3881,
      "Ġcourt": 3882,
      "rodu": 3883,
      "arbanes": 3884,
      "Ġelectron": 3885,
      "istics": 3886,
      "56": 3887,
      "average": 3888,
      "Ġdegree": 3889,
      "which": 3890,
      "agn": 3891,
      "30,": 3892,
      "emplo": 3893,
      "Ġentire": 3894,
      "ussion": 3895,
      "Ġrecon": 3896,
      "Ġsource": 3897,
      "Accounts": 3898,
      "ĠRegistration": 3899,
      "26,": 3900,
      "Ġconsolid": 3901,
      "Ġ21,": 3902,
      "Exhibit": 3903,
      "Ġ333": 3904,
      "BRL": 3905,
      "sol": 3906,
      "ician": 3907,
      "Ġhand": 3908,
      "erous": 3909,
      "Ġ$25": 3910,
      "Ġevidence": 3911,
      "Capital": 3912,
      "ĠLoss": 3913,
      "ĠCol": 3914,
      "under": 3915,
      "Ġgeograph": 3916,
      "Ġholder": 3917,
      "yl": 3918,
      "uthorized": 3919,
      "ĠFINANCIAL": 3920,
      "Ġden": 3921,
      "ime": 3922,
      "ĠInsurance": 3923,
      "EO": 3924,
      "ĠFirst": 3925,
      "Ġjudgments": 3926,
      "ĠWest": 3927,
      "1,9": 3928,
      "respond": 3929,
      "ĠDate": 3930,
      "Ġ2008": 3931,
      "4%": 3932,
      "artment": 3933,
      "ĠLIBOR": 3934,
      "ĠGas": 3935,
      "ST": 3936,
      "oper": 3937,
      "Ġlines": 3938,
      "ĠStockholders": 3939,
      "Ġreclass": 3940,
      "argo": 3941,
      "nov": 3942,
      "iration": 3943,
      "Ġperm": 3944,
      "reat": 3945,
      "Oxley": 3946,
      "5,7": 3947,
      "Int": 3948,
      "ĠDevelopment": 3949,
      "ectives": 3950,
      "Ġperiodic": 3951,
      "ĠCons": 3952,
      "ĠStandards": 3953,
      "ease": 3954,
      "Ġthereto": 3955,
      "Ġarrangement": 3956,
      "ĠTO": 3957,
      "Direct": 3958,
      "ĠPursuant": 3959,
      "onus": 3960,
      "Ġbreach": 3961,
      "Ġdamage": 3962,
      "27,": 3963,
      "Ġhead": 3964,
      "Ġstructure": 3965,
      "Ġunrec": 3966,
      "raight": 3967,
      "TION": 3968,
      "Ġresponse": 3969,
      "gress": 3970,
      "Ġ17": 3971,
      "iana": 3972,
      "com": 3973,
      "Ġstrategies": 3974,
      "Ġ1934": 3975,
      "lain": 3976,
      "ned": 3977,
      "Ġcomput": 3978,
      "tivity": 3979,
      "versight": 3980,
      "Ġsix": 3981,
      "Ġ$20": 3982,
      "yond": 3983,
      "Ġhome": 3984,
      "ĠSarbanes": 3985,
      "ived": 3986,
      "CC": 3987,
      "Ġenhance": 3988,
      "oints": 3989,
      "ĠIndex": 3990,
      "Ġterminated": 3991,
      "ĠSol": 3992,
      "Ġengine": 3993,
      "elve": 3994,
      "Ġdeal": 3995,
      "Ġsection": 3996,
      "Ġdecisions": 3997,
      "Ġfree": 3998,
      "ĠChanges": 3999,
      "Ġstudy": 4000,
      "Ġtechnical": 4001,
      "Ġlives": 4002,
      "active": 4003,
      "2%": 4004,
      "Ġjurisdiction": 4005,
      "ĠOP": 4006,
      "lp": 4007,
      "Ġaudited": 4008,
      "af": 4009,
      "Ġbeyond": 4010,
      "Less": 4011,
      "ĠConvertible": 4012,
      "TED": 4013,
      "Ġhow": 4014,
      "SUs": 4015,
      "Ġproxy": 4016,
      "Ġdiscontinued": 4017,
      "arters": 4018,
      "Ġ100%": 4019,
      "IL": 4020,
      "Ġtemporary": 4021,
      "Ġimmediately": 4022,
      "ĠPolic": 4023,
      "NOT": 4024,
      "ĠTotal": 4025,
      "ĠDebt": 4026,
      "house": 4027,
      "annel": 4028,
      "ington": 4029,
      "Ġdepends": 4030,
      "59": 4031,
      "tary": 4032,
      "den": 4033,
      "Ġprobable": 4034,
      "Ġprojected": 4035,
      "ĠUnit": 4036,
      "ĠYes": 4037,
      "Ġcorporation": 4038,
      "Ġcalcul": 4039,
      "Ġresponsibility": 4040,
      "Ġunrecognized": 4041,
      "ream": 4042,
      "De": 4043,
      "ĠSales": 4044,
      "Ġopportunity": 4045,
      "All": 4046,
      "Ġpreced": 4047,
      "Ġprospects": 4048,
      "Co": 4049,
      "Ġcorrespond": 4050,
      "Ġleverage": 4051,
      "ights": 4052,
      "Ġdesignated": 4053,
      "Ġcaused": 4054,
      "Ġevaluated": 4055,
      "Ġ31": 4056,
      "ivil": 4057,
      "Ġcontains": 4058,
      "ĠGu": 4059,
      "Ġmerger": 4060,
      "Ġmaintaining": 4061,
      "ME": 4062,
      "28,": 4063,
      "Ġamendment": 4064,
      "tivities": 4065,
      "Ġborrowing": 4066,
      "Ġreconc": 4067,
      "amp": 4068,
      "24,": 4069,
      "Ġlegislation": 4070,
      "ĠSpec": 4071,
      "SO": 4072,
      "Ġannoun": 4073,
      "Ġoften": 4074,
      "tification": 4075,
      "Ġstraight": 4076,
      "Ġagent": 4077,
      "Ġrefer": 4078,
      "Ġparticularly": 4079,
      "Ġexpansion": 4080,
      "1.1": 4081,
      "Ġdriven": 4082,
      "lease": 4083,
      "Ġbeneficial": 4084,
      "Ġbroker": 4085,
      "ĠAudit": 4086,
      "8%": 4087,
      "stim": 4088,
      "Rest": 4089,
      "ĠCanada": 4090,
      "lls": 4091,
      "ĠEuropean": 4092,
      "Ġgeneration": 4093,
      "Ġperforming": 4094,
      "Ġtype": 4095,
      "6,8": 4096,
      "oy": 4097,
      "22,": 4098,
      "Ġcharacter": 4099,
      "Ġdevices": 4100,
      "Ġmatter": 4101,
      "Ġunsecured": 4102,
      "quare": 4103,
      "ĠDiscussion": 4104,
      "Ġhelp": 4105,
      "atic": 4106,
      "3.1": 4107,
      "vested": 4108,
      "Property": 4109,
      "Ġcredits": 4110,
      "Ġ001": 4111,
      "rolled": 4112,
      "perties": 4113,
      "Ġengage": 4114,
      "Ġconflic": 4115,
      "Loan": 4116,
      "Ġimplementation": 4117,
      "ĠSTATEMENTS": 4118,
      "oli": 4119,
      "Ġreferred": 4120,
      "Ġrestated": 4121,
      "elines": 4122,
      "Principal": 4123,
      "Ġobjectives": 4124,
      "25,": 4125,
      "29,": 4126,
      "Ġinj": 4127,
      "ĠIndust": 4128,
      "Ġ1934,": 4129,
      "Ġliquidation": 4130,
      "Ġstated": 4131,
      "venues": 4132,
      "GAAP": 4133,
      "Ġclear": 4134,
      "ĠOfficers": 4135,
      "Ġapplied": 4136,
      "Tax": 4137,
      "IE": 4138,
      "Ġexclusive": 4139,
      "ĠUniversity": 4140,
      "31,": 4141,
      "Ġterminate": 4142,
      "ĠQuarterly": 4143,
      "Ġdisclosed": 4144,
      "Ġsusp": 4145,
      "lex": 4146,
      "Ġsecur": 4147,
      "Ġweakness": 4148,
      "tition": 4149,
      "Ġtrademark": 4150,
      "Ġcomprised": 4151,
      "Ġoutcome": 4152,
      "Ġ10.1": 4153,
      "Ġextend": 4154,
      "Ġsigned": 4155,
      "Ġdomestic": 4156,
      "6%": 4157,
      "Accrued": 4158,
      "Ġreceip": 4159,
      "MS": 4160,
      "Ġmaturities": 4161,
      "Ġexternal": 4162,
      "Ġmilest": 4163,
      "Ġ2007": 4164,
      "ished": 4165,
      "Ġimportant": 4166,
      "Ġborrower": 4167,
      "Accumulated": 4168,
      "Ġtog": 4169,
      "atures": 4170,
      "issory": 4171,
      "ati": 4172,
      "Ġorders": 4173,
      "Ġtogether": 4174,
      "Ġrestructuring": 4175,
      "Ġapprovals": 4176,
      "ino": 4177,
      "Ġcarryforwards": 4178,
      "Term": 4179,
      "Ġmean": 4180,
      "Ġmoney": 4181,
      "aws": 4182,
      "Ġadvance": 4183,
      "Ġoccurred": 4184,
      "Ġconcent": 4185,
      "Ġfound": 4186,
      "25%": 4187,
      "Ġflo": 4188,
      "23,": 4189,
      "ĠTaxes": 4190,
      "Ġnumerous": 4191,
      "ĠRep": 4192,
      "Ġobtaining": 4193,
      "Ġintrodu": 4194,
      "Ġachie": 4195,
      "Ġcumulative": 4196,
      "ath": 4197,
      "URITIES": 4198,
      "Ġemerging": 4199,
      "els": 4200,
      "Ġpool": 4201,
      "Ġ2002": 4202,
      "RS": 4203,
      "Shares": 4204,
      "Ġdedu": 4205,
      "Ġpharmaceutical": 4206,
      "retirement": 4207,
      "Ġmillions": 4208,
      "Foreign": 4209,
      "ĠSched": 4210,
      "utive": 4211,
      "Change": 4212,
      "Ġderived": 4213,
      "IG": 4214,
      "unctions": 4215,
      "Ġpass": 4216,
      "OB": 4217,
      "urring": 4218,
      "Ġobservable": 4219,
      "ĠEach": 4220,
      "7,8": 4221,
      "Gross": 4222,
      "Ġlawsu": 4223,
      "Ġlicensed": 4224,
      "Ġpresents": 4225,
      "Ġventure": 4226,
      "bers": 4227,
      "UNT": 4228,
      "pid": 4229,
      "Ġrequirement": 4230,
      "Ġengaged": 4231,
      "Ġlocations": 4232,
      "Ġwarran": 4233,
      "Ġdeclared": 4234,
      "ĠFees": 4235,
      "9%": 4236,
      "utstanding": 4237,
      "ĠImp": 4238,
      "Ġdigital": 4239,
      "Ġdoubt": 4240,
      "RA": 4241,
      "Ġconform": 4242,
      "ocuments": 4243,
      "Ġanother": 4244,
      "Ġvested": 4245,
      "6,7": 4246,
      "reet": 4247,
      "Ġpresentation": 4248,
      "ie": 4249,
      "ĠOption": 4250,
      "Ġcivil": 4251,
      "Ġallocation": 4252,
      "oles": 4253,
      "Ġtwelve": 4254,
      "used": 4255,
      "Under": 4256,
      "Ġlimits": 4257,
      "ordinated": 4258,
      "ONS": 4259,
      "Ġmethods": 4260,
      "iver": 4261,
      "Ġenforcement": 4262,
      "Ġconsisted": 4263,
      "ĠDistrict": 4264,
      "egment": 4265,
      ".)": 4266,
      "ĠFlows": 4267,
      "sale": 4268,
      "Ġtraded": 4269,
      "ĠSheets": 4270,
      "Ġsite": 4271,
      "Ġinitiatives": 4272,
      "ĠMedicare": 4273,
      "aches": 4274,
      "Ġcard": 4275,
      "Ġclose": 4276,
      "Ġregular": 4277,
      "aur": 4278,
      "Ġmi": 4279,
      "sub": 4280,
      "ored": 4281,
      "Ġannually": 4282,
      "Ġhedging": 4283,
      "Ġnormal": 4284,
      "Market": 4285,
      "aterial": 4286,
      "Ġpreceding": 4287,
      "Ġending": 4288,
      "2,6": 4289,
      "ĠTransactions": 4290,
      "Ag": 4291,
      "4,5": 4292,
      "7%": 4293,
      "70": 4294,
      "Ġrecords": 4295,
      "Ġstores": 4296,
      "Ġoffices": 4297,
      "ĠOffering": 4298,
      "Long": 4299,
      "ouis": 4300,
      "40,": 4301,
      "Ġscope": 4302,
      "rong": 4303,
      "ruptcy": 4304,
      "Ġexpiration": 4305,
      "Ġfranch": 4306,
      "Ġsens": 4307,
      "month": 4308,
      "Ġinflu": 4309,
      "9,8": 4310,
      "ublis": 4311,
      "ĠEqui": 4312,
      "Ġunderwriting": 4313,
      "Â·": 4314,
      "Ġ$6.": 4315,
      "Ġadvances": 4316,
      "34.": 4317,
      "than": 4318,
      "lementary": 4319,
      "urchased": 4320,
      "IVE": 4321,
      "olitical": 4322,
      "Ġhaving": 4323,
      "umm": 4324,
      "ledge": 4325,
      "Ġreflects": 4326,
      "Ġexecu": 4327,
      "Ġnor": 4328,
      "ison": 4329,
      "8,8": 4330,
      "FOR": 4331,
      "ww": 4332,
      "**": 4333,
      "stock": 4334,
      "ĠPrivate": 4335,
      "Ġorganization": 4336,
      "Ġremedi": 4337,
      "Ġ100": 4338,
      "Ġbuild": 4339,
      "Ġconcluded": 4340,
      "anc": 4341,
      "Ġlenders": 4342,
      "ĠâĺĲ": 4343,
      "Ġtotaled": 4344,
      "Ġearli": 4345,
      "ills": 4346,
      "ĠExt": 4347,
      "Ġsummarizes": 4348,
      "ĠRev": 4349,
      "Number": 4350,
      "NOTE": 4351,
      "ery": 4352,
      "archy": 4353,
      "enefit": 4354,
      "Ġ50%": 4355,
      "ĠAmerican": 4356,
      "ĠLong": 4357,
      "Ġenacted": 4358,
      "utures": 4359,
      "Ġextensive": 4360,
      "Based": 4361,
      "Ġpublicly": 4362,
      "Ġinability": 4363,
      "IDA": 4364,
      "Ġsets": 4365,
      "Ġtrain": 4366,
      "Ġenc": 4367,
      "Ġexercised": 4368,
      "Ġcapabilities": 4369,
      "Ġcollect": 4370,
      "Ġdifficul": 4371,
      "ern": 4372,
      "Ġmanaged": 4373,
      "Ġ198": 4374,
      "iluted": 4375,
      "may": 4376,
      "thern": 4377,
      "ĠLic": 4378,
      "ĠTHE": 4379,
      "ĠLP": 4380,
      "aced": 4381,
      "ĠPrincipal": 4382,
      "Ġpermit": 4383,
      "ierarchy": 4384,
      "Ġorganizations": 4385,
      "Proceeds": 4386,
      "eal": 4387,
      "None": 4388,
      "Revenue": 4389,
      "Sub": 4390,
      "Ġnamed": 4391,
      "ĠWith": 4392,
      "erences": 4393,
      "ones": 4394,
      "ĠIV": 4395,
      "Ġguarantee": 4396,
      "Ġconsulting": 4397,
      "iciency": 4398,
      "COUNT": 4399,
      "Executive": 4400,
      "ender": 4401,
      "Ġtimes": 4402,
      "Ġvolumes": 4403,
      "Ġinterpret": 4404,
      "Ġtransmission": 4405,
      "61": 4406,
      "iture": 4407,
      "Ġ$9": 4408,
      "Ġcontent": 4409,
      "Pl": 4410,
      "Ġexceeds": 4411,
      "titative": 4412,
      "Ġgrants": 4413,
      "Ġdifference": 4414,
      "rading": 4415,
      "Ġmodified": 4416,
      "Ġsummary": 4417,
      "from": 4418,
      "Ġbonds": 4419,
      "Ġpremiums": 4420,
      "PORT": 4421,
      "Ġseason": 4422,
      "ĠPrice": 4423,
      "General": 4424,
      "Ġindustrial": 4425,
      "7,7": 4426,
      "Ġpoint": 4427,
      "changes": 4428,
      "Ġdiscounted": 4429,
      "ĠFargo": 4430,
      "Ġdrugs": 4431,
      "Ġcreate": 4432,
      "oh": 4433,
      "ĠTopic": 4434,
      "ĠFrom": 4435,
      "rop": 4436,
      "ĠLLP": 4437,
      "ERC": 4438,
      "Ġthroughout": 4439,
      "HL": 4440,
      "prise": 4441,
      "any": 4442,
      "Ġsav": 4443,
      "53": 4444,
      "ĠEQU": 4445,
      "Ġdevelopments": 4446,
      "2.1": 4447,
      "ONSOL": 4448,
      "ĠNY": 4449,
      "ym": 4450,
      "onst": 4451,
      "ĠLouis": 4452,
      "pping": 4453,
      "ospital": 4454,
      "2,0": 4455,
      "Ġgoing": 4456,
      "uled": 4457,
      "Ġgoverning": 4458,
      "Ġconfidential": 4459,
      "Ġsavings": 4460,
      "Ġswaps": 4461,
      "80": 4462,
      "Ġ7.": 4463,
      "ĠResources": 4464,
      "Ġyet": 4465,
      "Ġutilize": 4466,
      "financial": 4467,
      "Ġcommercialize": 4468,
      "da": 4469,
      "efinite": 4470,
      "ĠOne": 4471,
      "Amortization": 4472,
      "Ġadvantage": 4473,
      "erson": 4474,
      "struments": 4475,
      "Ġhierarchy": 4476,
      "Ġcop": 4477,
      "Ġchannel": 4478,
      "eiv": 4479,
      "ĠElect": 4480,
      "ĠInvestments": 4481,
      "Ġroyalty": 4482,
      "Ġassist": 4483,
      "Ġindicate": 4484,
      "Ġmisstate": 4485,
      "54": 4486,
      "ĠSouth": 4487,
      "Ġissuer": 4488,
      "4.1": 4489,
      "company": 4490,
      "8,7": 4491,
      "ffer": 4492,
      "Ġinvestor": 4493,
      "Ġtele": 4494,
      "ĠSecurity": 4495,
      "ivision": 4496,
      "UL": 4497,
      "ĠProducts": 4498,
      "Ġacceptable": 4499,
      "2,9": 4500,
      "Ġsites": 4501,
      "Ġsmaller": 4502,
      "Ġ$10.": 4503,
      "Ġdevice": 4504,
      "Ġrecomm": 4505,
      "observable": 4506,
      "Ġlending": 4507,
      "Ġdefend": 4508,
      "Ġ90": 4509,
      "ĠBecause": 4510,
      "Ġallows": 4511,
      "ĠComprehensive": 4512,
      "Ġvalued": 4513,
      "Ġpos": 4514,
      "Ġrecently": 4515,
      "Average": 4516,
      "ĠProxy": 4517,
      "att": 4518,
      "Ġrevised": 4519,
      "Ġcommissions": 4520,
      "urrence": 4521,
      "Issu": 4522,
      "1,3": 4523,
      "Ġprivacy": 4524,
      "Ġstore": 4525,
      "Ġcollection": 4526,
      "MA": 4527,
      "Ġbook": 4528,
      "ĠACCOUNT": 4529,
      "Business": 4530,
      "Ġproduce": 4531,
      "Ġprepared": 4532,
      "ONSOLIDA": 4533,
      "Ġpublis": 4534,
      "Ġsk": 4535,
      "ĠDr": 4536,
      "Ġexercisable": 4537,
      "Ġexcluding": 4538,
      "ĠOb": 4539,
      "Ġimpose": 4540,
      "ĠDisclosures": 4541,
      "Ġtransferred": 4542,
      "Ġvendors": 4543,
      "tise": 4544,
      "ĠProperty": 4545,
      "ĠAff": 4546,
      "Pursuant": 4547,
      "SEC": 4548,
      "Ġbasic": 4549,
      "Su": 4550,
      "Ġconsumers": 4551,
      "epend": 4552,
      "Ġindustries": 4553,
      "ĠChairman": 4554,
      "sequ": 4555,
      "Ġextension": 4556,
      "Ġlargest": 4557,
      "Ġsize": 4558,
      "acks": 4559,
      "Ġdisposal": 4560,
      "Ġdisease": 4561,
      "filed": 4562,
      "Ġla": 4563,
      "ĠActivities": 4564,
      "Imp": 4565,
      "Ġstrong": 4566,
      "Ġcance": 4567,
      "rease": 4568,
      "Ġ60": 4569,
      "titute": 4570,
      "uation": 4571,
      "Ġ24": 4572,
      "33.": 4573,
      "ĠOver": 4574,
      "9,7": 4575,
      "raft": 4576,
      "ISC": 4577,
      "Ġphysician": 4578,
      "Ġforfe": 4579,
      "ĠQual": 4580,
      "3,6": 4581,
      "ĠPlans": 4582,
      "ars": 4583,
      "ĠReserve": 4584,
      "Ġagency": 4585,
      "Ġpipeline": 4586,
      "lim": 4587,
      "iving": 4588,
      "ĠIs": 4589,
      "Certain": 4590,
      "Ġknowledge": 4591,
      "ĠLiabilities": 4592,
      "Ġconcern": 4593,
      "Rep": 4594,
      "200": 4595,
      "Depreciation": 4596,
      "ĠCertificate": 4597,
      "coll": 4598,
      "Ġbuy": 4599,
      "Ġpoints": 4600,
      "2,4": 4601,
      "Ġhuman": 4602,
      "Ġinfringe": 4603,
      "Ġanaly": 4604,
      "FO": 4605,
      "ett": 4606,
      "ollowing": 4607,
      "PS": 4608,
      "1.2": 4609,
      "Ġdemonst": 4610,
      "Ġcorresponding": 4611,
      "Ġbecame": 4612,
      "Ġfam": 4613,
      "accelerated": 4614,
      "ĠWells": 4615,
      "Ġnear": 4616,
      "amily": 4617,
      "ĠGovernance": 4618,
      "Ġrepresented": 4619,
      "Val": 4620,
      "Ġinnov": 4621,
      "zard": 4622,
      "Ġtests": 4623,
      "United": 4624,
      "Ġplacement": 4625,
      "ĠFurthermore": 4626,
      "Ġpositive": 4627,
      "omy": 4628,
      "Ġinvested": 4629,
      "Ġmargins": 4630,
      "Ġasser": 4631,
      "ffs": 4632,
      "ĠFD": 4633,
      "ĠOrgan": 4634,
      "where": 4635,
      "itable": 4636,
      "Ġdepending": 4637,
      "Ġbuilding": 4638,
      "Ġnom": 4639,
      "parties": 4640,
      "To": 4641,
      "Ġrequiring": 4642,
      "ains": 4643,
      "Ġowner": 4644,
      "Ġturn": 4645,
      "FIC": 4646,
      "CHAN": 4647,
      "OLD": 4648,
      "ions": 4649,
      "Ġregulated": 4650,
      "overed": 4651,
      "Ġbonus": 4652,
      "sumer": 4653,
      "ms": 4654,
      "ality": 4655,
      "Ġ$7.": 4656,
      "ĠInitial": 4657,
      "ĠService": 4658,
      "Ġpack": 4659,
      "Ġdocument": 4660,
      "Ġstaff": 4661,
      "ĠDocument": 4662,
      "ONSOLIDATED": 4663,
      "ĠIndependent": 4664,
      "Ġretro": 4665,
      "Ġcommitment": 4666,
      "Ġconsequ": 4667,
      "Ind": 4668,
      ",\"": 4669,
      "ĠDes": 4670,
      "First": 4671,
      "Ġraw": 4672,
      "ico": 4673,
      "Ġparticipation": 4674,
      "Ġdocuments": 4675,
      "Ġdist": 4676,
      "affili": 4677,
      "oot": 4678,
      "expense": 4679,
      "ĠYears": 4680,
      "ĠRegistered": 4681,
      "ummary": 4682,
      "Ġcalculation": 4683,
      "5,5": 4684,
      "Ġ2006": 4685,
      "ĠAlso": 4686,
      "Ġdeter": 4687,
      "ĠStreet": 4688,
      "Ġproj": 4689,
      "Basic": 4690,
      "daq": 4691,
      "Ġfunded": 4692,
      "asdaq": 4693,
      "ependence": 4694,
      "egal": 4695,
      "Ġmonitoring": 4696,
      "2,000": 4697,
      "eff": 4698,
      "Ġmeaning": 4699,
      "Ġhy": 4700,
      "Ġmodels": 4701,
      "Ġevery": 4702,
      "Ġstren": 4703,
      "ĠCustom": 4704,
      "ĠSignificant": 4705,
      "________________": 4706,
      "Ġowners": 4707,
      "overy": 4708,
      "Ġcore": 4709,
      "Ġfocused": 4710,
      "pec": 4711,
      "Ġlicensing": 4712,
      "ATED": 4713,
      "21,": 4714,
      "ĠAb": 4715,
      "Ġallowances": 4716,
      "Ġwhat": 4717,
      "5.0": 4718,
      "Ġmerch": 4719,
      "tities": 4720,
      "Ġfurn": 4721,
      "ĠWhen": 4722,
      "place": 4723,
      "Ġwide": 4724,
      "Ġattem": 4725,
      "Ġdiscounts": 4726,
      "Ġannounced": 4727,
      "GL": 4728,
      "Ġconsultants": 4729,
      "ecure": 4730,
      "ĠDisclosure": 4731,
      "mical": 4732,
      "ĠCenter": 4733,
      "91": 4734,
      "Ġ25": 4735,
      "uclear": 4736,
      "Ġultimate": 4737,
      "ĠFinance": 4738,
      "ĠDis": 4739,
      "50%": 4740,
      "ecrease": 4741,
      "ĠACT": 4742,
      "orter": 4743,
      "SS": 4744,
      "ider": 4745,
      "ĠIPO": 4746,
      "inating": 4747,
      "ĠCity": 4748,
      "Ġdistributors": 4749,
      "ĠDeferred": 4750,
      "Ġexplor": 4751,
      "ĠFiscal": 4752,
      "airment": 4753,
      "ĠPartner": 4754,
      "Ġtotaling": 4755,
      "Report": 4756,
      "1.0": 4757,
      "ĠCOMM": 4758,
      "Ġimplemented": 4759,
      "ĠBlack": 4760,
      "lowance": 4761,
      "uil": 4762,
      "ĠTreasury": 4763,
      "Ġletters": 4764,
      "vailable": 4765,
      "losure": 4766,
      "Ġguidelines": 4767,
      "Ġdrilling": 4768,
      "ĠMore": 4769,
      "ĠBo": 4770,
      "Dividend": 4771,
      "ENTS": 4772,
      "Ġreviews": 4773,
      "Ġultimately": 4774,
      "7,5": 4775,
      "Qu": 4776,
      "Ġdeb": 4777,
      "Exerc": 4778,
      "ĠDistrib": 4779,
      "Ġmeans": 4780,
      "ĠExtension": 4781,
      "âĢĿ,": 4782,
      "Ġvehicles": 4783,
      "Ġcrude": 4784,
      "3.2": 4785,
      "rank": 4786,
      "CAOB": 4787,
      "Ġforecas": 4788,
      "Ġalong": 4789,
      "ĠLease": 4790,
      "Ġcomplain": 4791,
      "itments": 4792,
      "Ġexist": 4793,
      "Ġassure": 4794,
      "Ġconverted": 4795,
      "Ġdefinition": 4796,
      "Ġinception": 4797,
      "Ġspending": 4798,
      "Ġwrite": 4799,
      "lies": 4800,
      "ĠNumber": 4801,
      "Ġspread": 4802,
      "oph": 4803,
      ");": 4804,
      "Ġair": 4805,
      "Ġcontinues": 4806,
      "ĠLouisiana": 4807,
      "Ġlater": 4808,
      "ASH": 4809,
      "Ġwhole": 4810,
      "ĠManager": 4811,
      "6,5": 4812,
      "Ġaffiliate": 4813,
      "iscount": 4814,
      "ĠTechnology": 4815,
      "Ġpursue": 4816,
      "UT": 4817,
      "mark": 4818,
      "EX": 4819,
      "Ġfunctions": 4820,
      "vention": 4821,
      "junction": 4822,
      "Ġutility": 4823,
      "ĠIND": 4824,
      "ĠAdjusted": 4825,
      "1.7": 4826,
      "earing": 4827,
      "Ġunpaid": 4828,
      "Ġmitig": 4829,
      "ĠCosts": 4830,
      "Ġleased": 4831,
      "OCK": 4832,
      "Ġwithdra": 4833,
      "Ġship": 4834,
      "PL": 4835,
      "income": 4836,
      "Ġshow": 4837,
      "portion": 4838,
      "Ġmand": 4839,
      "Ġrule": 4840,
      "ĠIndenture": 4841,
      "ols": 4842,
      "Ġsalary": 4843,
      "ounder": 4844,
      "1.8": 4845,
      "AG": 4846,
      "ĠRights": 4847,
      "ĠAsset": 4848,
      "3,9": 4849,
      "Ġpref": 4850,
      "Ġsquare": 4851,
      "Ġrepresenting": 4852,
      "Per": 4853,
      "ĠDepartment": 4854,
      "Trans": 4855,
      "Ġcarried": 4856,
      "Share": 4857,
      "ĠStockholder": 4858,
      "2.5": 4859,
      "Ġrapid": 4860,
      "Ġsti": 4861,
      "Ġcountry": 4862,
      "Ġimpacts": 4863,
      "endar": 4864,
      "Ġaffecting": 4865,
      "Ġsecre": 4866,
      "Ġlack": 4867,
      "Ġ$10": 4868,
      "ainti": 4869,
      "2.2": 4870,
      "Ġbankruptcy": 4871,
      "Ġhedges": 4872,
      "CHANGE": 4873,
      "ĠRestricted": 4874,
      "reen": 4875,
      "Ġed": 4876,
      "Ġearlier": 4877,
      "Investment": 4878,
      "ĠPark": 4879,
      "SA": 4880,
      "4,6": 4881,
      "Ġemissions": 4882,
      "Ġstep": 4883,
      "Ġworldwide": 4884,
      "ĠTrustee": 4885,
      "az": 4886,
      "ĠReal": 4887,
      "cements": 4888,
      "Ġvalid": 4889,
      "ached": 4890,
      "ĠOwnership": 4891,
      "aily": 4892,
      "Ġshown": 4893,
      "Goodwill": 4894,
      "Serv": 4895,
      "ERT": 4896,
      "Ġrepayment": 4897,
      "Ġremo": 4898,
      "onomy": 4899,
      "Ġprofits": 4900,
      "Ġfines": 4901,
      "ĠMaster": 4902,
      "day": 4903,
      "thics": 4904,
      "TR": 4905,
      "Ġconjunction": 4906,
      "Ġrepay": 4907,
      "ĠShareholders": 4908,
      "ĠInstruments": 4909,
      "Ġowns": 4910,
      "Ġlose": 4911,
      "Bank": 4912,
      "ĠGener": 4913,
      "Ġneeded": 4914,
      "Ġshorter": 4915,
      "Ġmix": 4916,
      "Ġleading": 4917,
      "99.": 4918,
      "Ġprojections": 4919,
      "ĠDue": 4920,
      "Ġdollars": 4921,
      "6,6": 4922,
      "Ġvehicle": 4923,
      "Ġseries": 4924,
      "ille": 4925,
      "Ġmaintained": 4926,
      "Ġinstrument": 4927,
      "qualified": 4928,
      "Ġconst": 4929,
      "Ġconcerning": 4930,
      "adian": 4931,
      "Ġpermits": 4932,
      "Ġcenters": 4933,
      "ural": 4934,
      "Ġk": 4935,
      "ortized": 4936,
      "Ġconsiders": 4937,
      "uration": 4938,
      "Ġassessing": 4939,
      "agnos": 4940,
      "3,0": 4941,
      "dom": 4942,
      "Ġpreclinical": 4943,
      "Ġsecure": 4944,
      "Ġexpects": 4945,
      "Ġnoncontrolling": 4946,
      "Ġasp": 4947,
      "ĠEQUITY": 4948,
      "Ġonline": 4949,
      "Ġparticipate": 4950,
      "HOLD": 4951,
      "tity": 4952,
      "Ġcontribution": 4953,
      "No": 4954,
      "Ġelection": 4955,
      "Ġview": 4956,
      "lean": 4957,
      "Ġcrim": 4958,
      "Ġreductions": 4959,
      "Ġprospective": 4960,
      "Ġ5%": 4961,
      "Ġmobile": 4962,
      "ĠEXCHANGE": 4963,
      "au": 4964,
      "Ġvir": 4965,
      "Ġequivalent": 4966,
      "Ġcomputed": 4967,
      "Ġdivid": 4968,
      "ĠPerformance": 4969,
      "Ġcalendar": 4970,
      "Ġdisruptions": 4971,
      "ulations": 4972,
      "Notes": 4973,
      "Ġmanaging": 4974,
      "ĠPat": 4975,
      "ĠTherefore": 4976,
      "ann": 4977,
      "iliation": 4978,
      "Ġscheduled": 4979,
      "Ġindefinite": 4980,
      "Ġdelivered": 4981,
      "Ġseeking": 4982,
      "Ġprovider": 4983,
      "This": 4984,
      "Ġsubsequently": 4985,
      "ĠFirm": 4986,
      "AV": 4987,
      "Ġplanned": 4988,
      "echan": 4989,
      "ĠTransaction": 4990,
      "Ġrestaur": 4991,
      "Ġannum": 4992,
      "ĠCount": 4993,
      "Ġrespond": 4994,
      "Ġminim": 4995,
      "ĠDISC": 4996,
      "Ġgeographic": 4997,
      "ustod": 4998,
      "bersecurity": 4999,
      "ression": 5000,
      "2013": 5001,
      "ĠDu": 5002,
      "Ġutilized": 5003,
      "Ġreinsurance": 5004,
      "ticles": 5005,
      "8,5": 5006,
      "6,000": 5007,
      "investment": 5008,
      "Ġrecoverable": 5009,
      "ĠRet": 5010,
      "ĠPeriod": 5011,
      "arial": 5012,
      "Ġbegan": 5013,
      "Ġsubmit": 5014,
      "Ġhot": 5015,
      "ATIONS": 5016,
      "Ġtranslation": 5017,
      "Chief": 5018,
      "free": 5019,
      "ĠBas": 5020,
      "Ġpolitical": 5021,
      "fers": 5022,
      "4,000": 5023,
      "New": 5024,
      "ĠREL": 5025,
      "Ġreviewed": 5026,
      "ilit": 5027,
      "Ġwholes": 5028,
      "Ġwells": 5029,
      "Ġtreated": 5030,
      "ĠExpenses": 5031,
      "ĠAgreements": 5032,
      "4.2": 5033,
      "arning": 5034,
      "Ġz": 5035,
      "Ġ8.": 5036,
      "Ġdetermines": 5037,
      "umb": 5038,
      "Ġ$8.": 5039,
      "Ġinvolving": 5040,
      "ĠProt": 5041,
      "realized": 5042,
      "Ġweather": 5043,
      "Ġhazard": 5044,
      "Ġconsequences": 5045,
      "ĠEstate": 5046,
      "ĠMex": 5047,
      "Outstanding": 5048,
      "emptions": 5049,
      "Ġcho": 5050,
      "known": 5051,
      "3,000": 5052,
      "such": 5053,
      "Ġborrowers": 5054,
      "76": 5055,
      "4,9": 5056,
      "Ġinflation": 5057,
      "Ġ405": 5058,
      "Ġproble": 5059,
      "ĠBanc": 5060,
      "Ġplanning": 5061,
      "Ġ2005": 5062,
      "Ġupdate": 5063,
      "tified": 5064,
      "eting": 5065,
      "DC": 5066,
      "erivative": 5067,
      "9,5": 5068,
      "Ġcriminal": 5069,
      "15.": 5070,
      "ĠSch": 5071,
      "ĠNasdaq": 5072,
      "ĠMar": 5073,
      "ligations": 5074,
      "son": 5075,
      "Ġsect": 5076,
      "uish": 5077,
      "Ġenable": 5078,
      "Ġattrac": 5079,
      "forming": 5080,
      "Ġclient": 5081,
      "ero": 5082,
      "ĠMs": 5083,
      "Ġcyc": 5084,
      "Ġoffered": 5085,
      "quired": 5086,
      "afety": 5087,
      "Ġengineering": 5088,
      "5,6": 5089,
      "ĠProperties": 5090,
      "ĠSECURITIES": 5091,
      "Ġlabel": 5092,
      "Ġcategory": 5093,
      "avorable": 5094,
      "Ġcharter": 5095,
      "cif": 5096,
      "Ġrelate": 5097,
      "Ġexpertise": 5098,
      "Ġrecognizes": 5099,
      "ĠPen": 5100,
      "Ġinterru": 5101,
      "ek": 5102,
      "Ġserves": 5103,
      "FORM": 5104,
      "Ġfind": 5105,
      "Ġoperated": 5106,
      "kes": 5107,
      "Ġconsisting": 5108,
      "8,000": 5109,
      "Ġcertificate": 5110,
      "ames": 5111,
      "Ġratings": 5112,
      "2.0": 5113,
      "Ġclassification": 5114,
      "ĠOR": 5115,
      "Ġusers": 5116,
      "2.8": 5117,
      "Ġfeatures": 5118,
      "ĠTaxonomy": 5119,
      "Ġexposed": 5120,
      "ĠSpecial": 5121,
      "Ġregional": 5122,
      "1.5": 5123,
      "Ġunauthorized": 5124,
      "ĠMeasure": 5125,
      "eri": 5126,
      "Ġ/": 5127,
      "Ġelse": 5128,
      "Ġhospital": 5129,
      "Ġtechniqu": 5130,
      "Ġselected": 5131,
      "ĠMark": 5132,
      "----": 5133,
      "evada": 5134,
      "3,4": 5135,
      "imp": 5136,
      "backed": 5137,
      "Ġthreat": 5138,
      "4.5": 5139,
      "Ġmo": 5140,
      "ĠSecured": 5141,
      "ĠFDIC": 5142,
      "ailure": 5143,
      "Ġlimitation": 5144,
      "Ġlarger": 5145,
      "Ġaffiliated": 5146,
      "Ġcollaboration": 5147,
      "Ġdeterior": 5148,
      "Ġprevious": 5149,
      "Ġdefer": 5150,
      "ĠBro": 5151,
      "3.8": 5152,
      "anufact": 5153,
      "etition": 5154,
      "ENS": 5155,
      "Ġacceptance": 5156,
      "encing": 5157,
      "Ġcommunity": 5158,
      "etro": 5159,
      "Certification": 5160,
      "ĠEstim": 5161,
      "ulf": 5162,
      "asons": 5163,
      "ĠBe": 5164,
      "quire": 5165,
      "Ġsupplies": 5166,
      "Ġprogress": 5167,
      "cien": 5168,
      "Ġincorporation": 5169,
      "ridge": 5170,
      "iting": 5171,
      "ĠVIE": 5172,
      "Ġestablishing": 5173,
      "Ġdefinitive": 5174,
      "Ġconsent": 5175,
      "Ġarise": 5176,
      "ĠSTOCK": 5177,
      "ĠLicense": 5178,
      "ĠReceiv": 5179,
      "Amendment": 5180,
      "spec": 5181,
      "Ġlaun": 5182,
      "anticip": 5183,
      "ĠCommercial": 5184,
      "Des": 5185,
      "base": 5186,
      "Ġcoal": 5187,
      "ĠPUR": 5188,
      "ĠPRO": 5189,
      "ĠÂ": 5190,
      "inn": 5191,
      "business": 5192,
      "ĠFERC": 5193,
      "Ġbrands": 5194,
      "Name": 5195,
      "Corporate": 5196,
      "quidity": 5197,
      "Ġelsewhere": 5198,
      "iable": 5199,
      "Ġchallenges": 5200,
      "ĠUnion": 5201,
      "ĠSolutions": 5202,
      "Ġwhose": 5203,
      "Ġupd": 5204,
      "benefit": 5205,
      "ĠAward": 5206,
      "ousing": 5207,
      "ancy": 5208,
      "ires": 5209,
      "unded": 5210,
      "airs": 5211,
      "Ġframework": 5212,
      "73": 5213,
      "Ġ$2,": 5214,
      "Ġrestrict": 5215,
      "Ġimposed": 5216,
      "Ġtenant": 5217,
      "Ġadvanced": 5218,
      "urrencies": 5219,
      "Ġregulators": 5220,
      "Ġtravel": 5221,
      "Ġcode": 5222,
      "aining": 5223,
      "ĠOffice": 5224,
      "4.3": 5225,
      "losses": 5226,
      "lock": 5227,
      "elling": 5228,
      "ĠPolicies": 5229,
      "shares": 5230,
      "Ġtrademarks": 5231,
      "RES": 5232,
      "Ġexpensed": 5233,
      "Ġindirectly": 5234,
      "Ġgenerating": 5235,
      "ger": 5236,
      "have": 5237,
      "Ġdu": 5238,
      "Ġretained": 5239,
      "Ġoccurs": 5240,
      "Ġfranchise": 5241,
      "Ġtraining": 5242,
      "March": 5243,
      "Ġfood": 5244,
      "NA": 5245,
      "3.5": 5246,
      "ĠSubsidi": 5247,
      "Ġattention": 5248,
      "Ġreliability": 5249,
      "Ġabs": 5250,
      "Ġtargets": 5251,
      "ĠSupplementary": 5252,
      "Pri": 5253,
      "Ġrealize": 5254,
      "Ġsecuritiz": 5255,
      "Ġconformity": 5256,
      "Ġtrustee": 5257,
      "Ġyour": 5258,
      "1,000": 5259,
      "Ġ2009,": 5260,
      "Ġchanging": 5261,
      "ĠLife": 5262,
      "Ġcancer": 5263,
      "Ġconsolidation": 5264,
      "Ġpop": 5265,
      "ludes": 5266,
      "Ġdaily": 5267,
      "Ġrespects": 5268,
      "Acquisition": 5269,
      "ollars": 5270,
      "Ġsettled": 5271,
      "4.4": 5272,
      "Compensation": 5273,
      "Ġgoals": 5274,
      "ĠEPA": 5275,
      "5,9": 5276,
      "Ġexploration": 5277,
      "Ġhistory": 5278,
      "Ġsan": 5279,
      "3.3": 5280,
      "ĠSince": 5281,
      "Topic": 5282,
      "TS": 5283,
      "79": 5284,
      "Ġ$9.": 5285,
      "Ġtherapeu": 5286,
      "cost": 5287,
      "Ġne": 5288,
      "Regist": 5289,
      "Ġschedule": 5290,
      "ĠRed": 5291,
      "74": 5292,
      "hood": 5293,
      "Federal": 5294,
      "oresee": 5295,
      "ceptions": 5296,
      "Ġcounterparties": 5297,
      "ental": 5298,
      "Ġprincipally": 5299,
      "XBRL": 5300,
      "Ġwithdraw": 5301,
      "4,0": 5302,
      "Ġadvisory": 5303,
      "maller": 5304,
      "MB": 5305,
      "4.8": 5306,
      "Ġincremental": 5307,
      "vironmental": 5308,
      "issu": 5309,
      "Ġintegral": 5310,
      "ĠPortfolio": 5311,
      "ibles": 5312,
      "onoun": 5313,
      "Ġfeet": 5314,
      "Ġremediation": 5315,
      "These": 5316,
      "LL": 5317,
      "ĠProcedures": 5318,
      "ĠMiss": 5319,
      "Ġreclassified": 5320,
      "Ġeconomy": 5321,
      "idents": 5322,
      "Ġpromotion": 5323,
      "Ġaspects": 5324,
      "unications": 5325,
      "6,9": 5326,
      "Ġcostly": 5327,
      "........": 5328,
      "Ġmanager": 5329,
      "ĠAN": 5330,
      "iciencies": 5331,
      "Ġintegr": 5332,
      "250": 5333,
      "Ġstruct": 5334,
      "ansas": 5335,
      "Ġattractive": 5336,
      "Ġoccup": 5337,
      "bank": 5338,
      "2,3": 5339,
      "Ġthousand": 5340,
      "Ġinitially": 5341,
      "Ġidentical": 5342,
      "4,4": 5343,
      "Ġlight": 5344,
      "Ġher": 5345,
      "ĠCounty": 5346,
      "Ġmechan": 5347,
      "Ġalthough": 5348,
      "dered": 5349,
      "ĠLink": 5350,
      "\"),": 5351,
      "Ġ$15": 5352,
      "Ġlocation": 5353,
      "7,000": 5354,
      "angibles": 5355,
      "Ġundert": 5356,
      "CONSOLIDATED": 5357,
      "egrated": 5358,
      "ĠFHL": 5359,
      "Ġindemnification": 5360,
      "Ġduties": 5361,
      "lands": 5362,
      "bo": 5363,
      "echnologies": 5364,
      "Ġoccurrence": 5365,
      "Ġrelease": 5366,
      "750": 5367,
      "Ġtenants": 5368,
      "Ġexamination": 5369,
      "ida": 5370,
      "7,6": 5371,
      "Ġinsp": 5372,
      "Ġexists": 5373,
      "ĠVir": 5374,
      "Ġactu": 5375,
      "Addition": 5376,
      "Sales": 5377,
      "ĠSan": 5378,
      "Ġerror": 5379,
      "Research": 5380,
      "ĠMoreover": 5381,
      "capital": 5382,
      "ĠUpon": 5383,
      "29.": 5384,
      "Ġlawsuits": 5385,
      "Ġbetter": 5386,
      "Ġshi": 5387,
      "UC": 5388,
      "Ġforesee": 5389,
      "ĠBeneficial": 5390,
      "van": 5391,
      "ĠAdvisor": 5392,
      "ĠRevolving": 5393,
      "Ġindex": 5394,
      "Ġreasons": 5395,
      "Ġphysical": 5396,
      "Contract": 5397,
      "Ġintegration": 5398,
      "Ġinvolves": 5399,
      "1.3": 5400,
      "Ġforms": 5401,
      "Ġnow": 5402,
      "DAQ": 5403,
      "Ġoperates": 5404,
      "Amended": 5405,
      "Ġissuing": 5406,
      "Ġ+": 5407,
      "reshold": 5408,
      "Ġassessments": 5409,
      "Ġinsured": 5410,
      "Ġthereof": 5411,
      "ximately": 5412,
      "ASDAQ": 5413,
      "yees": 5414,
      "ĠRSUs": 5415,
      "ĠCEO": 5416,
      "ĠElectric": 5417,
      "Ġadministration": 5418,
      "Ġpaying": 5419,
      "Restricted": 5420,
      "Ġagents": 5421,
      "Ġcurrencies": 5422,
      "Ġenterprise": 5423,
      "eterm": 5424,
      "ligh": 5425,
      "ĠHome": 5426,
      "Ġreducing": 5427,
      "Ġsyn": 5428,
      "ĠIssuer": 5429,
      "Ġfamily": 5430,
      "adequ": 5431,
      "âĢł": 5432,
      "ĠREPORT": 5433,
      "Ġmort": 5434,
      "ĠCOMP": 5435,
      "Ġmarketable": 5436,
      "Ġchain": 5437,
      "def": 5438,
      "ĠCA": 5439,
      "Risks": 5440,
      "Ġclosed": 5441,
      "3.4": 5442,
      "Expected": 5443,
      "ANS": 5444,
      "ĠSU": 5445,
      "Ġparts": 5446,
      "certain": 5447,
      "ĠCompanies": 5448,
      "usion": 5449,
      "Ġfilings": 5450,
      "product": 5451,
      "ead": 5452,
      "Ġsuffer": 5453,
      "Ġduration": 5454,
      "ĠES": 5455,
      "ashington": 5456,
      "Ġdistribute": 5457,
      "ĠSheet": 5458,
      "1.4": 5459,
      "18.": 5460,
      "Ġdecreases": 5461,
      "0.8": 5462,
      "7,9": 5463,
      "TM": 5464,
      "2.3": 5465,
      "odd": 5466,
      "Ġdisruption": 5467,
      "ĠSafety": 5468,
      "Ġelectricity": 5469,
      "Ġwholesale": 5470,
      "Ġmineral": 5471,
      "ĠMedicaid": 5472,
      "Additional": 5473,
      "erce": 5474,
      "Assets": 5475,
      "5,0": 5476,
      "Ġcharacteristics": 5477,
      "Ġassessed": 5478,
      "ott": 5479,
      "lorida": 5480,
      "TOR": 5481,
      "Ġdoubtful": 5482,
      "ĠCanadian": 5483,
      "Ġbar": 5484,
      "Ġnetworks": 5485,
      "Ġsolely": 5486,
      "Ġgovernance": 5487,
      "ominated": 5488,
      "ĠParticip": 5489,
      "like": 5490,
      "Ġ9.": 5491,
      "ĠExpense": 5492,
      "quiring": 5493,
      "ITION": 5494,
      "Wh": 5495,
      "Ġforeseeable": 5496,
      "ĠFunds": 5497,
      "Ġcybersecurity": 5498,
      "cluding": 5499,
      "Ġbreaches": 5500,
      "ĠNevada": 5501,
      "Ġfoot": 5502,
      "Ġpostretirement": 5503,
      "ĠGe": 5504,
      "estation": 5505,
      "Ġcommence": 5506,
      "tile": 5507,
      "inning": 5508,
      "Second": 5509,
      "Ġfairly": 5510,
      "Ġcomplaint": 5511,
      "outhern": 5512,
      "Ġexting": 5513,
      "Ġefficacy": 5514,
      "Ġbl": 5515,
      "9,6": 5516,
      "ĠIncorporation": 5517,
      "Invent": 5518,
      "Credit": 5519,
      "8,6": 5520,
      "Ġmid": 5521,
      "ĠACCOUNTING": 5522,
      "ĠProtection": 5523,
      "Ġmitigate": 5524,
      "ĠFramework": 5525,
      "4.7": 5526,
      "Ġexcluded": 5527,
      "Ġresolution": 5528,
      "down": 5529,
      "Ġstage": 5530,
      "Ġproduc": 5531,
      "cientific": 5532,
      "Ġletter": 5533,
      "ĠNDA": 5534,
      "Ġoptim": 5535,
      "Ġjo": 5536,
      "Off": 5537,
      "Ġlo": 5538,
      "1.6": 5539,
      "Ġqualitative": 5540,
      "Ġself": 5541,
      "Ġobligated": 5542,
      "ront": 5543,
      "Provision": 5544,
      "ircraft": 5545,
      "Ġinfringement": 5546,
      "Frank": 5547,
      "ona": 5548,
      "Ġrevers": 5549,
      "Part": 5550,
      "Ġfutures": 5551,
      "Ġflex": 5552,
      "Ġunderstanding": 5553,
      "Ġsubordinated": 5554,
      "Ġmedia": 5555,
      "Ġplants": 5556,
      "Ġsocial": 5557,
      "ĠLinkbase": 5558,
      "iced": 5559,
      "ĠRef": 5560,
      "Ġforegoing": 5561,
      "Ġguarantees": 5562,
      "Ġreplacement": 5563,
      "Ġrecurring": 5564,
      "Ġcells": 5565,
      "Ġ2024,": 5566,
      "Ġthereafter": 5567,
      "ĠMc": 5568,
      "Ġventures": 5569,
      "Ġguaranteed": 5570,
      "phone": 5571,
      "2.4": 5572,
      "Ġchanged": 5573,
      "Ġplaced": 5574,
      "ma": 5575,
      "9,000": 5576,
      "ĠKing": 5577,
      "3.0": 5578,
      "ields": 5579,
      "Ġreceipt": 5580,
      "Ġdism": 5581,
      "Ġrecommend": 5582,
      "ford": 5583,
      "ĠEquipment": 5584,
      "Ġsummarized": 5585,
      "ĠCoun": 5586,
      "offs": 5587,
      "yer": 5588,
      "Ġfavor": 5589,
      "Ġmanufacturer": 5590,
      "Ġperiodically": 5591,
      "Ġfrequent": 5592,
      "Ġredeemable": 5593,
      "Ġcounterparty": 5594,
      "Ġduly": 5595,
      "ETS": 5596,
      "Ġtherapy": 5597,
      "3.7": 5598,
      "ĠContracts": 5599,
      "ĠDef": 5600,
      "Ġmove": 5601,
      "effective": 5602,
      "ength": 5603,
      "Ġfinan": 5604,
      "Ġemb": 5605,
      "Ġvers": 5606,
      "uts": 5607,
      "Ġdilutive": 5608,
      "1.9": 5609,
      "Ġexpensive": 5610,
      "ĠSystems": 5611,
      "ĠSome": 5612,
      "Ġcategories": 5613,
      "Ġcustomary": 5614,
      "\").": 5615,
      "Ġmedic": 5616,
      "ĠDuke": 5617,
      "4.6": 5618,
      "Class": 5619,
      "Ġholds": 5620,
      "manent": 5621,
      "Ġdiagnos": 5622,
      "lihood": 5623,
      "ĠInternet": 5624,
      "ĠSecre": 5625,
      "Ġbecomes": 5626,
      "Ġstill": 5627,
      "ested": 5628,
      "amortized": 5629,
      "Ġtreasury": 5630,
      "itholders": 5631,
      "Ġtechniques": 5632,
      "ationships": 5633,
      "2.7": 5634,
      "Ġwarranty": 5635,
      "ĠHolding": 5636,
      "Issuance": 5637,
      "Ġseparately": 5638,
      "ASC": 5639,
      "ĠAdministration": 5640,
      "Ġfew": 5641,
      "Ġsafe": 5642,
      "Ġexecute": 5643,
      "2.6": 5644,
      "Ġdifficulties": 5645,
      "lif": 5646,
      "Ġdelin": 5647,
      "19.": 5648,
      "Ġachieved": 5649,
      "Ġaccurately": 5650,
      "ĠREG": 5651,
      "Ġreplace": 5652,
      "ĠUtility": 5653,
      "Ġoffers": 5654,
      "Ġconsummation": 5655,
      "Ġchief": 5656,
      "Ġintegrated": 5657,
      "8,9": 5658,
      "Ġcommitted": 5659,
      "ĠINC": 5660,
      "ĠCF": 5661,
      "Ġreportable": 5662,
      "Ġthreshold": 5663,
      "performing": 5664,
      "omic": 5665,
      "Ġpractice": 5666,
      "Ġrenewal": 5667,
      "Ġefficient": 5668,
      "3.6": 5669,
      "Ġinfluence": 5670,
      "Ġproceeding": 5671,
      "vo": 5672,
      "Ġcommercially": 5673,
      "6.0": 5674,
      "Ġincen": 5675,
      "ustodian": 5676,
      "Ġpromissory": 5677,
      "uci": 5678,
      "ĠOPER": 5679,
      "collectively": 5680,
      "Gain": 5681,
      "Ġdeficit": 5682,
      "ASU": 5683,
      "Ġmut": 5684,
      "Ġ50": 5685,
      "ĠPacif": 5686,
      "ique": 5687,
      "Ġlikelihood": 5688,
      "aming": 5689,
      "Sh": 5690,
      "Ġrefund": 5691,
      "ios": 5692,
      "6,0": 5693,
      "Ġefficiency": 5694,
      "5,4": 5695,
      "ĠFinancing": 5696,
      "ĠEU": 5697,
      "9,9": 5698,
      "ertificates": 5699,
      "justments": 5700,
      "4.0": 5701,
      "Ġspecifically": 5702,
      "ĠSw": 5703,
      "PM": 5704,
      "ticals": 5705,
      "imilar": 5706,
      "Ġalleged": 5707,
      "Ġeduc": 5708,
      "ceedings": 5709,
      "ĠRules": 5710,
      "Ġcyber": 5711,
      "Ġcomputer": 5712,
      "lit": 5713,
      "Ġunobservable": 5714,
      "Cons": 5715,
      "onouncements": 5716,
      "rig": 5717,
      "Ġdistributed": 5718,
      "reme": 5719,
      "Director": 5720,
      "Ġpermanent": 5721,
      "II": 5722,
      "ĠMedical": 5723,
      "nab": 5724,
      "Date": 5725,
      "Ġrather": 5726,
      "Ġcenter": 5727,
      "Amount": 5728,
      "Ġconflicts": 5729,
      "ĠCare": 5730,
      "Ġcat": 5731,
      "Ġtables": 5732,
      "Ġforce": 5733,
      "agers": 5734,
      "ny": 5735,
      "has": 5736,
      "Sch": 5737,
      "Ġratios": 5738,
      "tify": 5739,
      "ĠMexico": 5740,
      "Ġthereby": 5741,
      "Ġhazardous": 5742,
      "Ġcontributed": 5743,
      "6,4": 5744,
      "Ret": 5745,
      "Ġnuclear": 5746,
      "ĠMeeting": 5747,
      "ump": 5748,
      "aci": 5749,
      "aims": 5750,
      "50,": 5751,
      "Ġcontrolled": 5752,
      "head": 5753,
      "ĠFOR": 5754,
      "Ġlisting": 5755,
      "Ġstand": 5756,
      "ĠâĺĴ": 5757,
      "Ġapprove": 5758,
      "ognition": 5759,
      "sequently": 5760,
      "rought": 5761,
      "Because": 5762,
      "Ġtraditional": 5763,
      "Ġcease": 5764,
      "Ġremed": 5765,
      "Ġhistorically": 5766,
      "ople": 5767,
      "Ġproblems": 5768,
      "LA": 5769,
      "2.9": 5770,
      "Ġintern": 5771,
      "ĠColl": 5772,
      "ches": 5773,
      "log": 5774,
      "ĠIncorporated": 5775,
      "Loans": 5776,
      "BA": 5777,
      "Ġmakes": 5778,
      "Ġ23": 5779,
      "akes": 5780,
      "Ġplainti": 5781,
      "Ġviolation": 5782,
      "ĠTechnologies": 5783,
      "Ġver": 5784,
      "Ġextinguish": 5785,
      "Ġprohib": 5786,
      "accru": 5787,
      "AF": 5788,
      "ĠPlacement": 5789,
      "ĠLaw": 5790,
      "Ġtechnological": 5791,
      "Ġunfavorable": 5792,
      "iduci": 5793,
      "ĠChange": 5794,
      "resentation": 5795,
      "ĠFlorida": 5796,
      "PR": 5797,
      "rect": 5798,
      "Ġpurchas": 5799,
      "contract": 5800,
      "Ġsanctions": 5801,
      "Ġequ": 5802,
      "Ġrelates": 5803,
      "ĠAwards": 5804,
      "LE": 5805,
      "ĠNetwork": 5806,
      "Ġparticipant": 5807,
      "icially": 5808,
      "Ġway": 5809,
      "Ġpayors": 5810,
      "28.": 5811,
      "20.": 5812,
      "ercent": 5813,
      "7.5": 5814,
      "Ġcancell": 5815,
      "Purchase": 5816,
      "Ġidentifiable": 5817,
      "Ġ38": 5818,
      "erivatives": 5819,
      "Ġretrosp": 5820,
      "imate": 5821,
      "Commercial": 5822,
      "ĠEng": 5823,
      "ĠProject": 5824,
      "0.5": 5825,
      "ANCE": 5826,
      "Ġproduced": 5827,
      "ĠSummary": 5828,
      "ĠTR": 5829,
      "3,3": 5830,
      "ĠAust": 5831,
      "bearing": 5832,
      "ĠIT": 5833,
      "Ġrelatively": 5834,
      "Ġauthorization": 5835,
      "Ġ2004": 5836,
      "owns": 5837,
      "Ġmisstatement": 5838,
      "Ġinsure": 5839,
      "Ġmilestone": 5840,
      "Ġimprovement": 5841,
      "Over": 5842,
      "Ġexceptions": 5843,
      "Ġweek": 5844,
      "Ġroyalties": 5845,
      "Ġaround": 5846,
      "ĠOp": 5847,
      "June": 5848,
      "ifies": 5849,
      "vid": 5850,
      "Ġcommunications": 5851,
      "September": 5852,
      "ĠRELATED": 5853,
      "Ġbring": 5854,
      "Americ": 5855,
      "4.9": 5856,
      "Ġobjective": 5857,
      "Ġcollected": 5858,
      "Ġmining": 5859,
      "eginning": 5860,
      "Ġachievement": 5861,
      "ience": 5862,
      "Ġreconciliation": 5863,
      "uty": 5864,
      "Senior": 5865,
      "Ġcovering": 5866,
      "des": 5867,
      "Ġexhibit": 5868,
      "Ġcreated": 5869,
      "rue": 5870,
      "icro": 5871,
      "Ġimproved": 5872,
      "Ġviolations": 5873,
      "7,0": 5874,
      "ĠCom": 5875,
      "ological": 5876,
      "Ġranging": 5877,
      "Ġoversight": 5878,
      "trans": 5879,
      "Ġadded": 5880,
      "ointed": 5881,
      "6.8": 5882,
      "Ġwhom": 5883,
      "Earnings": 5884,
      "Ġreverse": 5885,
      "estim": 5886,
      "ody": 5887,
      "ĠEmployee": 5888,
      "adequate": 5889,
      "ĠSegment": 5890,
      "1,2": 5891,
      "Ġactuarial": 5892,
      "60,": 5893,
      "7.8": 5894,
      "ĠCompliance": 5895,
      "Ġfulf": 5896,
      "Ġmeasurements": 5897,
      "Diluted": 5898,
      "inally": 5899,
      "ohn": 5900,
      "Ġcontractors": 5901,
      "rations": 5902,
      "Ġnoted": 5903,
      "Ġlegisl": 5904,
      "ox": 5905,
      "Ġrendered": 5906,
      "Ġscale": 5907,
      "IGN": 5908,
      "Ġimplementing": 5909,
      "ĠResearch": 5910,
      "iduciary": 5911,
      "ĠTier": 5912,
      "ĠOptions": 5913,
      "Ġphysicians": 5914,
      "hap": 5915,
      "Ġremains": 5916,
      "TI": 5917,
      "ĠSecond": 5918,
      "Ġstart": 5919,
      "COME": 5920,
      "uctible": 5921,
      "Ġautomatic": 5922,
      "Ġcloud": 5923,
      "Ġgroups": 5924,
      "aturity": 5925,
      "Ġ$1.0": 5926,
      "Commission": 5927,
      ".âĢĻ": 5928,
      "Ġesc": 5929,
      "ĠPRC": 5930,
      "balance": 5931,
      "Ġhard": 5932,
      "UAL": 5933,
      "atis": 5934,
      "ĠCD": 5935,
      "Ġpartnerships": 5936,
      "Ġpaper": 5937,
      "value": 5938,
      "ville": 5939,
      "7.0": 5940,
      "period": 5941,
      "fully": 5942,
      "Le": 5943,
      "Ġassigned": 5944,
      "ĠPCAOB": 5945,
      "Ġclasses": 5946,
      "LOSU": 5947,
      "Ġaircraft": 5948,
      "iscounted": 5949,
      "Ġmotion": 5950,
      "ĠGuarant": 5951,
      "Ġpriority": 5952,
      "Ġparticipating": 5953,
      "Ġreleased": 5954,
      "Ġcopy": 5955,
      "Ġvolun": 5956,
      "ĠProceedings": 5957,
      "SR": 5958,
      "Ġproportion": 5959,
      "oses": 5960,
      "Ġattempt": 5961,
      "ĠOversight": 5962,
      "share": 5963,
      "Ġanalyst": 5964,
      "Ph": 5965,
      "Ġmaintains": 5966,
      "Ġidentifying": 5967,
      "ĠPay": 5968,
      "rator": 5969,
      "otive": 5970,
      "Ġgene": 5971,
      "ĠSTOCKHOLD": 5972,
      "ĠSchedules": 5973,
      "alse": 5974,
      "deal": 5975,
      "Ġ21": 5976,
      "ĠAverage": 5977,
      "Ġsustained": 5978,
      "Effective": 5979,
      "onduct": 5980,
      "ĠServicing": 5981,
      "edded": 5982,
      "ĠConsumer": 5983,
      "ĠSecretary": 5984,
      "Ġplatforms": 5985,
      "3.9": 5986,
      "6.5": 5987,
      "armaceuticals": 5988,
      "Dividends": 5989,
      "oming": 5990,
      "Ġlender": 5991,
      "Ġmonetary": 5992,
      "ĠRo": 5993,
      "7,4": 5994,
      "alls": 5995,
      "ĠServicer": 5996,
      "Ġprofessionals": 5997,
      "oma": 5998,
      "35.": 5999,
      "Ġmodification": 6000,
      "through": 6001,
      "ĠWater": 6002,
      "agreements": 6003,
      "Ġfacts": 6004,
      "ĠAppro": 6005,
      "Ġacceler": 6006,
      "Ġincentives": 6007,
      "Ġsubscription": 6008,
      "Supp": 6009,
      "Lease": 6010,
      "Mr": 6011,
      "Ġprohibit": 6012,
      "Ġexpressed": 6013,
      "8,0": 6014,
      "organization": 6015,
      "Debt": 6016,
      "ĠCustomers": 6017,
      "War": 6018,
      "Ġfiles": 6019,
      "odities": 6020,
      "Ġsecrets": 6021,
      "non": 6022,
      "Rel": 6023,
      "dle": 6024,
      "ĠClo": 6025,
      "Ġexecuted": 6026,
      "Scholes": 6027,
      "Ġgive": 6028,
      "Ġcompens": 6029,
      "Ġproved": 6030,
      "Ġreb": 6031,
      "Ġadopt": 6032,
      "ĠAsia": 6033,
      "Ġ27": 6034,
      "ader": 6035,
      "Recent": 6036,
      "Ġindications": 6037,
      "Ġbrought": 6038,
      "Increase": 6039,
      "Ġtargeted": 6040,
      "Ġbid": 6041,
      "ĠRegulatory": 6042,
      "Ġtop": 6043,
      "ĠDistribution": 6044,
      "FS": 6045,
      "4,3": 6046,
      "DE": 6047,
      "ĠDepos": 6048,
      "Ġelectronic": 6049,
      "stream": 6050,
      "ĠBancorp": 6051,
      "tilities": 6052,
      "ĠPN": 6053,
      "inding": 6054,
      "Ġtherapeutic": 6055,
      "Ġ2025": 6056,
      "Ġregularly": 6057,
      "accrual": 6058,
      "hio": 6059,
      "ĠThose": 6060,
      "ave": 6061,
      "Ġtender": 6062,
      "Ġlength": 6063,
      "2021": 6064,
      "Ġquarters": 6065,
      "Ġsatisfied": 6066,
      "Ġ20%": 6067,
      "ĠProf": 6068,
      "loy": 6069,
      "Ġdetect": 6070,
      "Ġmethodology": 6071,
      "Ġissuances": 6072,
      "Ġanalyz": 6073,
      "Ġx": 6074,
      "Mortgage": 6075,
      "405": 6076,
      "Ġacquiring": 6077,
      "udited": 6078,
      "ĠEthics": 6079,
      "Ġtangible": 6080,
      "Ġincl": 6081,
      "laws": 6082,
      "Ġsit": 6083,
      "ĠSel": 6084,
      "ĠDodd": 6085,
      "Ġpurchasing": 6086,
      "Ġbear": 6087,
      "Ġretention": 6088,
      "9,0": 6089,
      "Ġcommunities": 6090,
      "Ġappointed": 6091,
      "Comprehensive": 6092,
      "89": 6093,
      "Ġfiduciary": 6094,
      "ounter": 6095,
      "ĠNASDAQ": 6096,
      "pay": 6097,
      "Preferred": 6098,
      "Ġnames": 6099,
      "ĠLosses": 6100,
      "Description": 6101,
      "DR": 6102,
      "Ġfluctuate": 6103,
      "ĠDrug": 6104,
      "Ġprepayment": 6105,
      "ARY": 6106,
      "Ġextinguishment": 6107,
      "nabis": 6108,
      "Ġ10.2": 6109,
      "stance": 6110,
      "Ġvac": 6111,
      "ĠSup": 6112,
      "ymb": 6113,
      "0.1": 6114,
      "Ġchemical": 6115,
      "Ġspons": 6116,
      "Ġstrength": 6117,
      "urg": 6118,
      "ĠControls": 6119,
      "Ġfield": 6120,
      "Third": 6121,
      "ĠDISCLOSU": 6122,
      "ĠAdministrative": 6123,
      "ĠSECTION": 6124,
      "Ġage": 6125,
      "SION": 6126,
      "ĠGold": 6127,
      "ĠAdditional": 6128,
      "regist": 6129,
      "etter": 6130,
      "Ġrepurchased": 6131,
      "Audit": 6132,
      "Ġdra": 6133,
      "ĠSupplemental": 6134,
      "Ġadequately": 6135,
      "Ġprepaid": 6136,
      "ĠRelationships": 6137,
      "Ġrepaid": 6138,
      "UM": 6139,
      "Ġ[": 6140,
      "LI": 6141,
      "Ġprevail": 6142,
      "Ġrepurchases": 6143,
      "App": 6144,
      "URES": 6145,
      "Ġchannels": 6146,
      "Ġow": 6147,
      "Ġexport": 6148,
      "ĠUSA": 6149,
      "Ġtherapies": 6150,
      "ĠConting": 6151,
      "ĠMany": 6152,
      "olum": 6153,
      "Ġvess": 6154,
      "Ġfacilit": 6155,
      "Ġlargely": 6156,
      "ĠTrading": 6157,
      "ĠKingdom": 6158,
      "ĠEast": 6159,
      "ĠEmployment": 6160,
      "ulg": 6161,
      "ota": 6162,
      "ĠEstimates": 6163,
      "mart": 6164,
      "8,4": 6165,
      "ĠObligations": 6166,
      "33,": 6167,
      "Title": 6168,
      "Ġannivers": 6169,
      "rowth": 6170,
      "ĠActual": 6171,
      "ceived": 6172,
      "0.7": 6173,
      "PC": 6174,
      "ĠRetirement": 6175,
      "Ġsupplier": 6176,
      "iti": 6177,
      "Ġnecessarily": 6178,
      "Ġput": 6179,
      "ogistics": 6180,
      "Ġweaknesses": 6181,
      "Ġtransfers": 6182,
      "Ġthus": 6183,
      "ild": 6184,
      "25.": 6185,
      "Ġce": 6186,
      "quency": 6187,
      "evere": 6188,
      "Ġexecution": 6189,
      "SUANT": 6190,
      "6.1": 6191,
      "ened": 6192,
      "Ġinvestigations": 6193,
      "Ġtherein": 6194,
      "arry": 6195,
      "Ġmechanism": 6196,
      "Distrib": 6197,
      "ideo": 6198,
      "ĠAgent": 6199,
      "ĠAir": 6200,
      "Ġ2008,": 6201,
      "Ġpublished": 6202,
      "6.7": 6203,
      "Allowance": 6204,
      "ivity": 6205,
      "Ġdeclines": 6206,
      "84": 6207,
      "ench": 6208,
      "Ġuser": 6209,
      "Ġreach": 6210,
      "Ġgrowing": 6211,
      "Ġdisclose": 6212,
      "Ġappreciation": 6213,
      "Ġslow": 6214,
      "ĠEven": 6215,
      "ĠStaff": 6216,
      "ĠWarrant": 6217,
      "Ġassign": 6218,
      "Ġquantitative": 6219,
      "Ġclimate": 6220,
      "ĠMet": 6221,
      "ĠLeases": 6222,
      "Ġrecru": 6223,
      "Ġdesignation": 6224,
      "ĠSouthern": 6225,
      "Ġissuable": 6226,
      "Ġposted": 6227,
      "Ġservicer": 6228,
      "6.3": 6229,
      "Ġtrusts": 6230,
      "Ġtaking": 6231,
      "Ġdilig": 6232,
      "ĠMa": 6233,
      "EL": 6234,
      "Ġhour": 6235,
      "6.2": 6236,
      "compliance": 6237,
      "Ġconcerns": 6238,
      "ĠPURSUANT": 6239,
      "Ġcommenced": 6240,
      "HER": 6241,
      "unicip": 6242,
      "Ġinadequate": 6243,
      "Ġunique": 6244,
      "Ġelectronically": 6245,
      "mn": 6246,
      "Act": 6247,
      "âĦ": 6248,
      "Ġfactor": 6249,
      "Ġpled": 6250,
      "Ġunconsolidated": 6251,
      "face": 6252,
      "âĦ¢": 6253,
      "Ġsensitive": 6254,
      "Ġeffort": 6255,
      "Ġsupervision": 6256,
      "Ġinvestigation": 6257,
      "Inter": 6258,
      "Ġbudg": 6259,
      "ĠPrime": 6260,
      "plan": 6261,
      "expected": 6262,
      "ĠFood": 6263,
      "ĠEarnings": 6264,
      "ĠOwners": 6265,
      "Ġeliminated": 6266,
      "acities": 6267,
      "aren": 6268,
      "iling": 6269,
      "Fiscal": 6270,
      "empt": 6271,
      "Ġcontingencies": 6272,
      "rand": 6273,
      "eel": 6274,
      "Ġoperators": 6275,
      "Ġwaste": 6276,
      "Ġgold": 6277,
      "Ġapplies": 6278,
      "ĠStrateg": 6279,
      "otential": 6280,
      "9,4": 6281,
      "Options": 6282,
      "ĠJap": 6283,
      "disc": 6284,
      "Asset": 6285,
      "Ġseverance": 6286,
      "ĠForeign": 6287,
      "Ġformed": 6288,
      "ĠBi": 6289,
      "eter": 6290,
      "ĠTherap": 6291,
      "35,": 6292,
      "Ġwithhold": 6293,
      "Ġinstances": 6294,
      "ĠFHLB": 6295,
      "ĠRevenues": 6296,
      "ĠDi": 6297,
      "itting": 6298,
      "Ġallowed": 6299,
      "Ġdetails": 6300,
      "Ġaccordingly": 6301,
      "reci": 6302,
      "0,8": 6303,
      "Ġunitholders": 6304,
      "ĠBorrow": 6305,
      "ĠBenefit": 6306,
      "tly": 6307,
      "Ġaccrual": 6308,
      "Ġutilizing": 6309,
      "Ġ4.1": 6310,
      "Ġsubmission": 6311,
      "ĠNGL": 6312,
      "Ġacts": 6313,
      "CM": 6314,
      "ustomer": 6315,
      "Ġpursu": 6316,
      "ĠIndependence": 6317,
      "unity": 6318,
      "âĢĵ": 6319,
      "Ġawarded": 6320,
      "licable": 6321,
      "Ġexpanded": 6322,
      "Ġshif": 6323,
      "Liabilities": 6324,
      "Ġtitle": 6325,
      "ĠGovernment": 6326,
      "ibilities": 6327,
      "DS": 6328,
      "Ġindividually": 6329,
      "Ġ28": 6330,
      "Ġseri": 6331,
      "ĠChe": 6332,
      "32,": 6333,
      "Ġbilled": 6334,
      "Ġlesser": 6335,
      "Ġleasing": 6336,
      "ylvan": 6337,
      "Due": 6338,
      "Ġ$100": 6339,
      "ĠOrganizations": 6340,
      "Ġorigination": 6341,
      "Ġcontrolling": 6342,
      "ado": 6343,
      "34,": 6344,
      "valuation": 6345,
      "Ġterror": 6346,
      "Ġcollaborators": 6347,
      "Ġliable": 6348,
      "7.1": 6349,
      "Ġseven": 6350,
      "Ġdenominated": 6351,
      "ref": 6352,
      "ylvania": 6353,
      "ĠBra": 6354,
      "service": 6355,
      "utes": 6356,
      "taining": 6357,
      "putes": 6358,
      "Ġinventories": 6359,
      "gener": 6360,
      "oney": 6361,
      "WS": 6362,
      "2022": 6363,
      "37,": 6364,
      "7.7": 6365,
      "Ġrelief": 6366,
      "aces": 6367,
      "errit": 6368,
      "anufacturing": 6369,
      "2020": 6370,
      "ifying": 6371,
      "Ġformul": 6372,
      "ĠON": 6373,
      "ĠXBRL": 6374,
      "nsylvania": 6375,
      "orne": 6376,
      "dro": 6377,
      "Ġquantities": 6378,
      "ĠOhio": 6379,
      "6.6": 6380,
      "Prepaid": 6381,
      "ords": 6382,
      "Ġheadqu": 6383,
      "2015": 6384,
      "Ġattestation": 6385,
      "cons": 6386,
      "0.2": 6387,
      "Ġsevere": 6388,
      "cast": 6389,
      "ĠGulf": 6390,
      "6.4": 6391,
      "Ġappra": 6392,
      "Unrealized": 6393,
      "ĠLT": 6394,
      "ĠSc": 6395,
      "Ġsatisfaction": 6396,
      "employee": 6397,
      "cell": 6398,
      "6.9": 6399,
      "ana": 6400,
      "Ġmetric": 6401,
      "Ġcapacities": 6402,
      "vert": 6403,
      "ricing": 6404,
      "ĠBase": 6405,
      "Ġevaluates": 6406,
      "7.2": 6407,
      "ĠEffective": 6408,
      "decrease": 6409,
      "rive": 6410,
      "Ġserving": 6411,
      "7.3": 6412,
      "300": 6413,
      "Ġbeneficially": 6414,
      "ete": 6415,
      "west": 6416,
      "Ġcross": 6417,
      "Ġsuitable": 6418,
      "Ġutilization": 6419,
      "Ġharmed": 6420,
      "Ġcombinations": 6421,
      "ĠPurchases": 6422,
      "Ġhandling": 6423,
      "elec": 6424,
      "86": 6425,
      "Ġsector": 6426,
      "phan": 6427,
      "ittees": 6428,
      "Ġconvert": 6429,
      "Ġmaster": 6430,
      "field": 6431,
      "Ġselect": 6432,
      "Ġchoose": 6433,
      "Red": 6434,
      "operating": 6435,
      "Ġstream": 6436,
      "ĠMarkets": 6437,
      "ĠGoodwill": 6438,
      "Ġrecovered": 6439,
      "Ġreform": 6440,
      "empl": 6441,
      "ĠAmount": 6442,
      "CR": 6443,
      "Ġparent": 6444,
      "ĠOil": 6445,
      "istic": 6446,
      "Ġground": 6447,
      "Def": 6448,
      "Ġregardless": 6449,
      "Ġmatch": 6450,
      "Ġmilestones": 6451,
      "Includes": 6452,
      "January": 6453,
      "Ġnever": 6454,
      "Ġhalf": 6455,
      "Ġanalysts": 6456,
      "ĠNYSE": 6457,
      "Ġmerchand": 6458,
      "7.6": 6459,
      "Ġemployed": 6460,
      "ĠAdviser": 6461,
      "Employee": 6462,
      "Ġonce": 6463,
      "Ġincreasingly": 6464,
      "Any": 6465,
      "ĠOPERATIONS": 6466,
      "Ġtrig": 6467,
      "ĠSubsidiaries": 6468,
      "performance": 6469,
      "Ġfeature": 6470,
      "Ġembedded": 6471,
      "duction": 6472,
      "ĠPension": 6473,
      "Ġdelayed": 6474,
      "ein": 6475,
      "Ġwww": 6476,
      "($": 6477,
      "ai": 6478,
      "MC": 6479,
      "Ġlaboratory": 6480,
      "UN": 6481,
      "Ġpressure": 6482,
      "Ġauditor": 6483,
      "Ġaware": 6484,
      "ĠMarketing": 6485,
      "ĠVirgin": 6486,
      "bor": 6487,
      "ourth": 6488,
      "ĠSe": 6489,
      "Ġcollectively": 6490,
      "2014": 6491,
      "Ġpredic": 6492,
      "Ġadvisors": 6493,
      "Agreement": 6494,
      "sufficient": 6495,
      "Ġ$0.1": 6496,
      "Ġdiligence": 6497,
      "Ġreceives": 6498,
      "ĠAdvisors": 6499,
      "ĠPresentation": 6500,
      "Ġwhereby": 6501,
      "ĠNone": 6502,
      "Ġsolution": 6503,
      "unicipal": 6504,
      "ourage": 6505,
      "Ġdeath": 6506,
      "ĠSchedule": 6507,
      "ĠSale": 6508,
      "Ġmanagers": 6509,
      "ymbol": 6510,
      "Information": 6511,
      "avid": 6512,
      "Ġintangibles": 6513,
      "bre": 6514,
      "Ġlegislative": 6515,
      "ivestit": 6516,
      "Ġundiscounted": 6517,
      "ĠTread": 6518,
      "7.4": 6519,
      "ISK": 6520,
      "Ġ120": 6521,
      "Ġregions": 6522,
      "ĠAccounts": 6523,
      "Ġfailures": 6524,
      "Ġimplied": 6525,
      "Ġexecutives": 6526,
      "ĠPR": 6527,
      "Amounts": 6528,
      "ĠGen": 6529,
      "ĠCong": 6530,
      "0.3": 6531,
      "Ġpromulg": 6532,
      "Ġconstit": 6533,
      "rep": 6534,
      "Ġconsidering": 6535,
      "ĠManaging": 6536,
      "ĠSponsoring": 6537,
      "dil": 6538,
      "ask": 6539,
      "333": 6540,
      "uting": 6541,
      "ĠINCOME": 6542,
      "BC": 6543,
      "ĠArk": 6544,
      "gen": 6545,
      "Ġexclusivity": 6546,
      "36,": 6547,
      "hapter": 6548,
      "rest": 6549,
      "rins": 6550,
      "Ġworth": 6551,
      "Ġvaluations": 6552,
      "asters": 6553,
      "Ġvolatile": 6554,
      "held": 6555,
      "Ġanniversary": 6556,
      "water": 6557,
      "ĠTreadway": 6558,
      "Ġrealiz": 6559,
      "Ġdispositions": 6560,
      "llino": 6561,
      "20,000": 6562,
      "Ġimpairments": 6563,
      "llinois": 6564,
      "report": 6565,
      "oration": 6566,
      "Ġcour": 6567,
      "inue": 6568,
      "Ġ$3,": 6569,
      "Ġcontam": 6570,
      "ĠReform": 6571,
      "Ġ40": 6572,
      "Ġoutcomes": 6573,
      "Ġsupporting": 6574,
      "Ġfunctional": 6575,
      "ulture": 6576,
      "Ġmembership": 6577,
      "Ġunvested": 6578,
      "SP": 6579,
      "ĠOTC": 6580,
      "BL": 6581,
      "Ġintends": 6582,
      "Ġexpose": 6583,
      "ĠEl": 6584,
      "icha": 6585,
      "do": 6586,
      "Ġsubj": 6587,
      "Ġenhanced": 6588,
      "ĠAustral": 6589,
      "Ġexception": 6590,
      "122": 6591,
      "ORPOR": 6592,
      "Ġproducing": 6593,
      "ĠPatent": 6594,
      "lot": 6595,
      "develop": 6596,
      "ĠCarol": 6597,
      "uch": 6598,
      "rinsic": 6599,
      "Ġconsummate": 6600,
      "ĠAtt": 6601,
      "Ġadd": 6602,
      "Ġappeal": 6603,
      "Ġapproximate": 6604,
      "Ġtools": 6605,
      "struct": 6606,
      "Ġevolving": 6607,
      "Ġresponsibilities": 6608,
      "Ġcontribute": 6609,
      "Ġreadily": 6610,
      "ĠOT": 6611,
      "Ġconstrain": 6612,
      "Ġ0": 6613,
      "level": 6614,
      "Ġgovernments": 6615,
      "Ġspecialty": 6616,
      "Ġreceiving": 6617,
      "Ġfrequently": 6618,
      "7.9": 6619,
      "HAR": 6620,
      "ĠET": 6621,
      "quisite": 6622,
      "void": 6623,
      "Ġpeople": 6624,
      "Ġcapitalization": 6625,
      "Ġcannabis": 6626,
      "arget": 6627,
      "Ġintent": 6628,
      "Ġrad": 6629,
      "Ġir": 6630,
      "ĠFunding": 6631,
      "Ġattacks": 6632,
      "Ġquot": 6633,
      "END": 6634,
      "tional": 6635,
      "38,": 6636,
      "52": 6637,
      "Ġredeemed": 6638,
      "0.4": 6639,
      "org": 6640,
      "2018": 6641,
      "Ġ25%": 6642,
      "Intangible": 6643,
      "Ġmanufactured": 6644,
      "Ġprofitable": 6645,
      "2016": 6646,
      "Disc": 6647,
      "0.6": 6648,
      "Ġscientific": 6649,
      "Ġreimbur": 6650,
      "Ġalig": 6651,
      "Years": 6652,
      "kers": 6653,
      "Ġpreferences": 6654,
      "statements": 6655,
      "February": 6656,
      "Ġmodifications": 6657,
      "enchmark": 6658,
      "Ġware": 6659,
      "sc": 6660,
      "Ġforecasted": 6661,
      "specific": 6662,
      "Ġnewly": 6663,
      "Ġusage": 6664,
      "Ġdisp": 6665,
      "ĠFuture": 6666,
      "ĠBy": 6667,
      "plus": 6668,
      "ĠAfter": 6669,
      "Ġtelephone": 6670,
      "By": 6671,
      "ming": 6672,
      "39,": 6673,
      "romissory": 6674,
      "0,7": 6675,
      "Ġ401": 6676,
      "Ġfirms": 6677,
      "ichael": 6678,
      "Ġdetailed": 6679,
      "pecially": 6680,
      "front": 6681,
      "ireless": 6682,
      "Derivative": 6683,
      "Ġdiscovery": 6684,
      "Ġassuming": 6685,
      "olved": 6686,
      "Ġsecondary": 6687,
      "ris": 6688,
      "Ġentering": 6689,
      "ipp": 6690,
      "Ġsubstances": 6691,
      "Impairment": 6692,
      "ĠPennsylvania": 6693,
      "ground": 6694,
      "Ġvis": 6695,
      "Ġdisputes": 6696,
      "ĠAgency": 6697,
      "inery": 6698,
      "ĠSun": 6699,
      "Ġflexibility": 6700,
      "Ġ$14": 6701,
      "ĠCASH": 6702,
      "Ġavoid": 6703,
      "Revenues": 6704,
      "Exchange": 6705,
      "Ġlist": 6706,
      "hest": 6707,
      "Ġexposures": 6708,
      "Ġclean": 6709,
      "chang": 6710,
      "uilding": 6711,
      "ĠSci": 6712,
      "Ġtermin": 6713,
      "suming": 6714,
      "RB": 6715,
      "Ġcur": 6716,
      "Ġaccording": 6717,
      "arma": 6718,
      "Ġcertificates": 6719,
      "Ġexpired": 6720,
      "ateralized": 6721,
      "WN": 6722,
      "Series": 6723,
      "Ġapplying": 6724,
      "ĠArkansas": 6725,
      "Ġintercompany": 6726,
      "antitative": 6727,
      "Plan": 6728,
      "ĠPacific": 6729,
      "ne": 6730,
      "Ġschedules": 6731,
      "ready": 6732,
      "Related": 6733,
      "Ġenroll": 6734,
      "Ġjud": 6735,
      "Ġmature": 6736,
      "Ġsecuritization": 6737,
      "Ġlabeling": 6738,
      "clusive": 6739,
      "arding": 6740,
      "ANAG": 6741,
      "ĠRES": 6742,
      "athering": 6743,
      "ĠMin": 6744,
      "ounds": 6745,
      "ĠNOL": 6746,
      "42,": 6747,
      "Ġportions": 6748,
      "upon": 6749,
      "odies": 6750,
      "Real": 6751,
      "8.0": 6752,
      "Ġtari": 6753,
      "5,3": 6754,
      "Ġvia": 6755,
      "gages": 6756,
      "ĠInf": 6757,
      "Ġowed": 6758,
      "ulting": 6759,
      "Investments": 6760,
      "ĠAut": 6761,
      "ĠBenefits": 6762,
      "ettlement": 6763,
      "Ġindicative": 6764,
      "Ġreceipts": 6765,
      "Prior": 6766,
      "Ġinterpretations": 6767,
      "istor": 6768,
      "Ġupg": 6769,
      "Exercise": 6770,
      "Ġutilities": 6771,
      "Ġ$0.2": 6772,
      "Ġrapidly": 6773,
      "ĠÂ¨": 6774,
      "ĠRegistrants": 6775,
      "ĠFailure": 6776,
      "2019": 6777,
      "Ġwind": 6778,
      "downs": 6779,
      "Ġadvisor": 6780,
      "Ġqualifying": 6781,
      "Ġimmediate": 6782,
      "rove": 6783,
      "could": 6784,
      "ourse": 6785,
      "approval": 6786,
      "likely": 6787,
      "Ġrein": 6788,
      "Ġcommunicated": 6789,
      "appropri": 6790,
      "Ġconflict": 6791,
      "Ġzero": 6792,
      "ĠCommitments": 6793,
      "affiliates": 6794,
      "ĠNAV": 6795,
      "ĠThird": 6796,
      "Ġachieving": 6797,
      "Ġincident": 6798,
      "âĢĿ.": 6799,
      "Ġcompeting": 6800,
      "ĠFacilities": 6801,
      "Ġespecially": 6802,
      "otechnology": 6803,
      "Ġbill": 6804,
      "549": 6805,
      "osing": 6806,
      "0.9": 6807,
      "oyalty": 6808,
      "ham": 6809,
      "Ġrenewable": 6810,
      "wood": 6811,
      "Ġnegotiated": 6812,
      "Selling": 6813,
      "price": 6814,
      "subject": 6815,
      "ĠHed": 6816,
      "bl": 6817,
      "Ġpayroll": 6818,
      "CP": 6819,
      "Ġfall": 6820,
      "Ġunamortized": 6821,
      "Ġmerg": 6822,
      "2017": 6823,
      "Ġfulfill": 6824,
      "ole": 6825,
      "ruck": 6826,
      "Ġindication": 6827,
      "anticipated": 6828,
      "ĠHigh": 6829,
      "ĠIllinois": 6830,
      "Ġstatutes": 6831,
      "Ġcommission": 6832,
      "ANAGEMENT": 6833,
      "uit": 6834,
      "Ġpopulation": 6835,
      "well": 6836,
      "emerging": 6837,
      "Ġ35": 6838,
      "Ġhardware": 6839,
      "ctive": 6840,
      "Ġreliance": 6841,
      "Ġinterpretation": 6842,
      "NG": 6843,
      "Ġsettlements": 6844,
      "Ġcontempl": 6845,
      "Ġmarketplace": 6846,
      "ARK": 6847,
      "Ġrole": 6848,
      "leet": 6849,
      "Ġpossibility": 6850,
      "Ġnone": 6851,
      "Ġworkforce": 6852,
      "raded": 6853,
      "Section": 6854,
      "ĠPe": 6855,
      "viously": 6856,
      "Ġ2007,": 6857,
      "Ġhedged": 6858,
      "Ġupdated": 6859,
      "ĠExhibits": 6860,
      "ĠCH": 6861,
      "Although": 6862,
      "ĠEd": 6863,
      "Percent": 6864,
      "OP": 6865,
      "Ġmach": 6866,
      "risk": 6867,
      "Ġelements": 6868,
      "Ġdescription": 6869,
      "Ġrevision": 6870,
      "quirements": 6871,
      "ĠGenerally": 6872,
      "arges": 6873,
      "etrole": 6874,
      "ĠRecognition": 6875,
      "Ġtrend": 6876,
      "common": 6877,
      "Employment": 6878,
      "Ġconducting": 6879,
      "met": 6880,
      "Ġcomplying": 6881,
      "Directors": 6882,
      "ĠPolicy": 6883,
      "Adjusted": 6884,
      "Ġsolar": 6885,
      "Ġinput": 6886,
      "etroleum": 6887,
      "Ġmarketed": 6888,
      "Ġdiseases": 6889,
      "Ġresource": 6890,
      "ĠNatural": 6891,
      "Ġobsol": 6892,
      "excluding": 6893,
      "olec": 6894,
      "Ġvideo": 6895,
      "With": 6896,
      "ĠCirc": 6897,
      "Ġmodify": 6898,
      "Ġtum": 6899,
      "ĠKey": 6900,
      "Ġrequisite": 6901,
      "Ġproc": 6902,
      "ĠAccountants": 6903,
      "Ġgrade": 6904,
      "ĠSupply": 6905,
      "Ġled": 6906,
      "Ġ000": 6907,
      "ĠMAT": 6908,
      "Ġconfirm": 6909,
      "ĠPL": 6910,
      "Ġestimating": 6911,
      "Ġerr": 6912,
      "5.1": 6913,
      "Ġfl": 6914,
      "ĠFee": 6915,
      "Ġmultip": 6916,
      "Ġvery": 6917,
      "Ġinhibit": 6918,
      "10.1": 6919,
      "ĠInteractive": 6920,
      "Ġsalaries": 6921,
      "Ġcomposition": 6922,
      "Ġbenefici": 6923,
      "ĠParent": 6924,
      "ĠOf": 6925,
      "President": 6926,
      "illiam": 6927,
      "Ġprevailing": 6928,
      "IA": 6929,
      "Ġdeficiencies": 6930,
      "Ġtested": 6931,
      "success": 6932,
      "Ġpromulgated": 6933,
      "long": 6934,
      "eutics": 6935,
      "beli": 6936,
      "Legal": 6937,
      "AIN": 6938,
      "Ġmutual": 6939,
      "ĠArrange": 6940,
      "Ġ1%": 6941,
      "Ġrestaurants": 6942,
      "6,3": 6943,
      "ĠForward": 6944,
      "Ġpresence": 6945,
      "exerc": 6946,
      "Ġcas": 6947,
      "ĠFLO": 6948,
      "prises": 6949,
      "family": 6950,
      "ĠAR": 6951,
      "OF": 6952,
      "ĠIRS": 6953,
      "2012": 6954,
      "Ġleadership": 6955,
      "Ġhousing": 6956,
      "Ġpipelines": 6957,
      "ABIL": 6958,
      "Supplemental": 6959,
      "ways": 6960,
      "Ġadministered": 6961,
      "ĠTri": 6962,
      "Ġexceeded": 6963,
      "ĠREGIS": 6964,
      "Ġ(#": 6965,
      "ode": 6966,
      "From": 6967,
      "arned": 6968,
      "Ġprelim": 6969,
      "Ġpage": 6970,
      "ray": 6971,
      "ĠBri": 6972,
      "ĠWork": 6973,
      "Ġ2003": 6974,
      "ĠIndustrial": 6975,
      "Med": 6976,
      "aryland": 6977,
      "Pension": 6978,
      "Ġ$0.3": 6979,
      "Ġcalculate": 6980,
      "EG": 6981,
      "Ġappear": 6982,
      "Ġpath": 6983,
      "Ġpartial": 6984,
      "Ġforecast": 6985,
      "alone": 6986,
      "pred": 6987,
      "letion": 6988,
      "issipp": 6989,
      "ersey": 6990,
      "andon": 6991,
      "ESS": 6992,
      "Ġmandatory": 6993,
      "Security": 6994,
      "following": 6995,
      "Ġbearing": 6996,
      "Ġprobability": 6997,
      "ĠQualitative": 6998,
      "ĠPayments": 6999,
      "Ġrepair": 7000,
      "ps": 7001,
      "ulner": 7002,
      "Ġremoval": 7003,
      "Ġalready": 7004,
      "Ġlaunch": 7005,
      "Eff": 7006,
      "Ġ$1.5": 7007,
      "ĠAvenue": 7008,
      "ĠJapan": 7009,
      "economic": 7010,
      "Ġhost": 7011,
      "Ġconstitute": 7012,
      "Ġterrit": 7013,
      "Ġprocessed": 7014,
      "management": 7015,
      "Ar": 7016,
      "ĠRO": 7017,
      "Ġconfidence": 7018,
      "Ġwaiver": 7019,
      "Ġconcentration": 7020,
      "Ġwithholding": 7021,
      "ĠOmn": 7022,
      "inter": 7023,
      "Ġestablishes": 7024,
      "Ġgaming": 7025,
      "Ġretrospective": 7026,
      "Ġwarranties": 7027,
      "orded": 7028,
      "Ġinternet": 7029,
      "Ġactively": 7030,
      "2,500": 7031,
      "Ġhotel": 7032,
      "ĠDE": 7033,
      "lan": 7034,
      "ĠDec": 7035,
      "Ġdisasters": 7036,
      "Ġ15%": 7037,
      "ĠVirginia": 7038,
      "ĠIntangible": 7039,
      "AM": 7040,
      "Basis": 7041,
      "pite": 7042,
      "One": 7043,
      "Ġrise": 7044,
      "Valuation": 7045,
      "ĠContingencies": 7046,
      "October": 7047,
      "Ġforced": 7048,
      "Ġrul": 7049,
      "Ġshows": 7050,
      "Ġsubjective": 7051,
      "Ġshipping": 7052,
      "Ġtaxing": 7053,
      "Ġerrors": 7054,
      "consolidated": 7055,
      "Ġautomatically": 7056,
      "May": 7057,
      "8.8": 7058,
      "issued": 7059,
      "ecessor": 7060,
      "located": 7061,
      "Ġadequacy": 7062,
      "ranche": 7063,
      "Ġvendor": 7064,
      "ĠLegal": 7065,
      "Ġtrack": 7066,
      "5.5": 7067,
      "Ġdownt": 7068,
      "Ġaccruals": 7069,
      "Ġ$0.5": 7070,
      "ĠRiver": 7071,
      "Ġsplit": 7072,
      "2,2": 7073,
      "eld": 7074,
      "7,3": 7075,
      "ĠEcon": 7076,
      "ancing": 7077,
      "ĠEm": 7078,
      "cings": 7079,
      "ides": 7080,
      "issippi": 7081,
      "road": 7082,
      "Ġidentification": 7083,
      "Ġ$1.1": 7084,
      "Ġ$18": 7085,
      "Ġ$16": 7086,
      "Ġdilution": 7087,
      "Ġvulner": 7088,
      "Ġforeclosure": 7089,
      "Ġunderwriters": 7090,
      "ĠJersey": 7091,
      "ta": 7092,
      "uity": 7093,
      "Ġdisch": 7094,
      "Ġlien": 7095,
      "Ġdrive": 7096,
      "ĠMeasurements": 7097,
      "Adjustments": 7098,
      "ifth": 7099,
      "Ġduty": 7100,
      "Ġsupplement": 7101,
      "HC": 7102,
      "Ġdeem": 7103,
      "ĠUtilities": 7104,
      "Ġinsufficient": 7105,
      "itation": 7106,
      "ĠCMS": 7107,
      "Ġprotoc": 7108,
      "Value": 7109,
      "Ġsubjects": 7110,
      "ĠMod": 7111,
      "Ġmerchandise": 7112,
      "Ġ2026": 7113,
      "ĠReceivable": 7114,
      "ationally": 7115,
      "Ġ$(": 7116,
      "ĠConduct": 7117,
      "gthe": 7118,
      "Ġsteps": 7119,
      "Significant": 7120,
      "Ġexpires": 7121,
      "ĠEnvironmental": 7122,
      "/(": 7123,
      "ĠNor": 7124,
      "ibus": 7125,
      "ĠIntegrated": 7126,
      "Ġretailers": 7127,
      "Ġagree": 7128,
      "avings": 7129,
      "resolved": 7130,
      "alid": 7131,
      "Ġ606": 7132,
      "ĠPharmaceuticals": 7133,
      "ĠAG": 7134,
      "NY": 7135,
      "Ġconven": 7136,
      "ommission": 7137,
      "Ġdecide": 7138,
      "ĠGP": 7139,
      "Ġcreditors": 7140,
      "Ġdisrupt": 7141,
      "Product": 7142,
      "FORMATION": 7143,
      "elecomm": 7144,
      "CS": 7145,
      "Filed": 7146,
      "ĠTra": 7147,
      "Ġmainly": 7148,
      "PT": 7149,
      "obert": 7150,
      "orado": 7151,
      "Ġsimp": 7152,
      "Ġautomotive": 7153,
      "luded": 7154,
      "atter": 7155,
      "Ġblock": 7156,
      "ĠMA": 7157,
      "Liquidity": 7158,
      "ĠUpdate": 7159,
      "titution": 7160,
      "8.5": 7161,
      "Ġengagement": 7162,
      "ĠRus": 7163,
      "Ġyields": 7164,
      "Ġ404": 7165,
      "Ġobserv": 7166,
      "Ġinjury": 7167,
      "Ġcommencing": 7168,
      "Ġvirt": 7169,
      "Ġgoal": 7170,
      "Ġquick": 7171,
      "0001": 7172,
      "Ġsharing": 7173,
      "ĠPipel": 7174,
      "ighest": 7175,
      "Ġpreliminary": 7176,
      "atch": 7177,
      "Ġours": 7178,
      "Ġintegrate": 7179,
      "Ġbuildings": 7180,
      "Ġ$17": 7181,
      "eem": 7182,
      "Ġrun": 7183,
      "5.8": 7184,
      "Ġdepreci": 7185,
      "Ġpros": 7186,
      "Ġproperly": 7187,
      "Ġstatute": 7188,
      "ignation": 7189,
      "Ġdivided": 7190,
      "Ġdetection": 7191,
      "Ġassumption": 7192,
      "Ġcommencement": 7193,
      "ĠWashington": 7194,
      "Ġ$1.2": 7195,
      "ĠInvestors": 7196,
      "ĠMont": 7197,
      "ĠDivision": 7198,
      "Ġantib": 7199,
      "Ġinvalid": 7200,
      "Ġattrib": 7201,
      "5.3": 7202,
      "ĠCor": 7203,
      "Ġ26": 7204,
      "Ġdemonstrate": 7205,
      "Ġfalse": 7206,
      "Ġtransl": 7207,
      "Ġ2000": 7208,
      "Payments": 7209,
      "Ġ$0.4": 7210,
      "ening": 7211,
      "Ġeight": 7212,
      "ĠGrant": 7213,
      "Ġphase": 7214,
      "8,3": 7215,
      "TORS": 7216,
      "cap": 7217,
      "Ġstop": 7218,
      "Page": 7219,
      "ĠAmounts": 7220,
      "ĠCongress": 7221,
      "ABILITIES": 7222,
      "Ġprevention": 7223,
      "Ġpackaging": 7224,
      "Ġ75": 7225,
      "Ġfounder": 7226,
      "ses": 7227,
      "Ġmaxim": 7228,
      "Ġborrowed": 7229,
      "assets": 7230,
      "Ġexpanding": 7231,
      "Fixed": 7232,
      "aho": 7233,
      "Ġrealizable": 7234,
      "etts": 7235,
      "1,08": 7236,
      "Statements": 7237,
      "cise": 7238,
      "Ġprove": 7239,
      "5.7": 7240,
      "Ġ302": 7241,
      "2023": 7242,
      "April": 7243,
      "ĠMass": 7244,
      "Ġserious": 7245,
      "MR": 7246,
      "achus": 7247,
      "Ġselection": 7248,
      "Ġinitiated": 7249,
      "Ġforecasts": 7250,
      "right": 7251,
      "Ġinstitutional": 7252,
      "OCI": 7253,
      "Ġprivately": 7254,
      "achusetts": 7255,
      "Ġlate": 7256,
      "Ġmortgages": 7257,
      "Ġomitted": 7258,
      "recurring": 7259,
      "ĠCONT": 7260,
      "changed": 7261,
      "Ġfails": 7262,
      "Ġabandon": 7263,
      "43,": 7264,
      "MBS": 7265,
      "Ġdefense": 7266,
      "Ġrepresentations": 7267,
      "ĠTw": 7268,
      "Ġrealization": 7269,
      "Ġeliminate": 7270,
      "entions": 7271,
      "ĠMac": 7272,
      "approximately": 7273,
      "Ġapprais": 7274,
      "Additionally": 7275,
      "Ġreti": 7276,
      "ĠComb": 7277,
      "ĠTe": 7278,
      "direct": 7279,
      "point": 7280,
      "adjusted": 7281,
      "Trust": 7282,
      "8.6": 7283,
      "ĠGerm": 7284,
      "Nove": 7285,
      "ola": 7286,
      "Ġstring": 7287,
      "criptions": 7288,
      "Ġplaintiffs": 7289,
      "part": 7290,
      "Ġclearing": 7291,
      "uction": 7292,
      "Use": 7293,
      "Inventories": 7294,
      "million": 7295,
      "valents": 7296,
      "Ġthough": 7297,
      "Ġgeneric": 7298,
      "shore": 7299,
      "ĠTherapeutics": 7300,
      "Ġunders": 7301,
      "Critical": 7302,
      "Ġcourts": 7303,
      "November": 7304,
      "ĠBraz": 7305,
      "ĠCON": 7306,
      "ĠHar": 7307,
      "Customer": 7308,
      "5.2": 7309,
      "Ġhighest": 7310,
      "Ġrelation": 7311,
      "Ġmeetings": 7312,
      "Ġindicators": 7313,
      "8.1": 7314,
      "10.2": 7315,
      "alent": 7316,
      "ĠBran": 7317,
      "5.6": 7318,
      "1,15": 7319,
      "ologies": 7320,
      "Ġsearch": 7321,
      "Ġsettle": 7322,
      "Ġherewith": 7323,
      "ĠMississippi": 7324,
      "Ġsymbol": 7325,
      "Ġdiverse": 7326,
      "ittle": 7327,
      "8.7": 7328,
      "Ġcalled": 7329,
      "ultural": 7330,
      "selves": 7331,
      "ĠRefer": 7332,
      "ung": 7333,
      "Ġaggreg": 7334,
      "Ġhospitals": 7335,
      "Ġlowest": 7336,
      "Registrant": 7337,
      "affiliated": 7338,
      "Ġfloating": 7339,
      "Ġcomparison": 7340,
      "Ġdealer": 7341,
      "1,14": 7342,
      "uck": 7343,
      "ĠFort": 7344,
      "IREC": 7345,
      "Ġreserved": 7346,
      "EPEND": 7347,
      "class": 7348,
      "ĠDo": 7349,
      "ĠAccumulated": 7350,
      "He": 7351,
      "Ġbur": 7352,
      "Ġundertake": 7353,
      "Ġdelinquent": 7354,
      "ĠAEP": 7355,
      "Ġunknown": 7356,
      "Ġdeductible": 7357,
      "Ġexhibits": 7358,
      "public": 7359,
      "Board": 7360,
      "ĠAmortization": 7361,
      "9,3": 7362,
      "atio": 7363,
      "Ġmunicipal": 7364,
      "Ġproced": 7365,
      "Ġwilling": 7366,
      "Ġdistin": 7367,
      "Ġmeaningful": 7368,
      "Â®,": 7369,
      "Further": 7370,
      "ARKET": 7371,
      "45,": 7372,
      "HIP": 7373,
      "registered": 7374,
      "tt": 7375,
      "ĠINFORMATION": 7376,
      "Ġlawsuit": 7377,
      "PB": 7378,
      "Ġsecuring": 7379,
      "ATIVE": 7380,
      "Ġdealers": 7381,
      "otor": 7382,
      "Ġ$5,": 7383,
      "efore": 7384,
      "Ġsupplemental": 7385,
      "Ġassociation": 7386,
      "44,": 7387,
      "Ġways": 7388,
      "Ġresid": 7389,
      "Ġ$13": 7390,
      ".\"": 7391,
      "TIONS": 7392,
      "Ġassistance": 7393,
      "0,5": 7394,
      "8.4": 7395,
      "Ġvarying": 7396,
      "Ġexemption": 7397,
      "di": 7398,
      "eness": 7399,
      "Ġintegrity": 7400,
      "ĠLeg": 7401,
      "SIGN": 7402,
      "ĠWorld": 7403,
      "8.3": 7404,
      "Granted": 7405,
      "Ġimmaterial": 7406,
      "Ġi": 7407,
      "Short": 7408,
      "eemable": 7409,
      "Ġdividing": 7410,
      "ĠGross": 7411,
      "Ġdivision": 7412,
      "ommissioning": 7413,
      "Ġ2.75%": 7414,
      "ITED": 7415,
      "Ġdeduct": 7416,
      "Ġstringent": 7417,
      "Ġemerg": 7418,
      "Ġdiagnostic": 7419,
      "Mark": 7420,
      "location": 7421,
      "ĠCap": 7422,
      "ĠThrough": 7423,
      "Ġoverhead": 7424,
      "Commitments": 7425,
      "Ġinnovative": 7426,
      "Ġclin": 7427,
      "83": 7428,
      "count": 7429,
      "Ġet": 7430,
      "MO": 7431,
      "ĠCarolina": 7432,
      "ĠUK": 7433,
      "ert": 7434,
      "ĠCentral": 7435,
      "ĠJoint": 7436,
      "Ġcollateralized": 7437,
      "Ġdoing": 7438,
      "ĠTRANS": 7439,
      "5.9": 7440,
      "dollars": 7441,
      "ĠCodification": 7442,
      "weighted": 7443,
      "essional": 7444,
      "Ġexit": 7445,
      "urtail": 7446,
      "ourcing": 7447,
      "Ġsuspension": 7448,
      "ĠConn": 7449,
      "Ġ36": 7450,
      "Stockholders": 7451,
      "8.2": 7452,
      "1,13": 7453,
      "Spec": 7454,
      "Ġdedic": 7455,
      "ĠDAT": 7456,
      "10.3": 7457,
      "Ġdemands": 7458,
      "Ġoriginally": 7459,
      "ĠPlant": 7460,
      "ĠFLOWS": 7461,
      "Sp": 7462,
      "uations": 7463,
      "Ġseverity": 7464,
      "Ġfacilitate": 7465,
      "ĠOut": 7466,
      "ĠStat": 7467,
      "51": 7468,
      "Ġcommunication": 7469,
      "ĠRetail": 7470,
      "Estim": 7471,
      "ĠGreen": 7472,
      "ĠMaryland": 7473,
      "ortfolios": 7474,
      "Ġrelations": 7475,
      "Ġremained": 7476,
      "âĺĲ": 7477,
      "emiconduct": 7478,
      "Ġmolec": 7479,
      "Ġwast": 7480,
      "Ġcaption": 7481,
      "Ġpromp": 7482,
      "Ġdifficulty": 7483,
      "1,19": 7484,
      "Ġunrelated": 7485,
      "1,05": 7486,
      "American": 7487,
      "Ġdose": 7488,
      "Ġexplo": 7489,
      "ĠPost": 7490,
      "UTIVE": 7491,
      "Ġprocure": 7492,
      "Ġrecoveries": 7493,
      "rum": 7494,
      "inable": 7495,
      "Ġfleet": 7496,
      "Ġhomes": 7497,
      "Ġkeep": 7498,
      "ĠLitigation": 7499,
      "ĠDisagreements": 7500,
      "Ġdiscretionary": 7501,
      "ERTAIN": 7502,
      "ĠAdv": 7503,
      "5.4": 7504,
      "assess": 7505,
      "ECUTIVE": 7506,
      "urb": 7507,
      "Accounting": 7508,
      "ayman": 7509,
      "Ġbreak": 7510,
      "Ġconfidentiality": 7511,
      "Ġredemptions": 7512,
      "ĠAssoci": 7513,
      "ĠIslands": 7514,
      "Ġ29": 7515,
      "Ġbiotechnology": 7516,
      "Ġdivestit": 7517,
      "Ġdissol": 7518,
      "Ġoriginated": 7519,
      "erves": 7520,
      "ony": 7521,
      "obs": 7522,
      "ĠMorgan": 7523,
      "ĠOWN": 7524,
      "Ġoccupancy": 7525,
      "vents": 7526,
      "itivity": 7527,
      "ĠINDEPEND": 7528,
      "ĠAf": 7529,
      "atin": 7530,
      "pped": 7531,
      "ervation": 7532,
      "1,1": 7533,
      "Ġ500": 7534,
      "Ġmethodologies": 7535,
      "Ġmisstatements": 7536,
      "dep": 7537,
      "Ġclar": 7538,
      "emor": 7539,
      "ĠER": 7540,
      "Ġwithdrawal": 7541,
      "August": 7542,
      "1,16": 7543,
      "Ġwhenever": 7544,
      "Ġ$0": 7545,
      "Ġminor": 7546,
      "Ġprohibited": 7547,
      "Ġpromote": 7548,
      "vey": 7549,
      "46,": 7550,
      "1,06": 7551,
      "AX": 7552,
      "Ġcommodities": 7553,
      "Ġ2001": 7554,
      "Ġrestaurant": 7555,
      "Ġinvo": 7556,
      "lines": 7557,
      "Ġ22": 7558,
      "Ġchallenging": 7559,
      "SIGNAT": 7560,
      "Ġminimize": 7561,
      "imin": 7562,
      "lin": 7563,
      "ients": 7564,
      "Ġauthorizations": 7565,
      "Ġplay": 7566,
      "9.0": 7567,
      "atell": 7568,
      "each": 7569,
      "orney": 7570,
      "Ġheadquarters": 7571,
      "Par": 7572,
      "ĠAustralia": 7573,
      "Fourth": 7574,
      "Ġ99.": 7575,
      "conn": 7576,
      "Segment": 7577,
      "smaller": 7578,
      "itc": 7579,
      "ĠAT": 7580,
      "ĠLI": 7581,
      "Ġrefinance": 7582,
      "ĠRen": 7583,
      "Ġproposals": 7584,
      "Ġemp": 7585,
      "Ġdistinct": 7586,
      "))": 7587,
      "ĠClinical": 7588,
      "72": 7589,
      "Ġorphan": 7590,
      "orgia": 7591,
      "roller": 7592,
      "Enter": 7593,
      "Ġcycle": 7594,
      "Ġpresently": 7595,
      "Ġreliable": 7596,
      "Ġtelevision": 7597,
      "Effect": 7598,
      "Ġrestrictive": 7599,
      "ĠMassachusetts": 7600,
      "apt": 7601,
      "Ġ$1.3": 7602,
      "Purchases": 7603,
      "lam": 7604,
      "was": 7605,
      "ĠCurrency": 7606,
      "ĠPrem": 7607,
      "Ġnotional": 7608,
      "Ġeducation": 7609,
      "Ġcer": 7610,
      "ĠDATA": 7611,
      "ĠMD": 7612,
      "ĠEar": 7613,
      "Ġpractic": 7614,
      "forward": 7615,
      "iles": 7616,
      "Ġcomputing": 7617,
      "esting": 7618,
      "Ġheav": 7619,
      "10.4": 7620,
      "Ġpublish": 7621,
      "Ġhire": 7622,
      "1,18": 7623,
      "Ġnovel": 7624,
      "daho": 7625,
      "HG": 7626,
      "Ġrecoverability": 7627,
      "control": 7628,
      "Ġdefendants": 7629,
      "1,00": 7630,
      "8.9": 7631,
      "Ġ$24": 7632,
      "Ġrequests": 7633,
      "Ġrail": 7634,
      "Ġdeductions": 7635,
      "Ġbilling": 7636,
      "Ġfix": 7637,
      "olidation": 7638,
      "gred": 7639,
      "ĠComments": 7640,
      "atric": 7641,
      "Ġcertification": 7642,
      "Ġbases": 7643,
      "leg": 7644,
      "Ġretaining": 7645,
      "Ġ20549": 7646,
      "Ġbrokers": 7647,
      "TERS": 7648,
      "Ġ$23": 7649,
      "ĠMember": 7650,
      "ĠSimilar": 7651,
      "Ġconsiderations": 7652,
      "havi": 7653,
      "Ġmetrics": 7654,
      "Future": 7655,
      "Ġlimiting": 7656,
      "Ġshell": 7657,
      "ĠMain": 7658,
      "ĠParty": 7659,
      "Sel": 7660,
      "een": 7661,
      "ĠAL": 7662,
      "Ġremote": 7663,
      "ARD": 7664,
      "sumption": 7665,
      "Contractual": 7666,
      "reased": 7667,
      "Ġforma": 7668,
      "Ġportfolios": 7669,
      "Ġmonit": 7670,
      "ĠSuper": 7671,
      "approved": 7672,
      "Ġinherently": 7673,
      "Ġbacklog": 7674,
      "predict": 7675,
      "Govern": 7676,
      "insured": 7677,
      "ĠSubsequent": 7678,
      "Ġside": 7679,
      "Ġ45": 7680,
      "July": 7681,
      "Ġinterruption": 7682,
      "Ġtend": 7683,
      "ards": 7684,
      "ks": 7685,
      "ĠSuite": 7686,
      "Ġversus": 7687,
      "Ġclosely": 7688,
      "recognized": 7689,
      "Ġpurchasers": 7690,
      "PPL": 7691,
      "temporary": 7692,
      "Ġ2006,": 7693,
      "urate": 7694,
      "Ġformula": 7695,
      "Ġdeteriorate": 7696,
      "position": 7697,
      "Ġjoining": 7698,
      "Ġinstallation": 7699,
      "Ġrata": 7700,
      "ĠIm": 7701,
      "PI": 7702,
      "Ġpenalty": 7703,
      "ĠPipeline": 7704,
      "Ġ$0.01": 7705,
      "Ġdire": 7706,
      "ĠLiability": 7707,
      "arrying": 7708,
      "150": 7709,
      "dilutive": 7710,
      "Ġbranch": 7711,
      "ĠOmnibus": 7712,
      "While": 7713,
      "Ġdeterminable": 7714,
      "Ġwireless": 7715,
      "Ġ906": 7716,
      "1,26": 7717,
      "ĠOwner": 7718,
      "TER": 7719,
      "ained": 7720,
      "Ġfinancings": 7721,
      "ĠReports": 7722,
      "Ġchallenge": 7723,
      "Del": 7724,
      "Ġpressures": 7725,
      "ĠCustodian": 7726,
      "ĠBrands": 7727,
      "ectible": 7728,
      "Ġtaxation": 7729,
      "Exhibits": 7730,
      "Ġ$2.0": 7731,
      "Ġeas": 7732,
      "Ġnine": 7733,
      "included": 7734,
      "Ġinsurers": 7735,
      "ĠTen": 7736,
      "Ġskills": 7737,
      "Ġperceived": 7738,
      "ĠGood": 7739,
      "ĠAffili": 7740,
      "Ġcatast": 7741,
      "INESS": 7742,
      "INGS": 7743,
      "ĠMedia": 7744,
      "49.": 7745,
      "USINESS": 7746,
      "Ġunanticipated": 7747,
      "ĠRISK": 7748,
      "Forfe": 7749,
      "Ġgathering": 7750,
      "Ġsupported": 7751,
      "orneys": 7752,
      "ENCE": 7753,
      "ĠAbout": 7754,
      "Ġappoint": 7755,
      "SIGNATURES": 7756,
      "Ġworkers": 7757,
      "Ġcamp": 7758,
      "ocation": 7759,
      "ĠHolder": 7760,
      "1,17": 7761,
      "Ġhydro": 7762,
      "Ġdeduction": 7763,
      "standard": 7764,
      "VER": 7765,
      "Ġdeploy": 7766,
      "ĠColumb": 7767,
      "NUAL": 7768,
      "Ġ80%": 7769,
      "Ġ3.1": 7770,
      "Ġexchanges": 7771,
      "ĠAnd": 7772,
      "ĠWil": 7773,
      "rades": 7774,
      "gu": 7775,
      "Ġ$4,": 7776,
      "Up": 7777,
      "large": 7778,
      "ligence": 7779,
      "mith": 7780,
      "Ġ197": 7781,
      "High": 7782,
      "ĠMATTERS": 7783,
      "orb": 7784,
      "Ġenables": 7785,
      "Ġintention": 7786,
      "ATE": 7787,
      "lood": 7788,
      "ĠDepreciation": 7789,
      "Ġrequested": 7790,
      "cance": 7791,
      "Ġrat": 7792,
      "Ġcorrect": 7793,
      "ĠCB": 7794,
      "Ġ$0.001": 7795,
      "stand": 7796,
      "hire": 7797,
      "Ġcontamination": 7798,
      "ĠJohn": 7799,
      "Regulatory": 7800,
      "ĠAuthor": 7801,
      "credit": 7802,
      "1,20": 7803,
      "Ġwords": 7804,
      "ĠEquivalents": 7805,
      "Ġforfeitures": 7806,
      "Ġregulate": 7807,
      "Ġliens": 7808,
      "Ġimposition": 7809,
      "Ġprofile": 7810,
      "ĠPPL": 7811,
      "ĠSal": 7812,
      "Star": 7813,
      "riting": 7814,
      "1,25": 7815,
      "Ġ10.3": 7816,
      "7,500": 7817,
      "Ġvessels": 7818,
      "Ġdivert": 7819,
      "Ġquickly": 7820,
      "ĠDigital": 7821,
      "Ġallowing": 7822,
      "Ġinstallments": 7823,
      "light": 7824,
      "Ġreflecting": 7825,
      "Financing": 7826,
      "Ġsells": 7827,
      "prof": 7828,
      "Ġallocate": 7829,
      "Ġunexpected": 7830,
      "Ġindemnify": 7831,
      "PG": 7832,
      "Ġlever": 7833,
      "Ġweight": 7834,
      "ĠDeposit": 7835,
      "ĠAmericas": 7836,
      "ĠArrangements": 7837,
      "aution": 7838,
      "ronic": 7839,
      "ĠIndustry": 7840,
      "0,6": 7841,
      "Ġstrengthe": 7842,
      "Ġbenchmark": 7843,
      "48,": 7844,
      "break": 7845,
      "years": 7846,
      "Ġexamining": 7847,
      "Ġconstruct": 7848,
      "owers": 7849,
      "Ġincidents": 7850,
      "utine": 7851,
      "amed": 7852,
      "Ġcollective": 7853,
      "Ġ$1.4": 7854,
      "Ġpractical": 7855,
      "former": 7856,
      "ĠHealthcare": 7857,
      "Ġess": 7858,
      "bon": 7859,
      "dum": 7860,
      "Ġsimplif": 7861,
      "Ġundersigned": 7862,
      "Decrease": 7863,
      "Ġtalent": 7864,
      "49,": 7865,
      "ĠPayment": 7866,
      "Ġinternally": 7867,
      "Ġraised": 7868,
      "Ġindependently": 7869,
      "Ġinstead": 7870,
      "Overview": 7871,
      "rees": 7872,
      "urances": 7873,
      "Ġvoluntary": 7874,
      "Ġrig": 7875,
      "ĠClaims": 7876,
      "ĠPU": 7877,
      "Ġcomplexity": 7878,
      "istributed": 7879,
      "Ġ$0.6": 7880,
      "Ġtreatments": 7881,
      "eals": 7882,
      "oor": 7883,
      "emand": 7884,
      "ĠLetter": 7885,
      "operations": 7886,
      "Ġdismiss": 7887,
      "Ġexcludes": 7888,
      "ĠLine": 7889,
      "ĠConsequently": 7890,
      "1,28": 7891,
      "uses": 7892,
      "Ġcalculating": 7893,
      "Ġbehavi": 7894,
      "Ġ33": 7895,
      "Ġglob": 7896,
      "Ġdecommissioning": 7897,
      "products": 7898,
      "inese": 7899,
      "securities": 7900,
      "Ġhours": 7901,
      "Ġresidual": 7902,
      "ĠBio": 7903,
      "Ġreinvest": 7904,
      "Ġouts": 7905,
      "10.5": 7906,
      "payment": 7907,
      "Ġuncoll": 7908,
      "Ġfurnished": 7909,
      "Ġ$75": 7910,
      "ĠPronouncements": 7911,
      "Ġsuspended": 7912,
      "worth": 7913,
      "1,07": 7914,
      "Ġthreats": 7915,
      "ĠCommunications": 7916,
      "Ġsch": 7917,
      "Ġfeed": 7918,
      "Ġcurtail": 7919,
      "0,000,000": 7920,
      "ĠAmeren": 7921,
      "Ġregister": 7922,
      "Control": 7923,
      "Ġmeasuring": 7924,
      "9.8": 7925,
      "Ġfrequency": 7926,
      "cel": 7927,
      "9.5": 7928,
      "terns": 7929,
      "FC": 7930,
      "go": 7931,
      "Ġcontaining": 7932,
      "Ġinterruptions": 7933,
      "1,27": 7934,
      "Ġsoon": 7935,
      "lf": 7936,
      "ĠEngine": 7937,
      "Ġdispl": 7938,
      "ariable": 7939,
      "Ġaccuracy": 7940,
      "Ġseasonal": 7941,
      "dens": 7942,
      "Ġacres": 7943,
      "Ġreached": 7944,
      "ĠBY": 7945,
      "Ġ$11": 7946,
      "Ġwarehouse": 7947,
      "ares": 7948,
      "Ġreorganization": 7949,
      "Ġcounsel": 7950,
      "Op": 7951,
      "duc": 7952,
      "EA": 7953,
      "dentification": 7954,
      "Ġtelecomm": 7955,
      "ĠBond": 7956,
      "Ġgraph": 7957,
      "Results": 7958,
      "Ġinclusion": 7959,
      "Ġfloor": 7960,
      "ĠSHAR": 7961,
      "Ġcontinuous": 7962,
      "Ġexemptions": 7963,
      "Ġbrokerage": 7964,
      "400": 7965,
      "Ġoperator": 7966,
      "Ġpenny": 7967,
      "ĠOWNERS": 7968,
      "125": 7969,
      "bas": 7970,
      "ĠDiluted": 7971,
      "ĠPromissory": 7972,
      "IF": 7973,
      "Ġorganized": 7974,
      "third": 7975,
      "1,38": 7976,
      "ype": 7977,
      "self": 7978,
      "Ġutilizes": 7979,
      "Ġalternatives": 7980,
      "Ġrecruit": 7981,
      "3,2": 7982,
      "Ġpatterns": 7983,
      "asurer": 7984,
      "ĠGrowth": 7985,
      "Ġamounted": 7986,
      "can": 7987,
      "Ġ$0.0001": 7988,
      "consuming": 7989,
      "ĠColorado": 7990,
      "Ġpromotional": 7991,
      "Ġthereunder": 7992,
      "ouri": 7993,
      "47,": 7994,
      "Sign": 7995,
      "Ġdepository": 7996,
      "Â§": 7997,
      "107": 7998,
      "Ġmuch": 7999,
      "tainment": 8000,
      "Ġprescribed": 8001,
      "ĠIndustries": 8002,
      "ret": 8003,
      "ounded": 8004,
      "Ġsurplus": 8005,
      "ĠCayman": 8006,
      "Ġdispose": 8007,
      "==": 8008,
      "board": 8009,
      "Own": 8010,
      "pe": 8011,
      "Ġconstant": 8012,
      "1,48": 8013,
      "Ġexclude": 8014,
      "emaining": 8015,
      "ĠCR": 8016,
      "Ġcontact": 8017,
      "Vested": 8018,
      "Ġclearance": 8019,
      "itch": 8020,
      "Ġinterv": 8021,
      "Ġlicens": 8022,
      "Ġmeets": 8023,
      "ĠHot": 8024,
      "ĠDividend": 8025,
      "Ġbylaws": 8026,
      "Gu": 8027,
      "Ġcomparing": 8028,
      "71": 8029,
      "Ġaccurate": 8030,
      "ĠIS": 8031,
      "ĠFlow": 8032,
      "Ġcompleting": 8033,
      "ĠValuation": 8034,
      "ĠRock": 8035,
      "employment": 8036,
      "portation": 8037,
      "Ġpublicity": 8038,
      "Ġshared": 8039,
      "Ġreconcile": 8040,
      "unior": 8041,
      "Ġpledged": 8042,
      "ĠIdaho": 8043,
      "ĠInvestor": 8044,
      "Ġdefinitions": 8045,
      "Ġingred": 8046,
      "Ġdevote": 8047,
      "anta": 8048,
      "Ġpursuing": 8049,
      "Ġforum": 8050,
      "Ġgra": 8051,
      "Ġaffairs": 8052,
      "ading": 8053,
      "ĠSpr": 8054,
      "Pa": 8055,
      "emiconductor": 8056,
      "process": 8057,
      "Ġ$19": 8058,
      "Ġremainder": 8059,
      "Energy": 8060,
      "OS": 8061,
      "dealer": 8062,
      "Ġ*": 8063,
      "ĠDerivatives": 8064,
      "istent": 8065,
      "ĠGeorgia": 8066,
      "Ġbudget": 8067,
      "ĠEPS": 8068,
      "Ġassurances": 8069,
      "Service": 8070,
      "rut": 8071,
      "Ġ$12": 8072,
      "Ġ$26": 8073,
      "0.00": 8074,
      "9.9": 8075,
      "quality": 8076,
      "0,9": 8077,
      "ĠSER": 8078,
      "ĠNe": 8079,
      "imary": 8080,
      "Ġgiving": 8081,
      "yc": 8082,
      "Ġtruck": 8083,
      "Ġinform": 8084,
      "ĠRealty": 8085,
      "Ġfinished": 8086,
      "Large": 8087,
      "Ġrepresentatives": 8088,
      "Ġsuperior": 8089,
      "ĠMANAGEMENT": 8090,
      "acro": 8091,
      "ISSION": 8092,
      "11.": 8093,
      "Ġsup": 8094,
      "Ġrepayments": 8095,
      "Ġpharm": 8096,
      "Ġdirected": 8097,
      "Ġ$28": 8098,
      "Ġdefaults": 8099,
      "Ġ$35": 8100,
      "Ins": 8101,
      "IPA": 8102,
      "ĠSever": 8103,
      "Ġcarriers": 8104,
      "1,24": 8105,
      "costs": 8106,
      "Beginning": 8107,
      "embers": 8108,
      "Ġ2%": 8109,
      "104": 8110,
      "ĠYou": 8111,
      "Ġteams": 8112,
      "Ġjudicial": 8113,
      "ĠMo": 8114,
      "vency": 8115,
      "Ġaffirm": 8116,
      "PSC": 8117,
      "enn": 8118,
      "Ġchapter": 8119,
      "ĠCas": 8120,
      "Ġnegotiate": 8121,
      "1,23": 8122,
      "Ġbad": 8123,
      "Ġalter": 8124,
      "pet": 8125,
      "ĠAcquisitions": 8126,
      "Ġseasoned": 8127,
      "Ġlittle": 8128,
      "Ġsurg": 8129,
      "ynam": 8130,
      "how": 8131,
      "ĠReference": 8132,
      "Ġcovenant": 8133,
      "aneous": 8134,
      "Ġsolic": 8135,
      "Ġsurv": 8136,
      "rical": 8137,
      "Ġrecommendations": 8138,
      "Ġreviewing": 8139,
      "ĠPA": 8140,
      "102": 8141,
      "FA": 8142,
      "Ġescrow": 8143,
      "Ġreput": 8144,
      "rew": 8145,
      "ĠLien": 8146,
      "Ġ$10.00": 8147,
      "Ġcommittees": 8148,
      "Ġ$0.8": 8149,
      "Represents": 8150,
      "ĠDefin": 8151,
      "10.6": 8152,
      "Ġtraffic": 8153,
      "Ġabsence": 8154,
      "ĠMaterial": 8155,
      "ama": 8156,
      "capitalized": 8157,
      "FASB": 8158,
      "9.1": 8159,
      "Ġcollaborations": 8160,
      "ologic": 8161,
      "108": 8162,
      "Ġlost": 8163,
      "9.6": 8164,
      "rutin": 8165,
      "urric": 8166,
      "1,33": 8167,
      "Ġinsol": 8168,
      "Ġintense": 8169,
      "ĠChinese": 8170,
      "Ġengaging": 8171,
      "asurement": 8172,
      "opping": 8173,
      "ectrum": 8174,
      "Cl": 8175,
      "earned": 8176,
      "Gas": 8177,
      "Ġissuers": 8178,
      "ĠParticipant": 8179,
      "riz": 8180,
      "Benef": 8181,
      "Ġauditors": 8182,
      "bit": 8183,
      "cement": 8184,
      "1,29": 8185,
      "Annual": 8186,
      "Ġinnovation": 8187,
      "emoran": 8188,
      "10.8": 8189,
      "outstanding": 8190,
      "9.4": 8191,
      "401": 8192,
      "Ġreimbursed": 8193,
      "Ġcalculations": 8194,
      "Or": 8195,
      "Ġcollectability": 8196,
      "Ġstocks": 8197,
      "future": 8198,
      "acing": 8199,
      "Ġattorneys": 8200,
      "SECURITIES": 8201,
      "Ġbeneficiary": 8202,
      "Certificate": 8203,
      "ordable": 8204,
      "Ġ48": 8205,
      "Ġdocumentation": 8206,
      "................": 8207,
      "Ġconsultant": 8208,
      "Competition": 8209,
      "Ġcreating": 8210,
      "Ġsteel": 8211,
      "Ġfract": 8212,
      "Ġroutine": 8213,
      "10.7": 8214,
      "pted": 8215,
      "itcoin": 8216,
      "license": 8217,
      "ricultural": 8218,
      "Ġoutbreak": 8219,
      "Ġ740": 8220,
      "ĠPC": 8221,
      "Ġserviced": 8222,
      "Ġques": 8223,
      "ĠReceivables": 8224,
      "ĠEconomic": 8225,
      "Ġconstraints": 8226,
      "Ġoffsetting": 8227,
      "Ġresolved": 8228,
      "120": 8229,
      "Ġimproper": 8230,
      "Address": 8231,
      "9.3": 8232,
      "Ġgreen": 8233,
      "ĠSavings": 8234,
      "ĠDIS": 8235,
      "ĠVenture": 8236,
      "Ġassume": 8237,
      "SB": 8238,
      "Ġallocations": 8239,
      "olesale": 8240,
      "Ġacting": 8241,
      "ENSATION": 8242,
      "artered": 8243,
      "xic": 8244,
      "issue": 8245,
      "ĠDerivative": 8246,
      "ĠArticles": 8247,
      "tically": 8248,
      "stone": 8249,
      "Ġopp": 8250,
      "Ġconsecutive": 8251,
      "emorandum": 8252,
      "ids": 8253,
      "ĠDISCLOSURES": 8254,
      "uild": 8255,
      "Ġexempt": 8256,
      "ĠClosing": 8257,
      "Ġdeterioration": 8258,
      "Ġinspection": 8259,
      "successful": 8260,
      "atri": 8261,
      "eved": 8262,
      "Ġvacc": 8263,
      "Ġconsummated": 8264,
      "ĠPrac": 8265,
      "HIB": 8266,
      "Ġmicro": 8267,
      "ITATIVE": 8268,
      "9.2": 8269,
      "ĠOrder": 8270,
      "Ġdemonstrated": 8271,
      "ĠAdvisory": 8272,
      "Estimated": 8273,
      "Forfeited": 8274,
      "Since": 8275,
      "Ġcommonly": 8276,
      "ualty": 8277,
      "ĠFollowing": 8278,
      "ĠMonth": 8279,
      "Ġsponsors": 8280,
      "HIBIT": 8281,
      "ĠSettlement": 8282,
      "Ġtit": 8283,
      "Ġpoll": 8284,
      "9.7": 8285,
      "Ġdifferenti": 8286,
      "Ġentry": 8287,
      "onal": 8288,
      "Ġanim": 8289,
      "Ġcomputation": 8290,
      "Ġenfor": 8291,
      "123": 8292,
      "ĠBanking": 8293,
      "Tre": 8294,
      "Ġintroduced": 8295,
      "Each": 8296,
      "izational": 8297,
      "ĠESPP": 8298,
      "--------": 8299,
      "ĠMW": 8300,
      "Ġ4%": 8301,
      "Ġ$1.6": 8302,
      "Ġ37": 8303,
      "Ġattributes": 8304,
      "Ġorganic": 8305,
      "factory": 8306,
      "Continued": 8307,
      "ĠÃ": 8308,
      "Ġsatell": 8309,
      "ocal": 8310,
      "BT": 8311,
      "Ġindicates": 8312,
      "ĠPerson": 8313,
      "ĠImpairment": 8314,
      "Ġarticles": 8315,
      "TE": 8316,
      "Ġ8%": 8317,
      "lications": 8318,
      "Ġcontinually": 8319,
      "ĠBar": 8320,
      "Ġcategor": 8321,
      "Ġ$27": 8322,
      "Ġbecoming": 8323,
      "Ġschool": 8324,
      "Ġenrollment": 8325,
      "ĠRatio": 8326,
      "Ġaccrue": 8327,
      "12.": 8328,
      "ĠAre": 8329,
      "ĠFutures": 8330,
      "Ġaccident": 8331,
      "ĠJr": 8332,
      "Ġstages": 8333,
      "Ġremoved": 8334,
      "ĠStan": 8335,
      "Ġprogramming": 8336,
      "Ġtakes": 8337,
      "Ġsensitivity": 8338,
      "IAL": 8339,
      "ountain": 8340,
      "sell": 8341,
      "ĠHuman": 8342,
      "Ġenab": 8343,
      "Ġprescription": 8344,
      "Thereafter": 8345,
      "expenses": 8346,
      "1,30": 8347,
      "orporations": 8348,
      "Ġcertainty": 8349,
      "Ġfurnish": 8350,
      "significant": 8351,
      "Ġalleging": 8352,
      "Ġ1933,": 8353,
      "Ġcontext": 8354,
      "Convertible": 8355,
      "ĠCard": 8356,
      "Ġexistence": 8357,
      "tib": 8358,
      "Ġimproving": 8359,
      "Ġwebsites": 8360,
      "rem": 8361,
      "ĠAM": 8362,
      "GC": 8363,
      "Ġintrinsic": 8364,
      "unto": 8365,
      "Ġshift": 8366,
      "1,36": 8367,
      "ĠAdministrator": 8368,
      "ALANCE": 8369,
      "ĠValley": 8370,
      "Performance": 8371,
      "EAR": 8372,
      "ĠMost": 8373,
      "Ġindependence": 8374,
      "usive": 8375,
      "ĠLabor": 8376,
      "Ġpassed": 8377,
      "ĠFounder": 8378,
      "Costs": 8379,
      "Ġrol": 8380,
      "Ġreme": 8381,
      "formerly": 8382,
      "IPAA": 8383,
      "ideration": 8384,
      "Ġindenture": 8385,
      "ĠCAR": 8386,
      "Ġextra": 8387,
      "Ġ$0.7": 8388,
      "afe": 8389,
      "Ġstay": 8390,
      "ĠFF": 8391,
      "Ġmaximize": 8392,
      "Ġ$30": 8393,
      "OBS": 8394,
      "itz": 8395,
      "Ġleasehold": 8396,
      "ĠMissouri": 8397,
      "4,2": 8398,
      "rates": 8399,
      "Ġdistributor": 8400,
      "addition": 8401,
      "atories": 8402,
      "ĠWeb": 8403,
      "Ġ$1.7": 8404,
      "ĠMeasurement": 8405,
      "developed": 8406,
      "audit": 8407,
      "ulent": 8408,
      "vantage": 8409,
      "ULTS": 8410,
      "Price": 8411,
      "Ġbarg": 8412,
      "Deficit": 8413,
      "uctions": 8414,
      "liabilities": 8415,
      "Ġâ": 8416,
      "look": 8417,
      "Ġstri": 8418,
      "Ġspent": 8419,
      "Ġformation": 8420,
      "HS": 8421,
      "Ġsem": 8422,
      "00.0": 8423,
      "Ġprospect": 8424,
      "Ġjoined": 8425,
      "Ġtariffs": 8426,
      "West": 8427,
      "Ġshut": 8428,
      "Ġspecialized": 8429,
      "Ġupfront": 8430,
      "Ġnoninterest": 8431,
      "Ġhotels": 8432,
      "Exact": 8433,
      "ogen": 8434,
      "Ġcarbon": 8435,
      "Ġextreme": 8436,
      "Ġadvantages": 8437,
      "Ġdeficiency": 8438,
      "Ġinitiate": 8439,
      "Ġstorm": 8440,
      "Ġ4.2": 8441,
      "hether": 8442,
      "Ġ$.": 8443,
      "Ġentirety": 8444,
      "ĠCiti": 8445,
      "provid": 8446,
      "ĠAD": 8447,
      "Ġseparation": 8448,
      "1,37": 8449,
      "ĠBay": 8450,
      "Ġformal": 8451,
      "ĠCOMMISSION": 8452,
      "gain": 8453,
      "Ġsuccessor": 8454,
      "ĠTransfer": 8455,
      "Ġmergers": 8456,
      "cor": 8457,
      "Corp": 8458,
      "ĠEV": 8459,
      "iber": 8460,
      "ĠHolders": 8461,
      "Ġ90%": 8462,
      "Ġsolid": 8463,
      "Chairman": 8464,
      "Ġextensions": 8465,
      "liability": 8466,
      "^)": 8467,
      "Summary": 8468,
      "Ġ$100,000": 8469,
      "entioned": 8470,
      "Ġpracticable": 8471,
      "Available": 8472,
      "31.1": 8473,
      "ĠACTIV": 8474,
      "Ġpeer": 8475,
      ",^)": 8476,
      "Ġinterm": 8477,
      "solute": 8478,
      "ĠFL": 8479,
      "agraph": 8480,
      "ĠAdop": 8481,
      "Ġprohibits": 8482,
      "Ġ3%": 8483,
      "ĠRich": 8484,
      "Additions": 8485,
      "currently": 8486,
      "aneously": 8487,
      "Cal": 8488,
      "istorically": 8489,
      "Ġfaith": 8490,
      "ago": 8491,
      "ky": 8492,
      "ĠMARKET": 8493,
      "0,0": 8494,
      "Ġovers": 8495,
      "Ġincorporate": 8496,
      "Ġapproximates": 8497,
      "Ġdest": 8498,
      "Ġblood": 8499,
      "ylaws": 8500,
      "omas": 8501,
      "berty": 8502,
      "UNITED": 8503,
      "ĠOrganization": 8504,
      "Ġexercises": 8505,
      "Ġdiversified": 8506,
      "ĠVIEs": 8507,
      "Entergy": 8508,
      "Ġdepart": 8509,
      "ĠKong": 8510,
      "Ġrevisions": 8511,
      "ANG": 8512,
      "1,35": 8513,
      "Ġconcentrations": 8514,
      "ĠColumbia": 8515,
      "ĠIndia": 8516,
      "Ġseeks": 8517,
      "ĠSTOCKHOLDER": 8518,
      "Ġ11.": 8519,
      "Ġaffects": 8520,
      "ĠDIREC": 8521,
      "ĠOutstanding": 8522,
      "ĠEmployer": 8523,
      "tish": 8524,
      "ĠSpecific": 8525,
      "Ġhyp": 8526,
      "Ġdebentures": 8527,
      "earning": 8528,
      "Ġfailed": 8529,
      "ĠChase": 8530,
      "believe": 8531,
      "ĠLa": 8532,
      "Ġ2027": 8533,
      "1,58": 8534,
      "yses": 8535,
      "Ġprepayments": 8536,
      "ĠCERTAIN": 8537,
      "Ġlock": 8538,
      "Ġ2005,": 8539,
      "Ġresale": 8540,
      "othe": 8541,
      "ĠNom": 8542,
      "ĠImprove": 8543,
      "ĠFCC": 8544,
      "dis": 8545,
      "ickback": 8546,
      "Em": 8547,
      "Ġabsolute": 8548,
      "Properties": 8549,
      "vide": 8550,
      "Ġcausing": 8551,
      "Ġadditions": 8552,
      "ultif": 8553,
      "ĠLand": 8554,
      "Ġstructures": 8555,
      "Ġobsolete": 8556,
      ")%": 8557,
      "olver": 8558,
      "ĠWilliam": 8559,
      "ĠSG": 8560,
      "Ġcomprom": 8561,
      "arbor": 8562,
      "ĠCounsel": 8563,
      "Ġweb": 8564,
      "Ġterminal": 8565,
      "Ġfewer": 8566,
      "Ġrestruct": 8567,
      "330": 8568,
      "Ġestablishment": 8569,
      "Warrants": 8570,
      "Reclass": 8571,
      "Ġsubcontract": 8572,
      "Ġculture": 8573,
      "ĠOEM": 8574,
      "Ġprint": 8575,
      "las": 8576,
      "Ġconcess": 8577,
      "ROs": 8578,
      "Ġ$29": 8579,
      "Ġmisappropri": 8580,
      "Rev": 8581,
      "Ġill": 8582,
      "ĠTDR": 8583,
      "ĠGHG": 8584,
      "Ġemployer": 8585,
      "Ġsurface": 8586,
      "Ġbuilt": 8587,
      "Ġunused": 8588,
      "ĠSTOCKHOLDERS": 8589,
      "visory": 8590,
      "ĠMS": 8591,
      "Ġmine": 8592,
      "1,55": 8593,
      "ĠWestern": 8594,
      "Ġbarrel": 8595,
      "onents": 8596,
      "potential": 8597,
      "Ġlogistics": 8598,
      "establis": 8599,
      "Ġapproving": 8600,
      "ĠEnd": 8601,
      "Ġannuity": 8602,
      "Ġassemb": 8603,
      "Ġexpression": 8604,
      "ĠACTIVITIES": 8605,
      "ĠJV": 8606,
      "angu": 8607,
      "Ġreturned": 8608,
      "HA": 8609,
      "pati": 8610,
      "Derivatives": 8611,
      "ossible": 8612,
      "determ": 8613,
      "ĠHong": 8614,
      "Ġclosure": 8615,
      "urchas": 8616,
      "ĠRuss": 8617,
      "alt": 8618,
      "ĠSchool": 8619,
      "Ġbehavior": 8620,
      "making": 8621,
      "175": 8622,
      "enari": 8623,
      "800": 8624,
      "leans": 8625,
      "justment": 8626,
      "Ġexaminations": 8627,
      "ĠRoad": 8628,
      "ruption": 8629,
      "Ġthereunto": 8630,
      "1,46": 8631,
      "intend": 8632,
      "Registration": 8633,
      "10.9": 8634,
      "ĠSoftware": 8635,
      "Ġdraw": 8636,
      "irable": 8637,
      "ĠNO": 8638,
      "ĠIssuance": 8639,
      "rist": 8640,
      "Ġencounter": 8641,
      "Ġqualification": 8642,
      "Ġalign": 8643,
      "itary": 8644,
      "ĠMess": 8645,
      "Ġpronouncements": 8646,
      "reporting": 8647,
      "Ġdiscussions": 8648,
      "Ġsil": 8649,
      "Ġactually": 8650,
      "fair": 8651,
      "enty": 8652,
      "Ġunen": 8653,
      "ĠCP": 8654,
      "Ġnar": 8655,
      "Ġglobally": 8656,
      "rizona": 8657,
      "Ġbody": 8658,
      "ENE": 8659,
      "Code": 8660,
      "Ġfreight": 8661,
      "Ġrefinancing": 8662,
      "Accelerated": 8663,
      "Ġdefects": 8664,
      "Ġretired": 8665,
      "Ġweeks": 8666,
      "PCAOB": 8667,
      "ĠClean": 8668,
      "Ġimposes": 8669,
      "Ġconclus": 8670,
      "ĠIssued": 8671,
      "secured": 8672,
      "Ġcentral": 8673,
      "Distributions": 8674,
      "Ġ$1.8": 8675,
      "Ġcontemplated": 8676,
      "Ġbears": 8677,
      "Ġbranded": 8678,
      "Ġsuc": 8679,
      "5,2": 8680,
      "Ġdiscover": 8681,
      "Ġentirely": 8682,
      "105": 8683,
      "ĠDeb": 8684,
      "Ġanalyses": 8685,
      "ĠGO": 8686,
      "ĠAfric": 8687,
      "ying": 8688,
      "Ġexped": 8689,
      "Ġreplaced": 8690,
      "ĠBrazil": 8691,
      "CASH": 8692,
      "reases": 8693,
      "zz": 8694,
      "Ġreinvestment": 8695,
      "ectivity": 8696,
      "Ġstatis": 8697,
      "PERT": 8698,
      "ĠTRS": 8699,
      "Ġ$0.9": 8700,
      "Ġasserted": 8701,
      "Ġprocedure": 8702,
      "Ġoutl": 8703,
      "Ġentertain": 8704,
      "ASS": 8705,
      "Ġintroduction": 8706,
      "Ġ$50": 8707,
      "262": 8708,
      "Ġremove": 8709,
      "ĠCircuit": 8710,
      "Ġratably": 8711,
      "eng": 8712,
      "Ġsetting": 8713,
      "Ġdisposed": 8714,
      "Ġenactment": 8715,
      "equi": 8716,
      "med": 8717,
      "Ġ(Â§": 8718,
      "109": 8719,
      "aza": 8720,
      "Ġmacro": 8721,
      "Ġcontractually": 8722,
      "Ġdeclined": 8723,
      "Ġpetition": 8724,
      "ĠCross": 8725,
      "ache": 8726,
      "tiliz": 8727,
      "ĠIsra": 8728,
      "Ġundistributed": 8729,
      "Depos": 8730,
      "combination": 8731,
      "ustomers": 8732,
      "Ġ55": 8733,
      "enth": 8734,
      "ĠTr": 8735,
      "ĠGermany": 8736,
      "Ġresell": 8737,
      "Ġreversal": 8738,
      "Benefit": 8739,
      "ats": 8740,
      "Ġraising": 8741,
      "Coll": 8742,
      "Option": 8743,
      "Ġaw": 8744,
      "Ġ35%": 8745,
      "Ġalleg": 8746,
      "Ġsurren": 8747,
      "Ġskilled": 8748,
      "outh": 8749,
      "1,68": 8750,
      "Ġ12.": 8751,
      "Ġhim": 8752,
      "Ġ$20.": 8753,
      "ĠAuthorized": 8754,
      "draul": 8755,
      "Ġliquidate": 8756,
      "Ġbelief": 8757,
      "Ġaccretion": 8758,
      "Ġdismis": 8759,
      "ĠAOCI": 8760,
      "ĠRegarding": 8761,
      "ĠTreasurer": 8762,
      "OD": 8763,
      "Ġcontracted": 8764,
      "Ġsections": 8765,
      "Ġ1940": 8766,
      "Ġscrutin": 8767,
      "Ġshipment": 8768,
      "140": 8769,
      "OTAL": 8770,
      "Ġinternationally": 8771,
      "oms": 8772,
      "ĠOrleans": 8773,
      "mon": 8774,
      "Ġdimin": 8775,
      "Ġsurround": 8776,
      "110": 8777,
      "Ġ39": 8778,
      "Ġ(#,^)": 8779,
      "omin": 8780,
      "Ġoral": 8781,
      "there": 8782,
      "REPORT": 8783,
      "82": 8784,
      "person": 8785,
      "oung": 8786,
      "Ġ1999": 8787,
      "Ġsituations": 8788,
      "Ġproductivity": 8789,
      "itations": 8790,
      "no": 8791,
      "Ġbodies": 8792,
      "lication": 8793,
      "1,47": 8794,
      "ought": 8795,
      "ĠHedging": 8796,
      "olumn": 8797,
      "Lo": 8798,
      "were": 8799,
      "Ġfire": 8800,
      "ĠMon": 8801,
      "ABLE": 8802,
      "Washington": 8803,
      "ĠRegulations": 8804,
      "ĠCORPOR": 8805,
      "ĠRisks": 8806,
      "ĠEarly": 8807,
      "bridge": 8808,
      "tures": 8809,
      "ĠPol": 8810,
      "103": 8811,
      "ĠCOMPENSATION": 8812,
      "Ġrebates": 8813,
      "exclusive": 8814,
      "regulatory": 8815,
      "acquisition": 8816,
      "Ġspend": 8817,
      "losed": 8818,
      "Ġdefending": 8819,
      "2024": 8820,
      "6,2": 8821,
      "Ġrenewed": 8822,
      "Ġmechanisms": 8823,
      "1,50": 8824,
      "innes": 8825,
      "Cent": 8826,
      "rete": 8827,
      "Ġitself": 8828,
      "Ġbroader": 8829,
      "ĠTrade": 8830,
      "expect": 8831,
      "Ġcharacterized": 8832,
      "Ġcontribut": 8833,
      "innesota": 8834,
      "Ġ$2.5": 8835,
      "Ġblank": 8836,
      "stage": 8837,
      "1,45": 8838,
      "Ġmatching": 8839,
      "ĠVi": 8840,
      "GP": 8841,
      "ĠManufacturing": 8842,
      "Ġcollections": 8843,
      "Ġ$1.9": 8844,
      "inf": 8845,
      "Ġpetroleum": 8846,
      "Ġtransp": 8847,
      "astern": 8848,
      "abl": 8849,
      "commerce": 8850,
      "atent": 8851,
      "atest": 8852,
      "Ġliving": 8853,
      "ĠPPP": 8854,
      "Ġfunda": 8855,
      "MI": 8856,
      "Ob": 8857,
      "Ġfraudulent": 8858,
      "BB": 8859,
      "cology": 8860,
      "arious": 8861,
      "112": 8862,
      "Ġforfeiture": 8863,
      "Ġremedies": 8864,
      "Ġinterf": 8865,
      "ĠMine": 8866,
      "Ġsought": 8867,
      "1,78": 8868,
      "ĠSupreme": 8869,
      "Ġ]": 8870,
      "Ġ1,5": 8871,
      "Ġexperiences": 8872,
      "Ġtumor": 8873,
      "ĠSil": 8874,
      "otes": 8875,
      "Ġstations": 8876,
      "Ġsucceed": 8877,
      "2011": 8878,
      "Ġholdings": 8879,
      "Ġreputational": 8880,
      "rective": 8881,
      "Quarter": 8882,
      "Rate": 8883,
      "201": 8884,
      "Ġspeed": 8885,
      "Ġrepairs": 8886,
      "Ġdescrib": 8887,
      "Ġforfeited": 8888,
      "114": 8889,
      "BER": 8890,
      "visor": 8891,
      "Ġshortages": 8892,
      "Ġcorporations": 8893,
      "ultifamily": 8894,
      "ontinued": 8895,
      "cil": 8896,
      "ĠRepurchase": 8897,
      "Ġuncollectible": 8898,
      "ĠStrategy": 8899,
      "Work": 8900,
      "imarily": 8901,
      "111": 8902,
      "Ġsectors": 8903,
      "ĠInstitute": 8904,
      "ĠSelect": 8905,
      "CPA": 8906,
      "ĠAmong": 8907,
      "Ġattributed": 8908,
      "121": 8909,
      "Selected": 8910,
      "ĠEXECUTIVE": 8911,
      "Ġenhancements": 8912,
      "100,": 8913,
      "TA": 8914,
      "127": 8915,
      "Ġmedi": 8916,
      "Ġsug": 8917,
      "Ġaccelerate": 8918,
      "site": 8919,
      "pts": 8920,
      "Ref": 8921,
      "reage": 8922,
      "Ġprime": 8923,
      "kl": 8924,
      "audited": 8925,
      "Ġsubstance": 8926,
      "Ġspecifications": 8927,
      "ĠMer": 8928,
      "Ġdiscourage": 8929,
      "ĠEntities": 8930,
      "information": 8931,
      "lable": 8932,
      "development": 8933,
      "Inventory": 8934,
      "udent": 8935,
      "Ġfunctionality": 8936,
      "fficer": 8937,
      "ĠCOMMON": 8938,
      "Ġincorpor": 8939,
      "Ġscenari": 8940,
      "Ġpercentages": 8941,
      "Ġ70": 8942,
      "SCH": 8943,
      "Ġdiversity": 8944,
      "Ġpermitting": 8945,
      "rigin": 8946,
      "ĠEr": 8947,
      "ĠSTATES": 8948,
      "bi": 8949,
      "Ġroles": 8950,
      "label": 8951,
      "liant": 8952,
      "International": 8953,
      "Ġ.": 8954,
      "Ġunfunded": 8955,
      "ĠMichael": 8956,
      "equity": 8957,
      "Ġpreference": 8958,
      "DITION": 8959,
      "Ġrecording": 8960,
      "Ġbiological": 8961,
      "Ġentertainment": 8962,
      "999": 8963,
      "ROM": 8964,
      "Ġdedicated": 8965,
      "FER": 8966,
      "Ġunderstand": 8967,
      "draulic": 8968,
      "Ġunpredict": 8969,
      "Ġpol": 8970,
      "Paid": 8971,
      "Carrying": 8972,
      "ĠNotice": 8973,
      "amples": 8974,
      "www": 8975,
      "ITH": 8976,
      "GMP": 8977,
      "Ġcarryforward": 8978,
      "Ġ6%": 8979,
      "funded": 8980,
      "ĠCommunity": 8981,
      "ĠLTIP": 8982,
      "AA": 8983,
      "Insurance": 8984,
      "ĠGains": 8985,
      "argin": 8986,
      "ediatric": 8987,
      "ĠCharter": 8988,
      "Ġcancellation": 8989,
      "ĠDavid": 8990,
      "Ġassured": 8991,
      "Ġur": 8992,
      "Ġtoward": 8993,
      "Ġnoncurrent": 8994,
      "ĠCy": 8995,
      "EDUL": 8996,
      "Ġfracturing": 8997,
      "ĠAuthority": 8998,
      "ĠUN": 8999,
      "rights": 9000,
      "ĠInterests": 9001,
      "ara": 9002,
      "ĠExcept": 9003,
      "Ġunrest": 9004,
      "Ġconsolidate": 9005,
      "utsche": 9006,
      "ĠSyn": 9007,
      "ĠGD": 9008,
      "Appro": 9009,
      "ĠSHARE": 9010,
      "Ġdeclare": 9011,
      "Ġtoxic": 9012,
      "Ġoccurring": 9013,
      "Ġproducers": 9014,
      "Ġdepreciated": 9015,
      "Ġtranslated": 9016,
      "Ġsurrounding": 9017,
      "Ġindu": 9018,
      "1,49": 9019,
      "flows": 9020,
      "igan": 9021,
      "Ġ80": 9022,
      "mington": 9023,
      "After": 9024,
      "Ġevol": 9025,
      "Ġmilitary": 9026,
      "aign": 9027,
      "condition": 9028,
      "Ġ$5.0": 9029,
      "Ġcom": 9030,
      "YS": 9031,
      "Ġlaunched": 9032,
      "grade": 9033,
      "asured": 9034,
      "Period": 9035,
      "Quantitative": 9036,
      "ĠFlo": 9037,
      "Ġrepresentative": 9038,
      "IM": 9039,
      "ĠPlatform": 9040,
      "Ġ$22": 9041,
      "Ġfinanced": 9042,
      "Health": 9043,
      "ĠSupport": 9044,
      "2025": 9045,
      "Ġconvenience": 9046,
      "Ġcol": 9047,
      "ĠStar": 9048,
      "redecessor": 9049,
      "106": 9050,
      "stantially": 9051,
      "fund": 9052,
      "ĠAnn": 9053,
      "ĠProcess": 9054,
      "ĠSur": 9055,
      "ĠIndiana": 9056,
      "Ġterrorism": 9057,
      "Ġimpacting": 9058,
      "Ġpayables": 9059,
      "oriz": 9060,
      "605": 9061,
      "Ġallegations": 9062,
[...]
