{
  "version": "1.0",
  "truncation": null,
  "padding": null,
  "added_tokens": [
    {
      "id": 0,
      "content": "<|endoftext|>",
      "single_word": false,
      "lstrip": false,
      "rstrip": false,
      "normalized": false,
      "special": true
    }
  ],
  "normalizer": null,
  "pre_tokenizer": {
    "type": "Sequence",
    "pretokenizers": [
      {
        "type": "Split",
        "pattern": {
          "Regex": "[^\\n]{1,256}|\\n+"
        },
        "behavior": "Isolated",
        "invert": false
      },
      {
        "type": "ByteLevel",
        "add_prefix_space": false,
        "trim_offsets": true,
        "use_regex": false
      }
    ]
  },
  "post_processor": null,
  "decoder": {
    "type": "ByteLevel",
    "add_prefix_space": true,
    "trim_offsets": true,
    "use_regex": true
  },
  "model": {
    "type": "BPE",
    "dropout": null,
    "unk_token": null,
    "continuing_subword_prefix": null,
    "end_of_word_suffix": null,
    "fuse_unk": false,
    "byte_fallback": false,
    "ignore_merges": false,
    "vocab": {
      "<|endoftext|>": 0,
      "!": 1,
      "\"": 2,
      "#": 3,
      "$": 4,
      "%": 5,
      "&": 6,
      "'": 7,
      "(": 8,
      ")": 9,
      "*": 10,
      "+": 11,
      ",": 12,
      "-": 13,
      ".": 14,
      "/": 15,
      "0": 16,
      "1": 17,
      "2": 18,
      "3": 19,
      "4": 20,
      "5": 21,
      "6": 22,
      "7": 23,
      "8": 24,
      "9": 25,
      ":": 26,
      ";": 27,
      "<": 28,
      "=": 29,
      ">": 30,
      "?": 31,
      "@": 32,
      "A": 33,
      "B": 34,
      "C": 35,
      "D": 36,
      "E": 37,
      "F": 38,
      "G": 39,
      "H": 40,
      "I": 41,
      "J": 42,
      "K": 43,
      "L": 44,
      "M": 45,
      "N": 46,
      "O": 47,
      "P": 48,
      "Q": 49,
      "R": 50,
      "S": 51,
      "T": 52,
      "U": 53,
      "V": 54,
      "W": 55,
      "X": 56,
      "Y": 57,
      "Z": 58,
      "[": 59,
      "\\": 60,
      "]": 61,
      "^": 62,
      "_": 63,
      "`": 64,
      "a": 65,
      "b": 66,
      "c": 67,
      "d": 68,
      "e": 69,
      "f": 70,
      "g": 71,
      "h": 72,
      "i": 73,
      "j": 74,
      "k": 75,
      "l": 76,
      "m": 77,
      "n": 78,
      "o": 79,
      "p": 80,
      "q": 81,
      "r": 82,
      "s": 83,
      "t": 84,
      "u": 85,
      "v": 86,
      "w": 87,
      "x": 88,
      "y": 89,
      "z": 90,
      "{": 91,
      "|": 92,
      "}": 93,
      "~": 94,
      "¡": 95,
      "¢": 96,
      "£": 97,
      "¤": 98,
      "¥": 99,
      "¦": 100,
      "§": 101,
      "¨": 102,
      "©": 103,
      "ª": 104,
      "«": 105,
      "¬": 106,
      "®": 107,
      "¯": 108,
      "°": 109,
      "±": 110,
      "²": 111,
      "³": 112,
      "´": 113,
      "µ": 114,
      "¶": 115,
      "·": 116,
      "¸": 117,
      "¹": 118,
      "º": 119,
      "»": 120,
      "¼": 121,
      "½": 122,
      "¾": 123,
      "¿": 124,
      "À": 125,
      "Á": 126,
      "Â": 127,
      "Ã": 128,
      "Ä": 129,
      "Å": 130,
      "Æ": 131,
      "Ç": 132,
      "È": 133,
      "É": 134,
      "Ê": 135,
      "Ë": 136,
      "Ì": 137,
      "Í": 138,
      "Î": 139,
      "Ï": 140,
      "Ð": 141,
      "Ñ": 142,
      "Ò": 143,
      "Ó": 144,
      "Ô": 145,
      "Õ": 146,
      "Ö": 147,
      "×": 148,
      "Ø": 149,
      "Ù": 150,
      "Ú": 151,
      "Û": 152,
      "Ü": 153,
      "Ý": 154,
      "Þ": 155,
      "ß": 156,
      "à": 157,
      "á": 158,
      "â": 159,
      "ã": 160,
      "ä": 161,
      "å": 162,
      "æ": 163,
      "ç": 164,
      "è": 165,
      "é": 166,
      "ê": 167,
      "ë": 168,
      "ì": 169,
      "í": 170,
      "î": 171,
      "ï": 172,
      "ð": 173,
      "ñ": 174,
      "ò": 175,
      "ó": 176,
      "ô": 177,
      "õ": 178,
      "ö": 179,
      "÷": 180,
      "ø": 181,
      "ù": 182,
      "ú": 183,
      "û": 184,
      "ü": 185,
      "ý": 186,
      "þ": 187,
      "ÿ": 188,
      "Ā": 189,
      "ā": 190,
      "Ă": 191,
      "ă": 192,
      "Ą": 193,
      "ą": 194,
      "Ć": 195,
      "ć": 196,
      "Ĉ": 197,
      "ĉ": 198,
      "Ċ": 199,
      "ċ": 200,
      "Č": 201,
      "č": 202,
      "Ď": 203,
      "ď": 204,
      "Đ": 205,
      "đ": 206,
      "Ē": 207,
      "ē": 208,
      "Ĕ": 209,
      "ĕ": 210,
      "Ė": 211,
      "ė": 212,
      "Ę": 213,
      "ę": 214,
      "Ě": 215,
      "ě": 216,
      "Ĝ": 217,
      "ĝ": 218,
      "Ğ": 219,
      "ğ": 220,
      "Ġ": 221,
      "ġ": 222,
      "Ģ": 223,
      "ģ": 224,
      "Ĥ": 225,
      "ĥ": 226,
      "Ħ": 227,
      "ħ": 228,
      "Ĩ": 229,
      "ĩ": 230,
      "Ī": 231,
      "ī": 232,
      "Ĭ": 233,
      "ĭ": 234,
      "Į": 235,
      "į": 236,
      "İ": 237,
      "ı": 238,
      "Ĳ": 239,
      "ĳ": 240,
      "Ĵ": 241,
      "ĵ": 242,
      "Ķ": 243,
      "ķ": 244,
      "ĸ": 245,
      "Ĺ": 246,
      "ĺ": 247,
      "Ļ": 248,
      "ļ": 249,
      "Ľ": 250,
      "ľ": 251,
      "Ŀ": 252,
      "ŀ": 253,
      "Ł": 254,
      "ł": 255,
      "Ń": 256,
      "eĠ": 257,
      "sĠ": 258,
      "in": 259,
      "an": 260,
      "dĠ": 261,
      "er": 262,
      "th": 263,
      "on": 264,
      "re": 265,
      "at": 266,
      "en": 267,
      "or": 268,
      "tĠ": 269,
      ",Ġ": 270,
      "al": 271,
      "yĠ": 272,
      "theĠ": 273,
      "ti": 274,
      "of": 275,
      "edĠ": 276,
      "ĊĊ": 277,
      "ar": 278,
      "ofĠ": 279,
      "to": 280,
      "andĠ": 281,
      "ur": 282,
      "ing": 283,
      "onĠ": 284,
      "es": 285,
      "om": 286,
      "toĠ": 287,
      "ingĠ": 288,
      "ic": 289,
      "ec": 290,
      "esĠ": 291,
      "erĠ": 292,
      "alĠ": 293,
      "orĠ": 294,
      ".Ġ": 295,
      "as": 296,
      "inĠ": 297,
      "ati": 298,
      "men": 299,
      "li": 300,
      "ro": 301,
      "tsĠ": 302,
      "is": 303,
      "ac": 304,
      "20": 305,
      "su": 306,
      "un": 307,
      "il": 308,
      "lo": 309,
      "urĠ": 310,
      "aĠ": 311,
      "com": 312,
      "st": 313,
      "it": 314,
      "pro": 315,
      "ourĠ": 316,
      "hĠ": 317,
      "asĠ": 318,
      "ab": 319,
      "anc": 320,
      "co": 321,
      "de": 322,
      "con": 323,
      "âĢ": 324,
      "us": 325,
      "di": 326,
      "el": 327,
      "per": 328,
      "ter": 329,
      "ex": 330,
      "veĠ": 331,
      "ul": 332,
      "qu": 333,
      "forĠ": 334,
      "si": 335,
      "em": 336,
      "atĠ": 337,
      "201": 338,
      "tr": 339,
      "s,Ġ": 340,
      "ation": 341,
      "mentĠ": 342,
      "ationĠ": 343,
      "tion": 344,
      "isĠ": 345,
      "inc": 346,
      "atedĠ": 347,
      "ag": 348,
      "ol": 349,
      "Th": 350,
      "thĠ": 351,
      "ofĠtheĠ": 352,
      "anĠ": 353,
      "areĠ": 354,
      "pan": 355,
      "ta": 356,
      "se": 357,
      "ir": 358,
      "Com": 359,
      "du": 360,
      "no": 361,
      "ha": 362,
      "ad": 363,
      "wi": 364,
      "lĠ": 365,
      "tionĠ": 366,
      "leĠ": 367,
      "In": 368,
      "le": 369,
      "lyĠ": 370,
      "ateĠ": 371,
      "ap": 372,
      "pr": 373,
      "im": 374,
      "por": 375,
      "ma": 376,
      "ed": 377,
      "ver": 378,
      "ch": 379,
      "TheĠ": 380,
      "thatĠ": 381,
      "ff": 382,
      "00": 383,
      "ment": 384,
      "byĠ": 385,
      "withĠ": 386,
      "ialĠ": 387,
      "tedĠ": 388,
      "wh": 389,
      "berĠ": 390,
      "am": 391,
      "kĠ": 392,
      "rec": 393,
      "res": 394,
      ")Ġ": 395,
      "for": 396,
      "Compan": 397,
      "pen": 398,
      "ili": 399,
      "therĠ": 400,
      "ableĠ": 401,
      "beĠ": 402,
      "vi": 403,
      "ud": 404,
      "tyĠ": 405,
      "etĠ": 406,
      "ear": 407,
      "weĠ": 408,
      "fin": 409,
      "duc": 410,
      "fr": 411,
      "mentsĠ": 412,
      ",Ġ201": 413,
      "Ġm": 414,
      "sĠandĠ": 415,
      "eĠofĠ": 416,
      "ut": 417,
      "s.Ġ": 418,
      "pa": 419,
      "po": 420,
      "tingĠ": 421,
      "inĠtheĠ": 422,
      "redĠ": 423,
      "ĠandĠ": 424,
      "emberĠ": 425,
      "ate": 426,
      "so": 427,
      "31": 428,
      "val": 429,
      "anceĠ": 430,
      "ig": 431,
      "omĠ": 432,
      "tiesĠ": 433,
      "ven": 434,
      "âĢĻ": 435,
      "toc": 436,
      "pl": 437,
      "mayĠ": 438,
      "be": 439,
      "fromĠ": 440,
      "if": 441,
      "qui": 442,
      "ang": 443,
      "notĠ": 444,
      "es,Ġ": 445,
      "lud": 446,
      "ancialĠ": 447,
      "est": 448,
      "und": 449,
      "sĠofĠ": 450,
      "and": 451,
      "low": 452,
      "sh": 453,
      "oper": 454,
      "illi": 455,
      "par": 456,
      "toĠtheĠ": 457,
      "entĠ": 458,
      "pec": 459,
      "10": 460,
      "chĠ": 461,
      "valu": 462,
      "whic": 463,
      "Dec": 464,
      "reg": 465,
      "mĠ": 466,
      "1,": 467,
      "dedĠ": 468,
      "abili": 469,
      "whichĠ": 470,
      "ib": 471,
      "includ": 472,
      "otherĠ": 473,
      "DecemberĠ": 474,
      "reas": 475,
      "ityĠ": 476,
      "essĠ": 477,
      "inter": 478,
      "dis": 479,
      "comm": 480,
      "âĢĻsĠ": 481,
      "Ġmilli": 482,
      "erv": 483,
      "mar": 484,
      "itsĠ": 485,
      "tim": 486,
      "der": 487,
      "year": 488,
      "iz": 489,
      "sub": 490,
      "stoc": 491,
      "y,Ġ": 492,
      "str": 493,
      ".ĠTheĠ": 494,
      "usin": 495,
      "ip": 496,
      "CompanyĠ": 497,
      "haveĠ": 498,
      "uldĠ": 499,
      "coun": 500,
      "tiveĠ": 501,
      "sul": 502,
      "produc": 503,
      "ectĠ": 504,
      "antĠ": 505,
      "ren": 506,
      "form": 507,
      "ve": 508,
      "tor": 509,
      "enĠ": 510,
      "itĠ": 511,
      "financialĠ": 512,
      "fer": 513,
      "los": 514,
      "DecemberĠ31": 515,
      "Re": 516,
      "enc": 517,
      "comp": 518,
      "ureĠ": 519,
      "io": 520,
      "hare": 521,
      "bas": 522,
      "pens": 523,
      "asse": 524,
      "dition": 525,
      "wil": 526,
      "cont": 527,
      "resul": 528,
      "aryĠ": 529,
      "anyĠ": 530,
      "tax": 531,
      "irĠ": 532,
      ",ĠtheĠ": 533,
      "busin": 534,
      "WeĠ": 535,
      "elyĠ": 536,
      "tic": 537,
      "rel": 538,
      "estĠ": 539,
      "nĠ": 540,
      "202": 541,
      "min": 542,
      "Ac": 543,
      "willĠ": 544,
      "icĠ": 545,
      "atingĠ": 546,
      "2,": 547,
      "ementĠ": 548,
      "s.": 549,
      "gn": 550,
      "tainĠ": 551,
      "ot": 552,
      "oĠ": 553,
      "cas": 554,
      "inv": 555,
      "up": 556,
      "ne": 557,
      "chang": 558,
      "ationsĠ": 559,
      "ereĠ": 560,
      "the": 561,
      "serv": 562,
      "share": 563,
      "âĢĿ": 564,
      "allyĠ": 565,
      "âĢľ": 566,
      "um": 567,
      "iv": 568,
      "tĠofĠ": 569,
      "ent": 570,
      "tionsĠ": 571,
      "mark": 572,
      "Ex": 573,
      "usĠ": 574,
      "op": 575,
      "man": 576,
      ",ĠandĠ": 577,
      "ce": 578,
      "ĠmillionĠ": 579,
      "sec": 580,
      "eseĠ": 581,
      "suchĠ": 582,
      "esĠandĠ": 583,
      "pur": 584,
      "la": 585,
      "fac": 586,
      "fa": 587,
      "enti": 588,
      "forĠtheĠ": 589,
      "oun": 590,
      "cer": 591,
      "igh": 592,
      "ingĠtheĠ": 593,
      "eff": 594,
      "ug": 595,
      "ess": 596,
      "appro": 597,
      "ow": 598,
      "me": 599,
      "requi": 600,
      "pre": 601,
      "hol": 602,
      "seĠ": 603,
      "3,": 604,
      "ef": 605,
      "urren": 606,
      "incom": 607,
      "000": 608,
      "gr": 609,
      "InĠ": 610,
      "wasĠ": 611,
      "isi": 612,
      "ageĠ": 613,
      "Ġ(": 614,
      "underĠ": 615,
      "ans": 616,
      "St": 617,
      "ard": 618,
      "couldĠ": 619,
      "ob": 620,
      "e,Ġ": 621,
      "ener": 622,
      "Company": 623,
      "mat": 624,
      "onĠtheĠ": 625,
      "servic": 626,
      "iesĠ": 627,
      "repor": 628,
      "et": 629,
      "cus": 630,
      "eĠtoĠ": 631,
      "cashĠ": 632,
      "datedĠ": 633,
      "tho": 634,
      "5,": 635,
      "abilityĠ": 636,
      "wĠ": 637,
      "vid": 638,
      "%Ġ": 639,
      "tu": 640,
      "compan": 641,
      "sal": 642,
      "4,": 643,
      "stockĠ": 644,
      "atesĠ": 645,
      "increas": 646,
      "mer": 647,
      "uri": 648,
      "aseĠ": 649,
      "pay": 650,
      "perio": 651,
      "DecemberĠ31,Ġ201": 652,
      "cos": 653,
      "allĠ": 654,
      "ofĠourĠ": 655,
      "taxĠ": 656,
      "state": 657,
      "fo": 658,
      "orpor": 659,
      "acc": 660,
      "Con": 661,
      "pric": 662,
      "arr": 663,
      "id": 664,
      ".ĠA": 665,
      "cap": 666,
      "0.": 667,
      "invest": 668,
      "ther": 669,
      "19": 670,
      "amoun": 671,
      "venu": 672,
      "$Ġ": 673,
      "issu": 674,
      "netĠ": 675,
      "ov": 676,
      "expens": 677,
      "ement": 678,
      "endedĠ": 679,
      "lin": 680,
      "commonĠ": 681,
      "fic": 682,
      "tsĠandĠ": 683,
      "int": 684,
      "regul": 685,
      "curren": 686,
      "ant": 687,
      "hasĠ": 688,
      "theseĠ": 689,
      "relatedĠ": 690,
      "basedĠ": 691,
      "Un": 692,
      "addition": 693,
      "1Ġ": 694,
      "ong": 695,
      "1.": 696,
      "6,": 697,
      "velo": 698,
      "30": 699,
      "ub": 700,
      "vel": 701,
      "incomeĠ": 702,
      "ner": 703,
      "velop": 704,
      "ditĠ": 705,
      "15": 706,
      "istr": 707,
      "arg": 708,
      "interestĠ": 709,
      "fil": 710,
      "ties": 711,
      "trac": 712,
      "7,": 713,
      "Inc": 714,
      "gre": 715,
      "aff": 716,
      "izedĠ": 717,
      "accoun": 718,
      "ific": 719,
      "tw": 720,
      "yearĠ": 721,
      "terĠ": 722,
      "soli": 723,
      "tsĠofĠ": 724,
      "certainĠ": 725,
      "pres": 726,
      "AĠ": 727,
      "gener": 728,
      "fut": 729,
      "withĠtheĠ": 730,
      "edĠtoĠ": 731,
      "thisĠ": 732,
      "cre": 733,
      "12": 734,
      "trans": 735,
      "stand": 736,
      "pos": 737,
      "businessĠ": 738,
      "develop": 739,
      "sign": 740,
      "8,": 741,
      "ord": 742,
      "ins": 743,
      "icalĠ": 744,
      ",Ġ202": 745,
      "wereĠ": 746,
      "edĠbyĠ": 747,
      "custo": 748,
      "ativeĠ": 749,
      "agre": 750,
      "ris": 751,
      "mit": 752,
      "reco": 753,
      "Sec": 754,
      "ardĠ": 755,
      "edĠinĠ": 756,
      "âĢĶ": 757,
      "OurĠ": 758,
      "3Ġ": 759,
      "includingĠ": 760,
      "direc": 761,
      "ure": 762,
      "termin": 763,
      ",ĠweĠ": 764,
      "revenu": 765,
      "fe": 766,
      "dec": 767,
      "2Ġ": 768,
      "manag": 769,
      "au": 770,
      "go": 771,
      "fi": 772,
      "contro": 773,
      "utĠ": 774,
      "sionĠ": 775,
      "3.": 776,
      "soĠ": 777,
      "italĠ": 778,
      "ationĠofĠ": 779,
      "solidatedĠ": 780,
      "emĠ": 781,
      "erc": 782,
      "CĠ": 783,
      "trib": 784,
      "4.": 785,
      "eĠtheĠ": 786,
      "plo": 787,
      "jectĠ": 788,
      "sum": 789,
      "out": 790,
      "imp": 791,
      "respec": 792,
      "eĠinĠ": 793,
      "holder": 794,
      "ferredĠ": 795,
      "uritiesĠ": 796,
      "ass": 797,
      "ifĠ": 798,
      "irĠvalu": 799,
      "stock": 800,
      "mor": 801,
      "ollow": 802,
      "estim": 803,
      "operation": 804,
      "For": 805,
      "operatingĠ": 806,
      "tur": 807,
      "lig": 808,
      "ploy": 809,
      "ru": 810,
      "CompanyâĢĻsĠ": 811,
      "achĠ": 812,
      "purch": 813,
      "mater": 814,
      "Ch": 815,
      "oryĠ": 816,
      "ship": 817,
      "follow": 818,
      "rece": 819,
      "2.": 820,
      "tain": 821,
      "eĠandĠ": 822,
      "enef": 823,
      "pend": 824,
      "all": 825,
      "ughĠ": 826,
      "fairĠvalu": 827,
      "marketĠ": 828,
      "5Ġ": 829,
      "9,": 830,
      "ffic": 831,
      "es.Ġ": 832,
      "alsoĠ": 833,
      "futureĠ": 834,
      "tec": 835,
      "fĠ": 836,
      "Pro": 837,
      "require": 838,
      "Fin": 839,
      "Not": 840,
      "non": 841,
      "adver": 842,
      "overĠ": 843,
      "theirĠ": 844,
      "liabili": 845,
      "effec": 846,
      "subjectĠ": 847,
      "provid": 848,
      "signific": 849,
      "ll": 850,
      "gyĠ": 851,
      "iorĠ": 852,
      "inu": 853,
      "mo": 854,
      "ail": 855,
      "esĠinĠ": 856,
      "Agre": 857,
      "contrac": 858,
      "av": 859,
      "inform": 860,
      "row": 861,
      "50": 862,
      "ial": 863,
      "SĠ": 864,
      "port": 865,
      "cr": 866,
      "uc": 867,
      "atelyĠ": 868,
      "las": 869,
      "loss": 870,
      "deb": 871,
      "sĠtoĠ": 872,
      "ty": 873,
      "ableĠtoĠ": 874,
      "asĠaĠ": 875,
      "Mar": 876,
      "4Ġ": 877,
      "equ": 878,
      "ell": 879,
      "iti": 880,
      "esĠofĠ": 881,
      "plic": 882,
      "expec": 883,
      "Se": 884,
      "continu": 885,
      "10.": 886,
      "end": 887,
      "dic": 888,
      "ustĠ": 889,
      "perĠ": 890,
      "ouldĠ": 891,
      "calĠ": 892,
      "U.": 893,
      "posi": 894,
      "asĠofĠ": 895,
      "thro": 896,
      "rateĠ": 897,
      "FormĠ": 898,
      "benef": 899,
      "Lo": 900,
      "nu": 901,
      "tionĠofĠ": 902,
      "xim": 903,
      "IT": 904,
      "assetsĠ": 905,
      "thanĠ": 906,
      "200": 907,
      "acti": 908,
      "Stoc": 909,
      "recogn": 910,
      "mayĠbeĠ": 911,
      "De": 912,
      "ts,Ġ": 913,
      "U.S": 914,
      "proper": 915,
      "eĠofĠtheĠ": 916,
      "changeĠ": 917,
      "ing,Ġ": 918,
      "spec": 919,
      "employ": 920,
      "ubl": 921,
      "dur": 922,
      "âĢĿĠ": 923,
      "acqu": 924,
      ".ĠWeĠ": 925,
      "applic": 926,
      "AN": 927,
      "underĠtheĠ": 928,
      "16": 929,
      ".ĠTh": 930,
      "ellĠ": 931,
      "ecu": 932,
      "perform": 933,
      "requiredĠ": 934,
      "productĠ": 935,
      "arĠ": 936,
      "8Ġ": 937,
      "2020": 938,
      "40": 939,
      "fl": 940,
      "ci": 941,
      "Ġmillion": 942,
      "financialĠstate": 943,
      "determin": 944,
      "yingĠ": 945,
      "ilyĠ": 946,
      "sĠorĠ": 947,
      "od": 948,
      "eachĠ": 949,
      "additionalĠ": 950,
      "des": 951,
      "idĠ": 952,
      "aw": 953,
      "ilĠ": 954,
      "capitalĠ": 955,
      "(1": 956,
      "ful": 957,
      "throughĠ": 958,
      "loan": 959,
      "FinancialĠ": 960,
      "dem": 961,
      "ust": 962,
      "impac": 963,
      "7Ġ": 964,
      ",000": 965,
      "period": 966,
      "customer": 967,
      "main": 968,
      "ingsĠ": 969,
      "able": 970,
      "âĢĶĠ": 971,
      "andĠtheĠ": 972,
      "hib": 973,
      "eralĠ": 974,
      "busines": 975,
      "ts": 976,
      ".ĠInĠ": 977,
      "5.": 978,
      "torsĠ": 979,
      "portĠ": 980,
      "our": 981,
      "with": 982,
      "pon": 983,
      "prim": 984,
      "U.S.Ġ": 985,
      "subjectĠtoĠ": 986,
      "law": 987,
      "DĠ": 988,
      "__": 989,
      ",ĠorĠ": 990,
      "6Ġ": 991,
      "RE": 992,
      "sup": 993,
      "te": 994,
      "sharesĠ": 995,
      "periodĠ": 996,
      "noĠ": 997,
      "informationĠ": 998,
      "cc": 999,
      "onĠourĠ": 1000,
      "significantĠ": 1001,
      "derĠ": 1002,
      "It": 1003,
      "consolidatedĠ": 1004,
      "mentĠofĠ": 1005,
      "'sĠ": 1006,
      "intoĠ": 1007,
      "bo": 1008,
      "beenĠ": 1009,
      "commonĠstockĠ": 1010,
      "bin": 1011,
      "newĠ": 1012,
      "termĠ": 1013,
      "Pl": 1014,
      "fromĠtheĠ": 1015,
      "dat": 1016,
      "13": 1017,
      "proce": 1018,
      "kingĠ": 1019,
      "oblig": 1020,
      "itedĠ": 1021,
      "byĠtheĠ": 1022,
      "useĠ": 1023,
      "approxim": 1024,
      "IN": 1025,
      ",ĠasĠ": 1026,
      "currentĠ": 1027,
      "avail": 1028,
      "he": 1029,
      "iscalĠ": 1030,
      "AS": 1031,
      "atoryĠ": 1032,
      "abilityĠtoĠ": 1033,
      "tĠtoĠ": 1034,
      "ferenc": 1035,
      "non-": 1036,
      "creditĠ": 1037,
      "receiv": 1038,
      "verageĠ": 1039,
      "entsĠ": 1040,
      "mon": 1041,
      "nec": 1042,
      ",ĠwhichĠ": 1043,
      "transac": 1044,
      "ItemĠ": 1045,
      "dateĠ": 1046,
      "wouldĠ": 1047,
      "do": 1048,
      ";Ġ": 1049,
      "sol": 1050,
      "ecutiveĠ": 1051,
      "Reg": 1052,
      "costsĠ": 1053,
      "tribu": 1054,
      "ayĠ": 1055,
      "tech": 1056,
      "14": 1057,
      "Ad": 1058,
      "var": 1059,
      "uranceĠ": 1060,
      "-K": 1061,
      "18": 1062,
      "offic": 1063,
      "9Ġ": 1064,
      "af": 1065,
      "EĠ": 1066,
      "Inter": 1067,
      "s.ĠTheĠ": 1068,
      "Tr": 1069,
      "loc": 1070,
      "iseĠ": 1071,
      "yearĠendedĠ": 1072,
      "condition": 1073,
      "nalĠ": 1074,
      "nualĠ": 1075,
      "stĠ": 1076,
      "righ": 1077,
      "leas": 1078,
      "CO": 1079,
      "toĠbeĠ": 1080,
      "flow": 1081,
      "Di": 1082,
      "Tot": 1083,
      "nolo": 1084,
      "acquisi": 1085,
      "dr": 1086,
      "anti": 1087,
      "Par": 1088,
      "Pr": 1089,
      "num": 1090,
      "tualĠ": 1091,
      "17": 1092,
      "willĠbeĠ": 1093,
      "reduc": 1094,
      "reportingĠ": 1095,
      "depend": 1096,
      "tot": 1097,
      "es.": 1098,
      "wor": 1099,
      "mis": 1100,
      "even": 1101,
      "managementĠ": 1102,
      "arilyĠ": 1103,
      "outstand": 1104,
      "ublicĠ": 1105,
      "filedĠ": 1106,
      "yst": 1107,
      "term": 1108,
      "pt": 1109,
      "equi": 1110,
      "requ": 1111,
      "State": 1112,
      "t,Ġ": 1113,
      "coll": 1114,
      "we": 1115,
      "clos": 1116,
      "ersĠ": 1117,
      "25": 1118,
      "keĠ": 1119,
      "moreĠ": 1120,
      "recor": 1121,
      "En": 1122,
      "yearsĠ": 1123,
      "An": 1124,
      "limit": 1125,
      "approximatelyĠ": 1126,
      "can": 1127,
      "pensationĠ": 1128,
      "just": 1129,
      "soci": 1130,
      "employe": 1131,
      "ay": 1132,
      "vern": 1133,
      "TotalĠ": 1134,
      "AT": 1135,
      "bleĠ": 1136,
      "facili": 1137,
      "restr": 1138,
      "consi": 1139,
      "vol": 1140,
      "endĠ": 1141,
      "anu": 1142,
      "fiscalĠ": 1143,
      "shareĠ": 1144,
      "fund": 1145,
      "visi": 1146,
      "investmentĠ": 1147,
      "SE": 1148,
      "activi": 1149,
      "materialĠ": 1150,
      "princ": 1151,
      "oneĠ": 1152,
      "productsĠ": 1153,
      "LL": 1154,
      "ongĠ": 1155,
      "s,ĠandĠ": 1156,
      "tivel": 1157,
      "followingĠ": 1158,
      "sion": 1159,
      "IfĠ": 1160,
      "risk": 1161,
      "gram": 1162,
      "6.": 1163,
      "ext": 1164,
      "approv": 1165,
      "referenc": 1166,
      "(2": 1167,
      "thir": 1168,
      "Ban": 1169,
      "NetĠ": 1170,
      ",ĠtheĠCompanyĠ": 1171,
      "ain": 1172,
      "ingĠandĠ": 1173,
      "entialĠ": 1174,
      "quar": 1175,
      "ph": 1176,
      "esĠtoĠ": 1177,
      "ign": 1178,
      "60": 1179,
      "ted": 1180,
      "e-": 1181,
      "tner": 1182,
      "e.": 1183,
      "initi": 1184,
      "Pre": 1185,
      "Offic": 1186,
      "Res": 1187,
      "atĠtheĠ": 1188,
      "ation,Ġ": 1189,
      "tiz": 1190,
      "securitiesĠ": 1191,
      "own": 1192,
      "controlĠ": 1193,
      "sid": 1194,
      "ederalĠ": 1195,
      "28": 1196,
      "thor": 1197,
      "primarilyĠ": 1198,
      "ach": 1199,
      "cost": 1200,
      "suantĠ": 1201,
      "orporatedĠ": 1202,
      "33": 1203,
      "sidi": 1204,
      "eti": 1205,
      "cons": 1206,
      "Bo": 1207,
      "lie": 1208,
      "allow": 1209,
      "TĠ": 1210,
      "not": 1211,
      "resultĠ": 1212,
      "canĠ": 1213,
      "eldĠ": 1214,
      "proc": 1215,
      "debtĠ": 1216,
      "purchaseĠ": 1217,
      "laim": 1218,
      "provi": 1219,
      "ationĠandĠ": 1220,
      "Le": 1221,
      "comple": 1222,
      "Exhib": 1223,
      "bal": 1224,
      "dustr": 1225,
      "theĠCompanyĠ": 1226,
      "cashĠflow": 1227,
      "impa": 1228,
      "7.": 1229,
      "Accoun": 1230,
      "earn": 1231,
      "jec": 1232,
      "anag": 1233,
      "operationsĠ": 1234,
      "icen": 1235,
      "ementsĠ": 1236,
      "ireĠ": 1237,
      "commerc": 1238,
      "decreas": 1239,
      "ĠandĠ201": 1240,
      "tlyĠ": 1241,
      "sĠinĠ": 1242,
      "ienc": 1243,
      "plan": 1244,
      "technolo": 1245,
      "paidĠ": 1246,
      "ER": 1247,
      "leaseĠ": 1248,
      "ties,Ġ": 1249,
      "Janu": 1250,
      "29": 1251,
      "qual": 1252,
      "bec": 1253,
      "teredĠ": 1254,
      "elec": 1255,
      "belie": 1256,
      "equityĠ": 1257,
      "loanĠ": 1258,
      "respectivel": 1259,
      "Co": 1260,
      "regulatoryĠ": 1261,
      "pers": 1262,
      "accountingĠ": 1263,
      "off": 1264,
      "are": 1265,
      "DecemberĠ31,Ġ202": 1266,
      "ForĠ": 1267,
      "JanuaryĠ": 1268,
      "ignĠ": 1269,
      "combin": 1270,
      "liabilitiesĠ": 1271,
      "carr": 1272,
      "ĠtoĠ": 1273,
      "financ": 1274,
      "ipalĠ": 1275,
      "linicalĠ": 1276,
      "eĠofĠourĠ": 1277,
      "sĠareĠ": 1278,
      "under": 1279,
      "claim": 1280,
      "exc": 1281,
      "ments": 1282,
      "11": 1283,
      "OtherĠ": 1284,
      "recognizedĠ": 1285,
      "leg": 1286,
      "pot": 1287,
      "thoseĠ": 1288,
      "provideĠ": 1289,
      "Jun": 1290,
      "author": 1291,
      "sharesĠofĠ": 1292,
      "consider": 1293,
      "LĠ": 1294,
      "onĠaĠ": 1295,
      "byĠreferenc": 1296,
      "twe": 1297,
      "ĠofĠ": 1298,
      "As": 1299,
      "meas": 1300,
      "ban": 1301,
      "betwe": 1302,
      "restric": 1303,
      "ewĠ": 1304,
      "),Ġ": 1305,
      "Direc": 1306,
      "effectĠ": 1307,
      "defin": 1308,
      "outstandingĠ": 1309,
      "developmentĠ": 1310,
      "partic": 1311,
      "issuedĠ": 1312,
      "sĠthatĠ": 1313,
      "numberĠ": 1314,
      "Fe": 1315,
      "onĠFormĠ": 1316,
      "adeĠ": 1317,
      "NoteĠ": 1318,
      "27": 1319,
      "i)Ġ": 1320,
      "olic": 1321,
      "syst": 1322,
      "abo": 1323,
      "servicesĠ": 1324,
      "totalĠ": 1325,
      "notĠbeĠ": 1326,
      "MarchĠ": 1327,
      "program": 1328,
      "resultsĠofĠ": 1329,
      "doĠ": 1330,
      "assum": 1331,
      "omeĠ": 1332,
      "ileĠ": 1333,
      "marke": 1334,
      "subsidi": 1335,
      "relatedĠtoĠ": 1336,
      "expectedĠ": 1337,
      "adjust": 1338,
      "pat": 1339,
      "StockĠ": 1340,
      "ationalĠ": 1341,
      "urityĠ": 1342,
      "betweenĠ": 1343,
      "wellĠ": 1344,
      "Oper": 1345,
      "âĢĻĠ": 1346,
      "24": 1347,
      "evalu": 1348,
      "Manag": 1349,
      "tionĠandĠ": 1350,
      "JuneĠ": 1351,
      "antsĠ": 1352,
      "govern": 1353,
      "ity": 1354,
      "gin": 1355,
      "riskĠ": 1356,
      "other": 1357,
      "lessĠ": 1358,
      "90": 1359,
      "gu": 1360,
      "lossĠ": 1361,
      "purchas": 1362,
      "fir": 1363,
      "affectĠ": 1364,
      "EN": 1365,
      "umĠ": 1366,
      "competi": 1367,
      "gro": 1368,
      "ExhibitĠ": 1369,
      "thatĠtheĠ": 1370,
      "revenueĠ": 1371,
      "8.": 1372,
      "pli": 1373,
      "effectiveĠ": 1374,
      "exper": 1375,
      "distribu": 1376,
      "companyĠ": 1377,
      "9.": 1378,
      "OnĠ": 1379,
      "UnitedĠ": 1380,
      "charg": 1381,
      "34": 1382,
      "associ": 1383,
      "ort": 1384,
      "amen": 1385,
      "recordedĠ": 1386,
      "partyĠ": 1387,
      "manu": 1388,
      "AgreementĠ": 1389,
      "licen": 1390,
      "No": 1391,
      "industr": 1392,
      "exis": 1393,
      "ew": 1394,
      "duringĠtheĠ": 1395,
      "onom": 1396,
      "26": 1397,
      "compensationĠ": 1398,
      "Sept": 1399,
      "ffer": 1400,
      "salesĠ": 1401,
      "setĠ": 1402,
      "iveĠ": 1403,
      "Agreement": 1404,
      "ReportĠ": 1405,
      "manufac": 1406,
      "prof": 1407,
      "generallyĠ": 1408,
      "prec": 1409,
      "-Ġ": 1410,
      "subst": 1411,
      ",Ġ2020": 1412,
      "ensi": 1413,
      "bor": 1414,
      "Corpor": 1415,
      "impactĠ": 1416,
      "fore": 1417,
      "ital": 1418,
      ":Ġ": 1419,
      "ber": 1420,
      "incorporatedĠ": 1421,
      ",Ġrespectivel": 1422,
      "publicĠ": 1423,
      "SeptemberĠ": 1424,
      "PĠ": 1425,
      "high": 1426,
      "ke": 1427,
      "r.Ġ": 1428,
      "reason": 1429,
      "numberĠofĠ": 1430,
      "grow": 1431,
      "financialĠstatementsĠ": 1432,
      "ssĠ": 1433,
      "long": 1434,
      "EM": 1435,
      "(âĢľ": 1436,
      "haveĠaĠ": 1437,
      "âĢĿ)Ġ": 1438,
      "internalĠ": 1439,
      "80": 1440,
      "respon": 1441,
      "clinicalĠ": 1442,
      "expenseĠ": 1443,
      "advers": 1444,
      "elĠ": 1445,
      "paredĠ": 1446,
      "pursuantĠ": 1447,
      "OR": 1448,
      "cep": 1449,
      "sĠofĠtheĠ": 1450,
      "etherĠ": 1451,
      "priceĠ": 1452,
      "inĠaĠ": 1453,
      "efĠ": 1454,
      "mentsĠofĠ": 1455,
      "adv": 1456,
      "level": 1457,
      "divid": 1458,
      "her": 1459,
      "ed,Ġ": 1460,
      "SecuritiesĠ": 1461,
      "pri": 1462,
      "dueĠ": 1463,
      "market": 1464,
      "Cas": 1465,
      "adverselyĠ": 1466,
      "ments,Ġ": 1467,
      "over": 1468,
      "priorĠ": 1469,
      "sĠforĠ": 1470,
      "mentalĠ": 1471,
      "exerc": 1472,
      "impair": 1473,
      "e.Ġ": 1474,
      "$0.": 1475,
      "person": 1476,
      "23": 1477,
      "shipĠ": 1478,
      "deferredĠ": 1479,
      "Al": 1480,
      "whenĠ": 1481,
      "toĠourĠ": 1482,
      "polic": 1483,
      "assetĠ": 1484,
      "70": 1485,
      "dueĠtoĠ": 1486,
      "uredĠ": 1487,
      "hadĠ": 1488,
      "conver": 1489,
      "esĠareĠ": 1490,
      "consis": 1491,
      "ardĠofĠ": 1492,
      "dingĠ": 1493,
      "afterĠ": 1494,
      "BĠ": 1495,
      "thatĠweĠ": 1496,
      "amor": 1497,
      "II": 1498,
      "edĠinĠtheĠ": 1499,
      "ativ": 1500,
      "UnitedĠSt": 1501,
      "includeĠ": 1502,
      "amortiz": 1503,
      "heldĠ": 1504,
      "tribut": 1505,
      "ibleĠ": 1506,
      "offer": 1507,
      "Inc.Ġ": 1508,
      "real": 1509,
      "warr": 1510,
      "ExchangeĠ": 1511,
      "ateg": 1512,
      "liabilityĠ": 1513,
      "econom": 1514,
      "averageĠ": 1515,
      "provisi": 1516,
      "associatedĠ": 1517,
      "suchĠasĠ": 1518,
      "connec": 1519,
      "proceed": 1520,
      "ies,Ġ": 1521,
      "ON": 1522,
      "registr": 1523,
      "iefĠ": 1524,
      "propertyĠ": 1525,
      "ministr": 1526,
      "cal": 1527,
      "amountĠ": 1528,
      "lassĠ": 1529,
      "tions,Ġ": 1530,
      "timeĠ": 1531,
      "FĠ": 1532,
      "inĠ201": 1533,
      "Incom": 1534,
      "stateĠ": 1535,
      "estimatedĠ": 1536,
      "iousĠ": 1537,
      "federalĠ": 1538,
      "tiv": 1539,
      "amountĠofĠ": 1540,
      "accord": 1541,
      "plac": 1542,
      "22": 1543,
      "serviceĠ": 1544,
      "75": 1545,
      "ho": 1546,
      "merĠ": 1547,
      "Pur": 1548,
      "AR": 1549,
      "uponĠ": 1550,
      "substanti": 1551,
      "experienc": 1552,
      "-termĠ": 1553,
      "andĠotherĠ": 1554,
      "mil": 1555,
      "dependentĠ": 1556,
      "doĠnotĠ": 1557,
      "increasedĠ": 1558,
      "ple": 1559,
      "Cre": 1560,
      "succ": 1561,
      ").": 1562,
      "tili": 1563,
      "isĠaĠ": 1564,
      "stockholder": 1565,
      "performanceĠ": 1566,
      "wellĠasĠ": 1567,
      "greg": 1568,
      "adverseĠ": 1569,
      "ticalĠ": 1570,
      "agreementĠ": 1571,
      "initialĠ": 1572,
      "Mr.Ġ": 1573,
      "foli": 1574,
      "basedĠonĠ": 1575,
      "cum": 1576,
      "principalĠ": 1577,
      "LLC": 1578,
      "ations,Ġ": 1579,
      "repres": 1580,
      "fiedĠ": 1581,
      "basisĠ": 1582,
      "ca": 1583,
      "potentialĠ": 1584,
      "deriv": 1585,
      "adĠ": 1586,
      "ExecutiveĠ": 1587,
      "inĠourĠ": 1588,
      "eniorĠ": 1589,
      "s.ĠWeĠ": 1590,
      "rat": 1591,
      "thereĠ": 1592,
      "Comm": 1593,
      "butĠ": 1594,
      "eng": 1595,
      "stru": 1596,
      "10-K": 1597,
      "thre": 1598,
      "commit": 1599,
      "ward": 1600,
      "abli": 1601,
      "requiredĠtoĠ": 1602,
      "nat": 1603,
      "FD": 1604,
      "costĠ": 1605,
      "there": 1606,
      "35": 1607,
      "sĠaĠ": 1608,
      "believeĠ": 1609,
      "system": 1610,
      "vest": 1611,
      "Feb": 1612,
      "ou": 1613,
      "xĠ": 1614,
      "Non": 1615,
      "borrow": 1616,
      "providedĠ": 1617,
      "ConsolidatedĠ": 1618,
      "Serv": 1619,
      "seg": 1620,
      "establi": 1621,
      "insuranceĠ": 1622,
      "Febru": 1623,
      "changesĠinĠ": 1624,
      "design": 1625,
      "paymentsĠ": 1626,
      "dataĠ": 1627,
      "aterĠ": 1628,
      "vir": 1629,
      "director": 1630,
      "requirementsĠ": 1631,
      "d-": 1632,
      "annualĠ": 1633,
      "subsidiar": 1634,
      "tableĠ": 1635,
      "Servic": 1636,
      "comparedĠ": 1637,
      "ie": 1638,
      "control": 1639,
      "availableĠ": 1640,
      "iallyĠ": 1641,
      "theĠâĢľ": 1642,
      "makeĠ": 1643,
      "Stock": 1644,
      "ReportĠonĠFormĠ": 1645,
      "payĠ": 1646,
      "br": 1647,
      "whetherĠ": 1648,
      ",000Ġ": 1649,
      "ack": 1650,
      "identi": 1651,
      "FebruaryĠ": 1652,
      ".ĠTheĠCompanyĠ": 1653,
      "equip": 1654,
      "sâĢĻĠ": 1655,
      "exp": 1656,
      "fairĠvalueĠ": 1657,
      "ChiefĠ": 1658,
      "30,Ġ201": 1659,
      "ade": 1660,
      "ill": 1661,
      "compli": 1662,
      "expensesĠ": 1663,
      "below": 1664,
      "acqui": 1665,
      "candi": 1666,
      "ifi": 1667,
      "amongĠ": 1668,
      "orĠotherĠ": 1669,
      "ensiveĠ": 1670,
      "revi": 1671,
      "ationĠofĠtheĠ": 1672,
      "foreignĠ": 1673,
      "thirdĠ": 1674,
      "SectionĠ": 1675,
      "ty,Ġ": 1676,
      "struc": 1677,
      "tion,Ġ": 1678,
      "regard": 1679,
      "36": 1680,
      "aly": 1681,
      "-basedĠ": 1682,
      ".ĠS": 1683,
      "manufactur": 1684,
      "connectionĠ": 1685,
      "rit": 1686,
      "Cap": 1687,
      "thatĠareĠ": 1688,
      "y.": 1689,
      "Inc.": 1690,
      "edĠbyĠtheĠ": 1691,
      "38": 1692,
      "aggreg": 1693,
      "expen": 1694,
      "verĠ": 1695,
      "anceĠwithĠ": 1696,
      "torĠ": 1697,
      "Dis": 1698,
      "theyĠ": 1699,
      "tionĠofĠtheĠ": 1700,
      "usĠtoĠ": 1701,
      "CashĠ": 1702,
      "ourc": 1703,
      "amountsĠ": 1704,
      "____": 1705,
      "metho": 1706,
      "ten": 1707,
      "existingĠ": 1708,
      "ains": 1709,
      "planĠ": 1710,
      "heal": 1711,
      "formĠ": 1712,
      "differ": 1713,
      "estingĠ": 1714,
      "approximatelyĠ$": 1715,
      "variousĠ": 1716,
      "Oc": 1717,
      "ion": 1718,
      "ratesĠ": 1719,
      "set": 1720,
      "Act": 1721,
      "âĢĵ": 1722,
      "adop": 1723,
      "oll": 1724,
      "increaseĠ": 1725,
      "Cer": 1726,
      "Ta": 1727,
      "accru": 1728,
      "resĠ": 1729,
      "unc": 1730,
      "ance": 1731,
      "Equ": 1732,
      "vingĠ": 1733,
      "yearĠendedĠDecemberĠ31,Ġ201": 1734,
      "lassi": 1735,
      "refl": 1736,
      "corpor": 1737,
      ".ĠOurĠ": 1738,
      "ulyĠ": 1739,
      "assump": 1740,
      "ningĠ": 1741,
      "21": 1742,
      "benefitĠ": 1743,
      "Octo": 1744,
      "affec": 1745,
      "Registr": 1746,
      "his": 1747,
      "assetsĠandĠ": 1748,
      "ment,Ġ": 1749,
      "agreementsĠ": 1750,
      "liqui": 1751,
      "ever": 1752,
      "activitiesĠ": 1753,
      "currentlyĠ": 1754,
      "tro": 1755,
      "balanceĠ": 1756,
      "pursuantĠtoĠ": 1757,
      "iaĠ": 1758,
      "ClassĠ": 1759,
      "portfoli": 1760,
      "customerĠ": 1761,
      "ly,Ġ": 1762,
      "00Ġ": 1763,
      "investmentsĠ": 1764,
      "red": 1765,
      "addition,Ġ": 1766,
      "forĠourĠ": 1767,
      "indic": 1768,
      "lossesĠ": 1769,
      "assess": 1770,
      "OctoberĠ": 1771,
      "applicableĠ": 1772,
      "ies": 1773,
      "Busin": 1774,
      "loansĠ": 1775,
      "ameĠ": 1776,
      "49": 1777,
      "org": 1778,
      "occ": 1779,
      "generalĠ": 1780,
      "ofĠ$": 1781,
      "haveĠbeenĠ": 1782,
      "fur": 1783,
      "ded": 1784,
      "requireĠ": 1785,
      "Fac": 1786,
      "incur": 1787,
      "BankĠ": 1788,
      "1,0": 1789,
      "ings,Ġ": 1790,
      "Curren": 1791,
      "39": 1792,
      "instru": 1793,
      "cul": 1794,
      "37": 1795,
      "CreditĠ": 1796,
      "undĠ": 1797,
      "Invest": 1798,
      "CommonĠ": 1799,
      "edĠtheĠ": 1800,
      "TheĠCompanyĠ": 1801,
      "yearsĠendedĠ": 1802,
      "âĢ¢": 1803,
      "MayĠ": 1804,
      "eĠofĠ$": 1805,
      "resultsĠ": 1806,
      "tre": 1807,
      "growthĠ": 1808,
      "business,Ġ": 1809,
      "tig": 1810,
      "larg": 1811,
      "stat": 1812,
      "ainstĠ": 1813,
      "ancesĠ": 1814,
      "trad": 1815,
      "ts.Ġ": 1816,
      "Apr": 1817,
      "viron": 1818,
      "ES": 1819,
      "gageĠ": 1820,
      "againstĠ": 1821,
      "resultsĠofĠoperation": 1822,
      "missionĠ": 1823,
      "45": 1824,
      "businessĠcombin": 1825,
      "abl": 1826,
      "AccountingĠ": 1827,
      "impairmentĠ": 1828,
      "limitedĠ": 1829,
      "ardsĠ": 1830,
      "No.Ġ": 1831,
      "retur": 1832,
      "cyĠ": 1833,
      "1,Ġ": 1834,
      "tific": 1835,
      "IncomeĠ": 1836,
      "Amen": 1837,
      "Nov": 1838,
      "affili": 1839,
      "tibleĠ": 1840,
      "securi": 1841,
      "ator": 1842,
      "48": 1843,
      "uralĠ": 1844,
      "Share": 1845,
      "ION": 1846,
      "consum": 1847,
      "AprilĠ": 1848,
      "withĠaĠ": 1849,
      "sit": 1850,
      "000Ġ": 1851,
      "typ": 1852,
      "Partner": 1853,
      "46": 1854,
      "controlĠoverĠ": 1855,
      "sequ": 1856,
      "agreement": 1857,
      "paymentĠ": 1858,
      "Bas": 1859,
      "conduc": 1860,
      "a,Ġ": 1861,
      "quarterĠ": 1862,
      "gasĠ": 1863,
      "targ": 1864,
      "rup": 1865,
      "executiveĠ": 1866,
      "perc": 1867,
      "âĢĵĠ": 1868,
      "ra": 1869,
      "isĠnotĠ": 1870,
      "commonĠstock": 1871,
      "establish": 1872,
      "simil": 1873,
      "withĠrespec": 1874,
      "ionĠ": 1875,
      "rul": 1876,
      "titu": 1877,
      "Qu": 1878,
      "ii)Ġ": 1879,
      "approvalĠ": 1880,
      "onlyĠ": 1881,
      "good": 1882,
      "ketĠ": 1883,
      "commercialĠ": 1884,
      "priv": 1885,
      "disclos": 1886,
      "companiesĠ": 1887,
      "writ": 1888,
      "medi": 1889,
      ",ĠaĠ": 1890,
      "financingĠ": 1891,
      "erĠtoĠ": 1892,
      "ally,Ġ": 1893,
      "sĠ(": 1894,
      "capital": 1895,
      "ations": 1896,
      "clo": 1897,
      "esĠtheĠ": 1898,
      "weĠareĠ": 1899,
      "JulyĠ": 1900,
      "administr": 1901,
      "angibleĠ": 1902,
      "valueĠ": 1903,
      "ANDĠ": 1904,
      "owner": 1905,
      "AnnualĠ": 1906,
      "âĢĿ)": 1907,
      "duringĠ": 1908,
      "purpos": 1909,
      "procedu": 1910,
      "erĠandĠ": 1911,
      "Aug": 1912,
      "edĠandĠ": 1913,
      "holderĠ": 1914,
      "Hol": 1915,
      "ilityĠ": 1916,
      "remain": 1917,
      "business": 1918,
      "hensiveĠ": 1919,
      "vis": 1920,
      "acquiredĠ": 1921,
      "byĠreferenceĠtoĠ": 1922,
      "discoun": 1923,
      "2,Ġ": 1924,
      "aud": 1925,
      "preci": 1926,
      "divi": 1927,
      "ore": 1928,
      "dividend": 1929,
      "pĠ": 1930,
      "ments.": 1931,
      "31,Ġ201": 1932,
      "ated": 1933,
      "continueĠtoĠ": 1934,
      "sĠofĠourĠ": 1935,
      "47": 1936,
      "here": 1937,
      "officer": 1938,
      "date": 1939,
      "plyĠ": 1940,
      ".ĠTheseĠ": 1941,
      "utili": 1942,
      "cor": 1943,
      "Commit": 1944,
      "ourĠabilityĠtoĠ": 1945,
      "ondĠ": 1946,
      "s:": 1947,
      "management": 1948,
      "PlanĠ": 1949,
      "asĠwellĠasĠ": 1950,
      "tĠandĠ": 1951,
      "company": 1952,
      "deli": 1953,
      "see": 1954,
      "Gro": 1955,
      "collec": 1956,
      "s)": 1957,
      "AC": 1958,
      "ater": 1959,
      "ST": 1960,
      "sear": 1961,
      "obligationsĠ": 1962,
      "mitĠ": 1963,
      "anceĠofĠ": 1964,
      "NewĠ": 1965,
      "ainĠ": 1966,
      "expense": 1967,
      "incomeĠtaxĠ": 1968,
      "vedĠ": 1969,
      "sibleĠ": 1970,
      "65": 1971,
      "technolog": 1972,
      "99": 1973,
      "aggregateĠ": 1974,
      "sp": 1975,
      "NovemberĠ": 1976,
      "forĠaĠ": 1977,
      "arrang": 1978,
      ",âĢĿĠ": 1979,
      "partner": 1980,
      "Bal": 1981,
      "Dur": 1982,
      "edg": 1983,
      "erg": 1984,
      "1,Ġ201": 1985,
      "quarter": 1986,
      "overĠtheĠ": 1987,
      "ownĠ": 1988,
      "AugustĠ": 1989,
      "sĠfromĠ": 1990,
      "measure": 1991,
      "0ĠmillionĠ": 1992,
      "10,": 1993,
      "edĠasĠ": 1994,
      "pati": 1995,
      "Acc": 1996,
      "entlyĠ": 1997,
      "regulationsĠ": 1998,
      "ous": 1999,
      "ordin": 2000,
      "success": 2001,
      "impro": 2002,
      "ticip": 2003,
      "invol": 2004,
      "tureĠ": 2005,
      "al,Ġ": 2006,
      ")Ġ(": 2007,
      "mi": 2008,
      "carryingĠ": 2009,
      "icallyĠ": 2010,
      "iceĠ": 2011,
      "ity,Ġ": 2012,
      "Company'sĠ": 2013,
      "conc": 2014,
      "estedĠ": 2015,
      "85": 2016,
      "securityĠ": 2017,
      "enteredĠ": 2018,
      "Amer": 2019,
      "orĠtheĠ": 2020,
      ".ĠIfĠ": 2021,
      "liquid": 2022,
      "tionsĠandĠ": 2023,
      "projec": 2024,
      "LI": 2025,
      "couldĠbeĠ": 2026,
      "controlĠoverĠfinancialĠ": 2027,
      "SU": 2028,
      "histor": 2029,
      "exercis": 2030,
      "iesĠandĠ": 2031,
      "lineĠ": 2032,
      "1,5": 2033,
      "provision": 2034,
      "arm": 2035,
      "crib": 2036,
      "s.ĠTh": 2037,
      "Rec": 2038,
      "itiesĠ": 2039,
      "entiveĠ": 2040,
      "basedĠonĠtheĠ": 2041,
      "forward": 2042,
      "equival": 2043,
      "doesĠ": 2044,
      "obtainĠ": 2045,
      "economicĠ": 2046,
      "66": 2047,
      "foreĠ": 2048,
      "realĠ": 2049,
      "environ": 2050,
      "resultĠinĠ": 2051,
      "mayĠnotĠbeĠ": 2052,
      "$1": 2053,
      "Val": 2054,
      "OĠ": 2055,
      "assets": 2056,
      "whereĠ": 2057,
      "madeĠ": 2058,
      "usingĠ": 2059,
      "interest": 2060,
      "discus": 2061,
      "Go": 2062,
      "GĠ": 2063,
      "productĠcandi": 2064,
      "now": 2065,
      "drug": 2066,
      "bro": 2067,
      "cover": 2068,
      "fullyĠ": 2069,
      "Fr": 2070,
      "rightsĠ": 2071,
      "Year": 2072,
      "optionsĠ": 2073,
      "IĠ": 2074,
      "fail": 2075,
      "venĠ": 2076,
      "similarĠ": 2077,
      "technologyĠ": 2078,
      "ting": 2079,
      "neg": 2080,
      "ExecutiveĠOffic": 2081,
      "shareholder": 2082,
      "Chang": 2083,
      "0Ġ": 2084,
      "resear": 2085,
      "enceĠ": 2086,
      "ineĠ": 2087,
      "tl": 2088,
      "sĠtheĠ": 2089,
      "sour": 2090,
      "bothĠ": 2091,
      "increaseĠinĠ": 2092,
      ".ĠThisĠ": 2093,
      "bur": 2094,
      "internalĠcontrolĠoverĠfinancialĠ": 2095,
      "velĠ": 2096,
      "LoanĠ": 2097,
      "TheĠfollowingĠ": 2098,
      "Bank": 2099,
      "naturalĠ": 2100,
      "perĠshareĠ": 2101,
      "(3": 2102,
      "anticip": 2103,
      "strateg": 2104,
      "eriesĠ": 2105,
      "Plan": 2106,
      "dividu": 2107,
      "necess": 2108,
      "ousĠ": 2109,
      "changesĠ": 2110,
      "owever": 2111,
      "locatedĠ": 2112,
      "95": 2113,
      "and,Ġ": 2114,
      "ingĠofĠ": 2115,
      "inĠwhichĠ": 2116,
      "restrictedĠ": 2117,
      "eĠourĠ": 2118,
      "OFĠ": 2119,
      "edĠforĠ": 2120,
      "(a": 2121,
      "canĠbeĠ": 2122,
      "marketingĠ": 2123,
      "FinancialĠState": 2124,
      "s;": 2125,
      "esĠforĠ": 2126,
      "nationalĠ": 2127,
      "3,Ġ": 2128,
      "day": 2129,
      "hasĠbeenĠ": 2130,
      "Purch": 2131,
      "month": 2132,
      "Ris": 2133,
      "OperatingĠ": 2134,
      "recover": 2135,
      "resourc": 2136,
      "uleĠ": 2137,
      "(loss": 2138,
      "ationsĠandĠ": 2139,
      "areĠnotĠ": 2140,
      "basis": 2141,
      "future": 2142,
      "intĠ": 2143,
      "Rel": 2144,
      "ifiedĠ": 2145,
      "isteredĠ": 2146,
      "compon": 2147,
      "clinicalĠtr": 2148,
      "sourc": 2149,
      "partiesĠ": 2150,
      "tle": 2151,
      "yĠandĠ": 2152,
      "bu": 2153,
      "certain": 2154,
      "upĠ": 2155,
      "licens": 2156,
      "exchangeĠ": 2157,
      "know": 2158,
      "78": 2159,
      "ActĠofĠ": 2160,
      "oc": 2161,
      "8-K": 2162,
      "comparedĠtoĠ": 2163,
      "udg": 2164,
      "Gener": 2165,
      "otherw": 2166,
      "threeĠ": 2167,
      "Director": 2168,
      "maintainĠ": 2169,
      "doesĠnotĠ": 2170,
      "ventor": 2171,
      "adverselyĠaffectĠ": 2172,
      "44": 2173,
      "benefitsĠ": 2174,
      "asĠofĠDecemberĠ31,Ġ201": 2175,
      "individu": 2176,
      "condi": 2177,
      "includesĠ": 2178,
      "liabilities": 2179,
      "firstĠ": 2180,
      "s,ĠincludingĠ": 2181,
      "materiallyĠ": 2182,
      "byĠreferenceĠtoĠExhibitĠ": 2183,
      "CurrentĠ": 2184,
      "Presid": 2185,
      "reportedĠ": 2186,
      "deem": 2187,
      "imple": 2188,
      "ateĠtheĠ": 2189,
      "aniz": 2190,
      "withinĠ": 2191,
      "Ener": 2192,
      "reserv": 2193,
      "s.ĠInĠ": 2194,
      "lob": 2195,
      "Enter": 2196,
      "erveĠ": 2197,
      "$1.": 2198,
      "unitsĠ": 2199,
      "contractsĠ": 2200,
      "interestĠrateĠ": 2201,
      "Med": 2202,
      "analy": 2203,
      "InterestĠ": 2204,
      "ientĠ": 2205,
      "furtherĠ": 2206,
      "mort": 2207,
      "sever": 2208,
      "twoĠ": 2209,
      "careĠ": 2210,
      "cir": 2211,
      "she": 2212,
      "Revenu": 2213,
      "68": 2214,
      "prom": 2215,
      "ptionĠ": 2216,
      "enteredĠintoĠ": 2217,
      "and/": 2218,
      "erĠofĠ": 2219,
      "Sub": 2220,
      "enter": 2221,
      ",ĠourĠ": 2222,
      "EquityĠ": 2223,
      "thous": 2224,
      "ak": 2225,
      ",Ġ200": 2226,
      "beingĠ": 2227,
      "associatedĠwithĠ": 2228,
      "MĠ": 2229,
      "y-": 2230,
      "igin": 2231,
      "eu": 2232,
      "haveĠaĠmaterialĠ": 2233,
      "tionĠtoĠ": 2234,
      "BusinessĠ": 2235,
      "calcul": 2236,
      "77": 2237,
      "valuationĠ": 2238,
      "hedg": 2239,
      "abor": 2240,
      "accountsĠ": 2241,
      "98": 2242,
      "incomeĠtax": 2243,
      "includingĠtheĠ": 2244,
      "factorsĠ": 2245,
      "lik": 2246,
      "institu": 2247,
      "pons": 2248,
      "gran": 2249,
      "Regul": 2250,
      "cour": 2251,
      "âĢĶĠâĢĶĠ": 2252,
      "reasonableĠ": 2253,
      "entedĠ": 2254,
      "IS": 2255,
      "realĠest": 2256,
      "Ph": 2257,
      "tenĠ": 2258,
      "Ġmillion,Ġ": 2259,
      "maj": 2260,
      "CapitalĠ": 2261,
      "Valu": 2262,
      "eler": 2263,
      "Wh": 2264,
      "&Ġ": 2265,
      "corporateĠ": 2266,
      "Americ": 2267,
      "inĠaccord": 2268,
      "factor": 2269,
      "ĠmillionĠandĠ": 2270,
      "long-termĠ": 2271,
      "includedĠinĠ": 2272,
      "independentĠ": 2273,
      "tions": 2274,
      "SeeĠ": 2275,
      "Li": 2276,
      "incurredĠ": 2277,
      "fix": 2278,
      "2016": 2279,
      "closu": 2280,
      "mul": 2281,
      "datesĠ": 2282,
      "SEC": 2283,
      "auditĠ": 2284,
      "ceed": 2285,
      "atĠaĠ": 2286,
      "loo": 2287,
      "realizedĠ": 2288,
      "contain": 2289,
      "resultingĠ": 2290,
      "er,Ġ": 2291,
      "(theĠâĢľ": 2292,
      "ilu": 2293,
      "tilĠ": 2294,
      "ei": 2295,
      "ts.": 2296,
      "customersĠ": 2297,
      "dela": 2298,
      "achie": 2299,
      "ENT": 2300,
      "hares": 2301,
      "Per": 2302,
      "legalĠ": 2303,
      "estimatesĠ": 2304,
      "ManagementĠ": 2305,
      "32": 2306,
      "forc": 2307,
      "adequ": 2308,
      "pow": 2309,
      "put": 2310,
      "portun": 2311,
      "directorsĠ": 2312,
      "securedĠ": 2313,
      "resultĠofĠ": 2314,
      "significant": 2315,
      "Committe": 2316,
      "classi": 2317,
      "patentĠ": 2318,
      "edĠonĠ": 2319,
      "exam": 2320,
      "s,ĠwhichĠ": 2321,
      "itĠisĠ": 2322,
      "receiveĠ": 2323,
      "researchĠ": 2324,
      "aboutĠ": 2325,
      "substantialĠ": 2326,
      "ation.": 2327,
      "edĠaĠ": 2328,
      "higherĠ": 2329,
      "transactionsĠ": 2330,
      "ActĠ": 2331,
      "ched": 2332,
      "ember": 2333,
      "suffic": 2334,
      "fyĠ": 2335,
      "contractĠ": 2336,
      "IP": 2337,
      "AA": 2338,
      "essĠofĠ": 2339,
      "BoardĠofĠ": 2340,
      "meetĠ": 2341,
      "Ġmar": 2342,
      "UnitedĠStat": 2343,
      "UĠ": 2344,
      "Trans": 2345,
      "beca": 2346,
      "izeĠ": 2347,
      "ste": 2348,
      "activ": 2349,
      "heĠ": 2350,
      "providesĠ": 2351,
      "67": 2352,
      "deliver": 2353,
      "third-": 2354,
      "ALĠ": 2355,
      "atĠDecemberĠ31,Ġ201": 2356,
      "lobalĠ": 2357,
      "Ter": 2358,
      "jur": 2359,
      "allowanceĠ": 2360,
      "100": 2361,
      "ginningĠ": 2362,
      "circum": 2363,
      "relatedĠtoĠtheĠ": 2364,
      "netĠofĠ": 2365,
      "particul": 2366,
      "process": 2367,
      "describ": 2368,
      "oftw": 2369,
      "2014": 2370,
      "unableĠtoĠ": 2371,
      "wasĠ$": 2372,
      "eas": 2373,
      "previ": 2374,
      "earningsĠ": 2375,
      "billi": 2376,
      "Is": 2377,
      "rang": 2378,
      "balanceĠshe": 2379,
      "Ar": 2380,
      "tedĠtoĠ": 2381,
      "orsĠ": 2382,
      "ificĠ": 2383,
      "soldĠ": 2384,
      "tric": 2385,
      "part": 2386,
      "assuranceĠ": 2387,
      "untilĠ": 2388,
      "sellĠ": 2389,
      "excep": 2390,
      "ticĠ": 2391,
      "inte": 2392,
      "deferredĠtaxĠ": 2393,
      "asĠfollow": 2394,
      "LevelĠ": 2395,
      "whoĠ": 2396,
      "origin": 2397,
      "relatingĠ": 2398,
      "tedĠbyĠ": 2399,
      "yĠofĠ": 2400,
      "thoutĠ": 2401,
      "teĠ": 2402,
      "attribut": 2403,
      "2,5": 2404,
      "compre": 2405,
      "relation": 2406,
      "activities": 2407,
      "sell": 2408,
      "and/orĠ": 2409,
      "nerĠ": 2410,
      "VI": 2411,
      "TrustĠ": 2412,
      "acquisitionĠ": 2413,
      "assumptionsĠ": 2414,
      "portfolioĠ": 2415,
      "(5": 2416,
      "Sh": 2417,
      "statementsĠ": 2418,
      "AsĠofĠ": 2419,
      "atis": 2420,
      "gain": 2421,
      "SeniorĠ": 2422,
      "lif": 2423,
      "Ġmon": 2424,
      "US": 2425,
      ",ĠdatedĠ": 2426,
      "ouslyĠ": 2427,
      "ofĠtheĠCompanyâĢĻsĠ": 2428,
      "mentĠandĠ": 2429,
      "transactionĠ": 2430,
      "att": 2431,
      "offsetĠ": 2432,
      "ance,Ġ": 2433,
      "69": 2434,
      "UnderĠ": 2435,
      "(1,": 2436,
      "esĠorĠ": 2437,
      "useĠofĠ": 2438,
      "withoutĠ": 2439,
      "asĠtheĠ": 2440,
      "opportun": 2441,
      "lus": 2442,
      "fairĠvalueĠofĠ": 2443,
      "weigh": 2444,
      "lowerĠ": 2445,
      "ellec": 2446,
      "iver": 2447,
      "dit": 2448,
      "SeriesĠ": 2449,
      "extentĠ": 2450,
      "log": 2451,
      "appropri": 2452,
      "integr": 2453,
      "2015": 2454,
      "astĠ": 2455,
      "uctu": 2456,
      "pendit": 2457,
      "estsĠ": 2458,
      "circumst": 2459,
      "ulatedĠ": 2460,
      "SECĠ": 2461,
      "utiliz": 2462,
      "mustĠ": 2463,
      "prac": 2464,
      "comprehensiveĠ": 2465,
      "inceĠ": 2466,
      ")ĠandĠ": 2467,
      "Au": 2468,
      "$Ġ(": 2469,
      "vesĠ": 2470,
      "BalanceĠ": 2471,
      "88": 2472,
      "ens": 2473,
      "es,ĠandĠ": 2474,
      "Fir": 2475,
      "FDAĠ": 2476,
      ",ĠandĠtheĠ": 2477,
      "costĠofĠ": 2478,
      "otherwiseĠ": 2479,
      "t-": 2480,
      "tire": 2481,
      "reportĠ": 2482,
      "ments.Ġ": 2483,
      "likelyĠ": 2484,
      "registrantĠ": 2485,
      "EDĠ": 2486,
      "third-partyĠ": 2487,
      "jo": 2488,
      "pe": 2489,
      ".ĠM": 2490,
      "adverseĠeffectĠ": 2491,
      "wardĠ": 2492,
      "ureĠtoĠ": 2493,
      "payableĠ": 2494,
      "Em": 2495,
      "remainingĠ": 2496,
      "mentsĠandĠ": 2497,
      "withĠrespectĠtoĠ": 2498,
      "valueĠofĠ": 2499,
      "guid": 2500,
      "(4": 2501,
      "withĠourĠ": 2502,
      "industryĠ": 2503,
      "We": 2504,
      "acceler": 2505,
      "inĠconnectionĠ": 2506,
      "ellectualĠ": 2507,
      "entr": 2508,
      "judg": 2509,
      "effecti": 2510,
      ",âĢĿĠâĢľ": 2511,
      "FileĠ": 2512,
      "sameĠ": 2513,
      "ifĠtheĠ": 2514,
      "EMĠ": 2515,
      "thousand": 2516,
      "CommissionĠ": 2517,
      "uncertain": 2518,
      "NotesĠ": 2519,
      "intangibleĠ": 2520,
      "administrativeĠ": 2521,
      "ingĠourĠ": 2522,
      "Hold": 2523,
      "2,0": 2524,
      "Proper": 2525,
      "countr": 2526,
      "minim": 2527,
      "%ĠofĠ": 2528,
      "percent": 2529,
      "UnitedĠStatesĠ": 2530,
      "dmentĠ": 2531,
      ".ĠAl": 2532,
      "upĠtoĠ": 2533,
      "inten": 2534,
      "eitherĠ": 2535,
      "actualĠ": 2536,
      "bank": 2537,
      "Sup": 2538,
      "markĠ": 2539,
      "suppli": 2540,
      "Sal": 2541,
      "unic": 2542,
      "currencyĠ": 2543,
      "/Ġ": 2544,
      "Contro": 2545,
      "includedĠ": 2546,
      "tĠtheĠ": 2547,
      "97": 2548,
      "fulĠ": 2549,
      "protec": 2550,
      "deposi": 2551,
      "facilityĠ": 2552,
      "mayĠnotĠ": 2553,
      "sufficientĠ": 2554,
      "realĠestateĠ": 2555,
      "Non-": 2556,
      "reflec": 2557,
      "UR": 2558,
      "OT": 2559,
      "y.Ġ": 2560,
      "wouldĠbeĠ": 2561,
      "ateĠofĠ": 2562,
      "ech": 2563,
      "expendit": 2564,
      "review": 2565,
      "bre": 2566,
      "$2": 2567,
      "periodsĠ": 2568,
      "andĠre": 2569,
      "weĠhaveĠ": 2570,
      "beforeĠ": 2571,
      "facilitiesĠ": 2572,
      "fficul": 2573,
      "demandĠ": 2574,
      "mode": 2575,
      "income": 2576,
      "compl": 2577,
      "net": 2578,
      "ed.": 2579,
      "amendedĠ": 2580,
      "isdic": 2581,
      "PublicĠ": 2582,
      "%ĠofĠtheĠ": 2583,
      "withinĠtheĠ": 2584,
      "crip": 2585,
      "agenc": 2586,
      "ss": 2587,
      "standard": 2588,
      "supportĠ": 2589,
      "afe": 2590,
      "CI": 2591,
      "difficul": 2592,
      "sib": 2593,
      "ITEMĠ": 2594,
      "specificĠ": 2595,
      "PR": 2596,
      "derivativeĠ": 2597,
      "occur": 2598,
      "DecemberĠ31,Ġ2020": 2599,
      "inventor": 2600,
      "ĠtheĠ": 2601,
      ")ĠofĠtheĠ": 2602,
      "ofĠaĠ": 2603,
      "mostĠ": 2604,
      "governmentĠ": 2605,
      "productsĠandĠ": 2606,
      "42": 2607,
      "nam": 2608,
      ",ĠincludingĠ": 2609,
      "obtain": 2610,
      "sur": 2611,
      "tionalĠ": 2612,
      "notesĠ": 2613,
      "assets,Ġ": 2614,
      "chec": 2615,
      "usedĠ": 2616,
      "55": 2617,
      "guar": 2618,
      "rati": 2619,
      "ForĠtheĠ": 2620,
      "determinedĠ": 2621,
      "solu": 2622,
      "beginningĠ": 2623,
      "commercial": 2624,
      "perĠshare": 2625,
      "Fa": 2626,
      "imbur": 2627,
      "fav": 2628,
      "satis": 2629,
      "YĠ": 2630,
      "ownedĠ": 2631,
      "EntergyĠ": 2632,
      "volum": 2633,
      "uponĠtheĠ": 2634,
      "IV": 2635,
      "privateĠ": 2636,
      "tradingĠ": 2637,
      "treat": 2638,
      "manyĠ": 2639,
      "stor": 2640,
      "toĠre": 2641,
      "someĠ": 2642,
      "Employ": 2643,
      "preven": 2644,
      "boardĠofĠ": 2645,
      "intellectualĠ": 2646,
      "softw": 2647,
      "multi": 2648,
      "profit": 2649,
      "dev": 2650,
      "workĠ": 2651,
      "financialĠcondi": 2652,
      "1-": 2653,
      ".ĠH": 2654,
      "es.ĠTheĠ": 2655,
      "odĠ": 2656,
      "organiz": 2657,
      "practic": 2658,
      "receivedĠ": 2659,
      "med": 2660,
      "controll": 2661,
      "settle": 2662,
      "ackĠ": 2663,
      "preferredĠ": 2664,
      "thatĠourĠ": 2665,
      "RuleĠ": 2666,
      "jurisdic": 2667,
      "equalĠ": 2668,
      "CA": 2669,
      "vari": 2670,
      "capac": 2671,
      "cli": 2672,
      "healthĠ": 2673,
      "registeredĠ": 2674,
      "causeĠ": 2675,
      "summar": 2676,
      "age": 2677,
      "orityĠ": 2678,
      "distributionĠ": 2679,
      "lawsĠandĠ": 2680,
      "commen": 2681,
      ",ĠN": 2682,
      "Company,Ġ": 2683,
      "ĠmillionĠofĠ": 2684,
      "tail": 2685,
      "eĠorĠ": 2686,
      "shouldĠ": 2687,
      "tis": 2688,
      "dateĠofĠ": 2689,
      "propertiesĠ": 2690,
      "2013": 2691,
      "dam": 2692,
      "2017": 2693,
      "grossĠ": 2694,
      "revenuesĠ": 2695,
      "ge": 2696,
      "tern": 2697,
      "seeĠ": 2698,
      "marketsĠ": 2699,
      "(b": 2700,
      "its": 2701,
      "ightĠ": 2702,
      "2018": 2703,
      "targetĠ": 2704,
      "FederalĠ": 2705,
      "dilu": 2706,
      "ession": 2707,
      "saleĠofĠ": 2708,
      "etaryĠ": 2709,
      "orkĠ": 2710,
      "keyĠ": 2711,
      "thoughĠ": 2712,
      "compar": 2713,
      "clinicalĠtrial": 2714,
      "litig": 2715,
      "becomeĠ": 2716,
      "financialĠcondition": 2717,
      "maintain": 2718,
      "Or": 2719,
      "continuedĠ": 2720,
      "effor": 2721,
      "complyĠ": 2722,
      "claimsĠ": 2723,
      "omin": 2724,
      "securities": 2725,
      "Ġmonth": 2726,
      "material": 2727,
      "CH": 2728,
      "ĠandĠtheĠ": 2729,
      "exclud": 2730,
      "ivenĠ": 2731,
      "cashĠequival": 2732,
      "cy": 2733,
      "post": 2734,
      "personn": 2735,
      "redem": 2736,
      "ordinaryĠ": 2737,
      "necessaryĠ": 2738,
      "GAA": 2739,
      "Fur": 2740,
      "ablyĠ": 2741,
      "(1)": 2742,
      "forthĠ": 2743,
      "Tru": 2744,
      "ante": 2745,
      "tivelyĠ": 2746,
      "10-KĠ": 2747,
      "lu": 2748,
      "DeferredĠ": 2749,
      "EnergyĠ": 2750,
      "forĠtheĠyearĠendedĠDecemberĠ31,Ġ201": 2751,
      "seniorĠ": 2752,
      "anceĠwithĠtheĠ": 2753,
      "Asse": 2754,
      "naturalĠgasĠ": 2755,
      "forĠtheĠyearsĠendedĠ": 2756,
      "Loan": 2757,
      "87": 2758,
      "productionĠ": 2759,
      "BoardĠ": 2760,
      "particip": 2761,
      "ublic": 2762,
      "infr": 2763,
      "greaterĠ": 2764,
      "significantlyĠ": 2765,
      "ActĠofĠ19": 2766,
      "ClassĠAĠ": 2767,
      "directlyĠ": 2768,
      "sĠinĠtheĠ": 2769,
      "modi": 2770,
      "afetyĠ": 2771,
      "CE": 2772,
      "grantedĠ": 2773,
      "d,Ġ": 2774,
      "implement": 2775,
      "subsidiariesĠ": 2776,
      "internalĠcontrolĠoverĠfinancialĠreportingĠ": 2777,
      "accompan": 2778,
      "43": 2779,
      "(loss)Ġ": 2780,
      "work": 2781,
      "that": 2782,
      "96": 2783,
      "vo": 2784,
      "armac": 2785,
      "need": 2786,
      "enterĠ": 2787,
      ".ĠInĠaddition,Ġ": 2788,
      "localĠ": 2789,
      "grantĠ": 2790,
      "GeneralĠ": 2791,
      "fundĠ": 2792,
      "instrumentsĠ": 2793,
      "warrantsĠ": 2794,
      "historicalĠ": 2795,
      "sm": 2796,
      "isĠtheĠ": 2797,
      "pu": 2798,
      "lookingĠ": 2799,
      "tailĠ": 2800,
      "Eur": 2801,
      "s,ĠtheĠ": 2802,
      "PreferredĠ": 2803,
      "cu": 2804,
      "checkĠ": 2805,
      "owever,Ġ": 2806,
      "regardingĠ": 2807,
      "8-KĠ": 2808,
      "sto": 2809,
      "credit": 2810,
      "eventsĠ": 2811,
      "mortgageĠ": 2812,
      "relationship": 2813,
      "ityĠandĠ": 2814,
      "$5": 2815,
      "sĠonĠ": 2816,
      "RelatedĠ": 2817,
      "13,": 2818,
      "ESĠ": 2819,
      "consolidatedĠfinancialĠstatementsĠ": 2820,
      "(d": 2821,
      "ys": 2822,
      "Certific": 2823,
      "arter": 2824,
      "contribu": 2825,
      "estimat": 2826,
      "annu": 2827,
      "feesĠ": 2828,
      "drugĠ": 2829,
      "ChiefĠExecutiveĠOffic": 2830,
      "segmentĠ": 2831,
      "Medic": 2832,
      "filedĠwithĠtheĠ": 2833,
      "orĠre": 2834,
      "construc": 2835,
      "depreci": 2836,
      "licenseĠ": 2837,
      "accompanyingĠ": 2838,
      "oil": 2839,
      "optionĠ": 2840,
      "weĠmayĠ": 2841,
      "equipmentĠ": 2842,
      "processĠ": 2843,
      "volvingĠ": 2844,
      "buil": 2845,
      ".ĠAsĠofĠ": 2846,
      "expos": 2847,
      "ofĠtheseĠ": 2848,
      "AnnualĠReportĠonĠFormĠ": 2849,
      "directĠ": 2850,
      "will": 2851,
      "on,Ġ": 2852,
      "consul": 2853,
      "matter": 2854,
      "Im": 2855,
      "products,Ġ": 2856,
      "thenĠ": 2857,
      "Am": 2858,
      "completedĠ": 2859,
      "approval": 2860,
      "chedul": 2861,
      "manĠ": 2862,
      "initialĠbusinessĠcombin": 2863,
      "CompensationĠ": 2864,
      "Management": 2865,
      "%,Ġ": 2866,
      "IncentiveĠ": 2867,
      "penal": 2868,
      "uchĠ": 2869,
      "fixedĠ": 2870,
      "opin": 2871,
      ".ĠAsĠaĠ": 2872,
      "Tax": 2873,
      "volati": 2874,
      "gainĠ": 2875,
      "accruedĠ": 2876,
      "assetsĠandĠliabilitiesĠ": 2877,
      "InvestmentĠ": 2878,
      ";Ġand": 2879,
      "15,": 2880,
      "electr": 2881,
      "baseĠ": 2882,
      "prospec": 2883,
      "competitiveĠ": 2884,
      "toĠaĠ": 2885,
      "Mort": 2886,
      "ĠmillionĠinĠ": 2887,
      "sinceĠ": 2888,
      "hic": 2889,
      "He": 2890,
      "contractualĠ": 2891,
      "cl": 2892,
      "hereinĠ": 2893,
      "ativelyĠ": 2894,
      "faul": 2895,
      "ASUĠ": 2896,
      "health": 2897,
      "public": 2898,
      "TheĠfollowingĠtableĠ": 2899,
      "quarterĠofĠ": 2900,
      "compens": 2901,
      "previouslyĠ": 2902,
      "Op": 2903,
      "Registrant": 2904,
      "short": 2905,
      "employeeĠ": 2906,
      "COM": 2907,
      "tirementĠ": 2908,
      "dres": 2909,
      "decisi": 2910,
      "prob": 2911,
      "WeĠhaveĠ": 2912,
      "Issu": 2913,
      "Warr": 2914,
      "activeĠ": 2915,
      "risksĠ": 2916,
      "ofĠwhichĠ": 2917,
      ",Ġ2014": 2918,
      "partĠofĠ": 2919,
      "ve,Ġ": 2920,
      "20,": 2921,
      "s,ĠorĠ": 2922,
      "effectiven": 2923,
      "valueĠofĠtheĠ": 2924,
      "parti": 2925,
      "award": 2926,
      "acceleratedĠ": 2927,
      "changeĠinĠ": 2928,
      "19,": 2929,
      "favor": 2930,
      "13Ġ": 2931,
      "ond": 2932,
      "hal": 2933,
      "declin": 2934,
      "RĠ": 2935,
      "tĠofĠtheĠ": 2936,
      "byĠreferenceĠtoĠExhibitĠ10.": 2937,
      "PresidentĠ": 2938,
      "reviewĠ": 2939,
      "subsequ": 2940,
      "billionĠ": 2941,
      "exerciseĠ": 2942,
      "ies.Ġ": 2943,
      "plat": 2944,
      "14,": 2945,
      "concer": 2946,
      "separ": 2947,
      "goodwillĠ": 2948,
      "/s": 2949,
      "76": 2950,
      "EX": 2951,
      "ditionally,Ġ": 2952,
      "On": 2953,
      "ToĠ": 2954,
      "fairĠvalueĠofĠtheĠ": 2955,
      "-lookingĠ": 2956,
      "Ap": 2957,
      "returnĠ": 2958,
      "committe": 2959,
      "rate": 2960,
      "usingĠtheĠ": 2961,
      "86": 2962,
      "accessĠ": 2963,
      "ASCĠ": 2964,
      "cash": 2965,
      "11,": 2966,
      "able,Ġ": 2967,
      "fullĠ": 2968,
      "def": 2969,
      "Cor": 2970,
      "Po": 2971,
      "ĠandĠ$": 2972,
      "func": 2973,
      "whol": 2974,
      "requiresĠ": 2975,
      "ish": 2976,
      "deĠ": 2977,
      "inst": 2978,
      "fre": 2979,
      "belowĠ": 2980,
      "ationĠorĠ": 2981,
      "endingĠ": 2982,
      "asĠfollows:": 2983,
      "areĠsubjectĠtoĠ": 2984,
      "plusĠ": 2985,
      "DuringĠtheĠ": 2986,
      "limitĠ": 2987,
      "\"Ġ": 2988,
      "guidanceĠ": 2989,
      "sĠandĠotherĠ": 2990,
      "premi": 2991,
      "alsĠ": 2992,
      "Combin": 2993,
      "2019": 2994,
      "return": 2995,
      "EP": 2996,
      "Distr": 2997,
      "sedĠ": 2998,
      "Ow": 2999,
      "supplyĠ": 3000,
      "predic": 3001,
      "ipan": 3002,
      "manufacturingĠ": 3003,
      "ali": 3004,
      "cannotĠ": 3005,
      "saleĠ": 3006,
      "etingĠ": 3007,
      "Advis": 3008,
      "TermĠ": 3009,
      "experienceĠ": 3010,
      "fluctu": 3011,
      "reportsĠ": 3012,
      "Associ": 3013,
      "methodĠ": 3014,
      "effic": 3015,
      "netw": 3016,
      "posedĠ": 3017,
      "sw": 3018,
      "dueĠtoĠtheĠ": 3019,
      "hisĠ": 3020,
      "StatementsĠofĠ": 3021,
      "2021": 3022,
      "entityĠ": 3023,
      "convertibleĠ": 3024,
      "reimbur": 3025,
      "businessĠandĠ": 3026,
      "incurĠ": 3027,
      "present": 3028,
      "lessĠthanĠ": 3029,
      "âĺ": 3030,
      "________": 3031,
      "ageĠofĠ": 3032,
      "Dat": 3033,
      "amongĠotherĠ": 3034,
      ",Ġ2021": 3035,
      "12.": 3036,
      "Inform": 3037,
      "ationsĠofĠ": 3038,
      "authorizedĠ": 3039,
      "guarante": 3040,
      "ipl": 3041,
      "asĠaĠresultĠofĠ": 3042,
      "timeĠtoĠ": 3043,
      "possibleĠ": 3044,
      "tionĠofĠourĠ": 3045,
      "FileĠNo.Ġ": 3046,
      "substantiallyĠ": 3047,
      "expenditure": 3048,
      "79": 3049,
      "12,": 3050,
      "presentĠ": 3051,
      "CertainĠ": 3052,
      "audit": 3053,
      "HĠ": 3054,
      "ann": 3055,
      "fferĠ": 3056,
      "ORĠ": 3057,
      "conting": 3058,
      "Princ": 3059,
      ".ĠAĠ": 3060,
      "largeĠ": 3061,
      ".,Ġ": 3062,
      "89": 3063,
      ".ĠAd": 3064,
      "item": 3065,
      "D-": 3066,
      "gĠ": 3067,
      "/s/Ġ": 3068,
      "Gr": 3069,
      "(ii)Ġ": 3070,
      "statut": 3071,
      "expan": 3072,
      "costsĠandĠ": 3073,
      "actionsĠ": 3074,
      "fundsĠ": 3075,
      "emb": 3076,
      "accountĠ": 3077,
      "pensionĠ": 3078,
      "TaxĠ": 3079,
      "10-": 3080,
      "nyĠ": 3081,
      "10Ġ": 3082,
      "byĠandĠ": 3083,
      "adequateĠ": 3084,
      "3,0": 3085,
      "ly": 3086,
      "Produc": 3087,
      "attributableĠtoĠ": 3088,
      "adverselyĠaffectĠourĠ": 3089,
      "dayĠ": 3090,
      "5,000": 3091,
      "NoĠ": 3092,
      "NT": 3093,
      "usedĠinĠ": 3094,
      "shares": 3095,
      "arlyĠ": 3096,
      "Br": 3097,
      "Acqu": 3098,
      "'Ġ": 3099,
      "Further": 3100,
      "(1)Ġ": 3101,
      "addi": 3102,
      "exceptĠ": 3103,
      "ItemĠ1": 3104,
      "unit": 3105,
      "lab": 3106,
      "sĠmayĠ": 3107,
      "defaul": 3108,
      "well": 3109,
      "19Ġ": 3110,
      "filedĠonĠ": 3111,
      "16,": 3112,
      "intellectualĠpropertyĠ": 3113,
      "fromĠourĠ": 3114,
      "researchĠandĠ": 3115,
      "ingĠaĠ": 3116,
      "tyĠofĠ": 3117,
      "LO": 3118,
      ",Ġ2015": 3119,
      "CorporationĠ": 3120,
      "A.Ġ": 3121,
      "Benef": 3122,
      "softwareĠ": 3123,
      "asĠdefin": 3124,
      "reflectĠ": 3125,
      "hig": 3126,
      "abilityĠofĠ": 3127,
      "consolidatedĠfinancialĠstate": 3128,
      "issuanceĠ": 3129,
      "operationsĠandĠ": 3130,
      "tradeĠ": 3131,
      "FinancialĠOffic": 3132,
      "esĠthatĠ": 3133,
      "iter": 3134,
      ",Ġ2016": 3135,
      "holdĠ": 3136,
      "sharesĠofĠcommonĠstockĠ": 3137,
      "icialĠ": 3138,
      "tak": 3139,
      "forward-lookingĠ": 3140,
      "provisionĠ": 3141,
      "adverseĠeffectĠonĠourĠ": 3142,
      "Europ": 3143,
      "armaceu": 3144,
      "usedĠtoĠ": 3145,
      "aboveĠ": 3146,
      "poseĠ": 3147,
      "Nor": 3148,
      "distribut": 3149,
      "SO": 3150,
      "cop": 3151,
      "emp": 3152,
      "oingĠ": 3153,
      "whetherĠtheĠ": 3154,
      "Acquisi": 3155,
      "IC": 3156,
      "DA": 3157,
      "fu": 3158,
      "âĢĿ),Ġ": 3159,
      "tionsĠofĠ": 3160,
      "closingĠ": 3161,
      "tsĠtoĠ": 3162,
      ".ĠForĠ": 3163,
      "total": 3164,
      "ersĠandĠ": 3165,
      ",Ġrespectively,Ġ": 3166,
      "bankĠ": 3167,
      "providedĠbyĠ": 3168,
      "in-": 3169,
      "tra": 3170,
      "50Ġ": 3171,
      "t.": 3172,
      "minimumĠ": 3173,
      "alloc": 3174,
      "-0": 3175,
      "eyĠ": 3176,
      "ateralĠ": 3177,
      "YearĠ": 3178,
      "ATION": 3179,
      "ownershipĠ": 3180,
      "AB": 3181,
      "pricesĠ": 3182,
      "merg": 3183,
      "criter": 3184,
      "expenses": 3185,
      "pris": 3186,
      "list": 3187,
      "iĠ": 3188,
      "fiveĠ": 3189,
      "2012": 3190,
      "ureĠofĠ": 3191,
      "orderĠtoĠ": 3192,
      "Mat": 3193,
      "accum": 3194,
      "amortizedĠ": 3195,
      "20Ġ": 3196,
      "taxableĠ": 3197,
      "Fund": 3198,
      "unitĠ": 3199,
      "disclosureĠ": 3200,
      "ablesĠ": 3201,
      "primaryĠ": 3202,
      "yal": 3203,
      "didĠ": 3204,
      "authoriz": 3205,
      "0.0": 3206,
      "$3": 3207,
      "Can": 3208,
      "observ": 3209,
      "ivers": 3210,
      "globalĠ": 3211,
      "propri": 3212,
      "offeringĠ": 3213,
      "xyĠ": 3214,
      "adoptedĠ": 3215,
      "outsid": 3216,
      "byĠcheckĠ": 3217,
      "ket": 3218,
      "takeĠ": 3219,
      "thatĠisĠ": 3220,
      "disrup": 3221,
      "environmentalĠ": 3222,
      "accep": 3223,
      "byĠcheckĠmarkĠ": 3224,
      "atingĠtheĠ": 3225,
      "severalĠ": 3226,
      "JuneĠ30,Ġ201": 3227,
      "quarterlyĠ": 3228,
      "cialĠ": 3229,
      "inĠthousand": 3230,
      "CurrentĠReportĠonĠFormĠ": 3231,
      "EMENT": 3232,
      "decreaseĠinĠ": 3233,
      "employeesĠ": 3234,
      "principl": 3235,
      "mittedĠ": 3236,
      "ame": 3237,
      "actionĠ": 3238,
      "iteĠ": 3239,
      "RevenueĠ": 3240,
      "lyingĠ": 3241,
      "MarketĠ": 3242,
      "seekĠ": 3243,
      "ent,Ġ": 3244,
      "Deb": 3245,
      "ingly,Ġ": 3246,
      "exclus": 3247,
      "presentedĠ": 3248,
      "tedĠaverageĠ": 3249,
      "Me": 3250,
      "procedure": 3251,
      "17,": 3252,
      ",Ġ2017": 3253,
      "grap": 3254,
      "30,": 3255,
      "edĠtoĠbeĠ": 3256,
      "MortgageĠ": 3257,
      "AmendmentĠ": 3258,
      "attrac": 3259,
      "cept": 3260,
      "statedĠ": 3261,
      "(i": 3262,
      "forĠtheĠyearĠendedĠ": 3263,
      "InternalĠ": 3264,
      "qualityĠ": 3265,
      "compet": 3266,
      "sing": 3267,
      "ment.": 3268,
      "Conver": 3269,
      "doll": 3270,
      "order": 3271,
      "PAR": 3272,
      "techn": 3273,
      "positionĠ": 3274,
      "ĠmarketĠ": 3275,
      "Tech": 3276,
      "throughĠtheĠ": 3277,
      "inĠthisĠ": 3278,
      ",Ġrespectively.": 3279,
      ",Ġrespectively": 3280,
      "amĠ": 3281,
      "bio": 3282,
      "powerĠ": 3283,
      "sy": 3284,
      "infl": 3285,
      "provider": 3286,
      "canc": 3287,
      "Del": 3288,
      "improve": 3289,
      "usto": 3290,
      "âĹ": 3291,
      "landĠ": 3292,
      "entitiesĠ": 3293,
      "limin": 3294,
      "htĠ": 3295,
      "considerationĠ": 3296,
      "vestedĠ": 3297,
      "couldĠhaveĠaĠmaterialĠ": 3298,
      "awardsĠ": 3299,
      "truc": 3300,
      "engag": 3301,
      "classifiedĠ": 3302,
      "pricingĠ": 3303,
      "diver": 3304,
      "Risk": 3305,
      "3,5": 3306,
      "PurchaseĠ": 3307,
      "otherĠthanĠ": 3308,
      "inĠaccordanceĠwithĠ": 3309,
      "Chin": 3310,
      "operateĠ": 3311,
      "ers,Ġ": 3312,
      ",ĠinĠ": 3313,
      "2013Ġ": 3314,
      "disclosu": 3315,
      "ture": 3316,
      "benefit": 3317,
      "consumerĠ": 3318,
      "Accord": 3319,
      ",Ġ2018": 3320,
      "mainten": 3321,
      "realiz": 3322,
      "Pay": 3323,
      "tectĠ": 3324,
      "ia": 3325,
      "volatili": 3326,
      "back": 3327,
      "therap": 3328,
      "leasesĠ": 3329,
      "AmendedĠ": 3330,
      "ViceĠ": 3331,
      "sĠandĠtheĠ": 3332,
      "(6": 3333,
      "Rest": 3334,
      "Agreement,ĠdatedĠ": 3335,
      "financeĠ": 3336,
      "Sou": 3337,
      "member": 3338,
      "31,": 3339,
      "$2.": 3340,
      "Custo": 3341,
      "andĠourĠ": 3342,
      "ission": 3343,
      "PursuantĠ": 3344,
      "new": 3345,
      "offerĠ": 3346,
      "NewĠY": 3347,
      "fileĠ": 3348,
      "PP": 3349,
      "shor": 3350,
      "reasur": 3351,
      "har": 3352,
      "edĠfromĠ": 3353,
      "vestingĠ": 3354,
      ".ĠOnĠ": 3355,
      "web": 3356,
      "policiesĠ": 3357,
      "Num": 3358,
      "sel": 3359,
      "anticipatedĠ": 3360,
      "holdingĠ": 3361,
      "earning": 3362,
      "safetyĠ": 3363,
      "tit": 3364,
      "knownĠ": 3365,
      "Spons": 3366,
      "ationĠofĠourĠ": 3367,
      "bear": 3368,
      "tem": 3369,
      "inpu": 3370,
      "emerg": 3371,
      "commercializ": 3372,
      "didĠnotĠ": 3373,
      "workingĠ": 3374,
      "(i)Ġ": 3375,
      "ansi": 3376,
      "addres": 3377,
      "timelyĠ": 3378,
      "collabor": 3379,
      "programĠ": 3380,
      "edĠorĠ": 3381,
      "trustĠ": 3382,
      "to-": 3383,
      "84": 3384,
      "ork": 3385,
      "forec": 3386,
      "open": 3387,
      "pre-": 3388,
      "oseĠ": 3389,
      "Du": 3390,
      "Cha": 3391,
      "betweenĠtheĠ": 3392,
      "subjectĠtoĠtheĠ": 3393,
      "advertis": 3394,
      "s.ĠOurĠ": 3395,
      "Top": 3396,
      "andĠcashĠequival": 3397,
      "offsetĠbyĠ": 3398,
      "recogniz": 3399,
      "method": 3400,
      "pleĠ": 3401,
      "recogni": 3402,
      "visionĠ": 3403,
      "18,": 3404,
      "ingĠtoĠ": 3405,
      "systemĠ": 3406,
      "conversionĠ": 3407,
      "estig": 3408,
      "cle": 3409,
      "byĠreferenceĠ": 3410,
      "Merg": 3411,
      "highĠ": 3412,
      "s.ĠTheseĠ": 3413,
      "nessĠ": 3414,
      "asĠofĠtheĠ": 3415,
      "coven": 3416,
      "insur": 3417,
      "underlyingĠ": 3418,
      "iredĠ": 3419,
      "shĠ": 3420,
      "ici": 3421,
      "acyĠ": 3422,
      "developĠ": 3423,
      "BusinessĠCombin": 3424,
      "s.ĠA": 3425,
      "adjustmentsĠ": 3426,
      "advis": 3427,
      "halfĠ": 3428,
      "ConsolidatedĠFinancialĠState": 3429,
      "depos": 3430,
      "overallĠ": 3431,
      "cashĠflowĠ": 3432,
      "SeptemberĠ30,Ġ201": 3433,
      "atĠleas": 3434,
      "rentĠ": 3435,
      "INGĠ": 3436,
      "AL": 3437,
      "ginĠ": 3438,
      "proceduresĠ": 3439,
      "enforc": 3440,
      "accumulatedĠ": 3441,
      "describedĠ": 3442,
      "yi": 3443,
      "pendĠ": 3444,
      "4,0": 3445,
      "inĠtheĠfuture": 3446,
      "(2)Ġ": 3447,
      "cri": 3448,
      "CorporateĠ": 3449,
      "qualifiedĠ": 3450,
      "2ĠandĠ": 3451,
      "dg": 3452,
      "appropriateĠ": 3453,
      "interestsĠ": 3454,
      "Indic": 3455,
      "BIT": 3456,
      "votingĠ": 3457,
      ";Ġ(": 3458,
      "leyĠ": 3459,
      "arrangementsĠ": 3460,
      "(2,": 3461,
      "periodĠofĠ": 3462,
      "Lim": 3463,
      "oneĠorĠ": 3464,
      "energyĠ": 3465,
      "acceleratedĠfil": 3466,
      "stud": 3467,
      "from": 3468,
      "accept": 3469,
      "Report": 3470,
      "complianceĠwithĠ": 3471,
      "land": 3472,
      "lev": 3473,
      "Adjust": 3474,
      "--": 3475,
      "medicalĠ": 3476,
      "secondĠ": 3477,
      "Govern": 3478,
      ".ĠB": 3479,
      "partiallyĠ": 3480,
      "demn": 3481,
      "enh": 3482,
      "differentĠ": 3483,
      "âĹı": 3484,
      "paymentĠofĠ": 3485,
      "swap": 3486,
      ",ĠInc.Ġ": 3487,
      "entitl": 3488,
      "tedĠforĠ": 3489,
      "proprietaryĠ": 3490,
      "char": 3491,
      ",Ġ2013": 3492,
      "inclu": 3493,
      "Purchas": 3494,
      ";ĠandĠ": 3495,
      "STAT": 3496,
      "TheseĠ": 3497,
      "toĠtheĠCompanyâĢĻsĠ": 3498,
      "Heal": 3499,
      "receivableĠ": 3500,
      "2014Ġ": 3501,
      "audi": 3502,
      "respectiveĠ": 3503,
      "profession": 3504,
      "ITI": 3505,
      "delay": 3506,
      "udi": 3507,
      "statementsĠofĠ": 3508,
      "debted": 3509,
      "majorityĠ": 3510,
      "rem": 3511,
      "lead": 3512,
      "COVI": 3513,
      "FAS": 3514,
      "altern": 3515,
      "som": 3516,
      "objec": 3517,
      ",Ġ2019": 3518,
      "obligationĠ": 3519,
      "$4": 3520,
      "group": 3521,
      "sĠwithĠ": 3522,
      "phys": 3523,
      "retirementĠ": 3524,
      "Contrac": 3525,
      "15.": 3526,
      "expres": 3527,
      "amongĠotherĠth": 3528,
      "DecemberĠ31,Ġ2021": 3529,
      "negativeĠ": 3530,
      "transaction": 3531,
      "Pen": 3532,
      "subsidiaryĠ": 3533,
      "complyĠwithĠ": 3534,
      "deduc": 3535,
      "ifĠan": 3536,
      "positionsĠ": 3537,
      "fiscalĠyearĠ": 3538,
      "patientsĠ": 3539,
      "recordĠ": 3540,
      "maturityĠ": 3541,
      "isl": 3542,
      "ateĠbyĠcheckĠmarkĠ": 3543,
      "directorĠ": 3544,
      "5ĠmillionĠ": 3545,
      ".ĠE": 3546,
      "Weigh": 3547,
      "ConsolidatedĠStatementsĠofĠ": 3548,
      "QĠ": 3549,
      "collateralĠ": 3550,
      "executiveĠoffic": 3551,
      "rateĠofĠ": 3552,
      "4,5": 3553,
      "2021Ġ": 3554,
      "COVID-": 3555,
      "cha": 3556,
      "(incorporatedĠ": 3557,
      "RiskĠ": 3558,
      "ferĠ": 3559,
      "74": 3560,
      "monit": 3561,
      "PrincipalĠ": 3562,
      "useĠtheĠ": 3563,
      "investig": 3564,
      "Amoun": 3565,
      "uteĠ": 3566,
      "healthcareĠ": 3567,
      "costs,Ġ": 3568,
      "distributionsĠ": 3569,
      "pendingĠ": 3570,
      "CreditĠFac": 3571,
      "iss": 3572,
      "resid": 3573,
      "impactĠofĠ": 3574,
      "let": 3575,
      "lossĠofĠ": 3576,
      "94": 3577,
      "64": 3578,
      "individualĠ": 3579,
      "fair": 3580,
      "coverageĠ": 3581,
      "OP": 3582,
      "seĠofĠ": 3583,
      "reasonablyĠ": 3584,
      "S-": 3585,
      "operations,Ġ": 3586,
      "ofĠitsĠ": 3587,
      "mission": 3588,
      "turingĠ": 3589,
      "eventĠ": 3590,
      "portfolio": 3591,
      "noteĠ": 3592,
      "dividendĠ": 3593,
      "ep": 3594,
      "performĠ": 3595,
      "strategicĠ": 3596,
      "DirectorsĠ": 3597,
      "afterĠtheĠ": 3598,
      "awareĠ": 3599,
      "four": 3600,
      "docu": 3601,
      "den": 3602,
      "2020Ġ": 3603,
      "allĠofĠtheĠ": 3604,
      "DirectorĠ": 3605,
      "indebted": 3606,
      "RestatedĠ": 3607,
      "(2)": 3608,
      "ChiefĠFinancialĠOffic": 3609,
      "resol": 3610,
      "controllingĠ": 3611,
      "tive": 3612,
      "discountĠ": 3613,
      "participan": 3614,
      "certific": 3615,
      ".ĠAsĠ": 3616,
      "elig": 3617,
      "feeĠ": 3618,
      "measuredĠ": 3619,
      "typicallyĠ": 3620,
      "sig": 3621,
      "Ins": 3622,
      "example": 3623,
      "e.ĠTheĠ": 3624,
      "execu": 3625,
      "internationalĠ": 3626,
      "QU": 3627,
      "manageĠ": 3628,
      "PartĠ": 3629,
      "expect": 3630,
      "to,Ġ": 3631,
      "CommonĠStockĠ": 3632,
      "adverselyĠaffec": 3633,
      "cho": 3634,
      "issueĠ": 3635,
      "electedĠ": 3636,
      "financialĠconditionĠandĠ": 3637,
      "favorableĠ": 3638,
      "highlyĠ": 3639,
      "atĠleastĠ": 3640,
      "UnderĠtheĠ": 3641,
      "ifĠweĠ": 3642,
      "monthĠ": 3643,
      "7,5": 3644,
      "ditionalĠ": 3645,
      "priorĠtoĠ": 3646,
      "cashĠflowsĠ": 3647,
      "Fo": 3648,
      "esĠandĠotherĠ": 3649,
      "ultim": 3650,
      "accountingĠprincipl": 3651,
      "ofĠtheĠCompanyĠ": 3652,
      "Quarter": 3653,
      "investor": 3654,
      "oilĠandĠ": 3655,
      "viol": 3656,
      "5,0": 3657,
      "ficationĠ": 3658,
      "spac": 3659,
      "moreĠthanĠ": 3660,
      "becauseĠ": 3661,
      "(a)": 3662,
      "ouĠ": 3663,
      "outĠ": 3664,
      "responsib": 3665,
      "expir": 3666,
      "conductĠ": 3667,
      "ringĠ": 3668,
      "dividendsĠ": 3669,
      "FIN": 3670,
      "appli": 3671,
      "Long": 3672,
      "read": 3673,
      "subs": 3674,
      "inĠanĠ": 3675,
      ").Ġ": 3676,
      "oundĠ": 3677,
      "KĠ": 3678,
      "62": 3679,
      "RegulationĠ": 3680,
      "qualif": 3681,
      "pastĠ": 3682,
      "vehic": 3683,
      "equity": 3684,
      "setĠforthĠ": 3685,
      "relatingĠtoĠ": 3686,
      "ongoingĠ": 3687,
      "DuringĠ": 3688,
      "-basedĠcompensationĠ": 3689,
      "Technolo": 3690,
      "ChangesĠinĠ": 3691,
      "relev": 3692,
      "potenti": 3693,
      "jointĠ": 3694,
      "FirstĠ": 3695,
      "whichĠtheĠ": 3696,
      "determineĠ": 3697,
      "She": 3698,
      "IncorporatedĠ": 3699,
      "statementĠ": 3700,
      "es,ĠwhichĠ": 3701,
      "es.ĠWeĠ": 3702,
      "ATEDĠ": 3703,
      "ere": 3704,
      "termsĠofĠtheĠ": 3705,
      "acquisition": 3706,
      "forĠeachĠ": 3707,
      "A.": 3708,
      "categ": 3709,
      "studi": 3710,
      "dom": 3711,
      "schedul": 3712,
      "Stand": 3713,
      "Proceed": 3714,
      "down": 3715,
      "1)": 3716,
      "eeĠ": 3717,
      "Securi": 3718,
      "renew": 3719,
      "Supple": 3720,
      "tren": 3721,
      "reli": 3722,
      "Accordingly,Ġ": 3723,
      "Ag": 3724,
      "prepar": 3725,
      "orĠaĠ": 3726,
      "OL": 3727,
      "negativelyĠ": 3728,
      "tempor": 3729,
      "transi": 3730,
      "s)Ġ": 3731,
      "asĠanĠ": 3732,
      "time,Ġ": 3733,
      "netĠincomeĠ": 3734,
      "Administr": 3735,
      "ERĠ": 3736,
      "complianceĠ": 3737,
      "inputsĠ": 3738,
      "Resul": 3739,
      "Syst": 3740,
      "StatementĠ": 3741,
      "underwrit": 3742,
      "maxim": 3743,
      "regardingĠtheĠ": 3744,
      "differenc": 3745,
      "sionĠandĠ": 3746,
      "livedĠ": 3747,
      "EndedĠ": 3748,
      "ww": 3749,
      "ing:": 3750,
      "thirdĠpartiesĠ": 3751,
      "es,ĠincludingĠ": 3752,
      "productĠcandidatesĠ": 3753,
      "esĠinĠtheĠ": 3754,
      "Cour": 3755,
      "Ro": 3756,
      "purchasedĠ": 3757,
      "resultsĠofĠoperationsĠ": 3758,
      "ulĠ": 3759,
      "hold": 3760,
      "uni": 3761,
      "1,7": 3762,
      "capacityĠ": 3763,
      "responsibleĠ": 3764,
      "etsĠ": 3765,
      "4,Ġ": 3766,
      "ourĠbusinessĠ": 3767,
      "Cali": 3768,
      "milli": 3769,
      "PARTĠ": 3770,
      "3-": 3771,
      "1,8": 3772,
      "theĠCompanyâĢĻsĠ": 3773,
      "restrictionsĠ": 3774,
      "icĠandĠ": 3775,
      "orĠanyĠ": 3776,
      "forn": 3777,
      "restrictedĠstockĠ": 3778,
      "gres": 3779,
      "alleng": 3780,
      "websit": 3781,
      "Commer": 3782,
      "requir": 3783,
      "legisl": 3784,
      "s):": 3785,
      "generateĠ": 3786,
      "successfullyĠ": 3787,
      "inher": 3788,
      "analysi": 3789,
      "worl": 3790,
      "differĠ": 3791,
      "changesĠinĠtheĠ": 3792,
      "acro": 3793,
      "priceĠofĠ": 3794,
      "OC": 3795,
      "business.": 3796,
      "failĠ": 3797,
      "Partnership": 3798,
      "generatedĠ": 3799,
      "standardĠ": 3800,
      "Â®": 3801,
      "IndicateĠbyĠcheckĠmarkĠ": 3802,
      "counter": 3803,
      "Californ": 3804,
      "REIT": 3805,
      "carry": 3806,
      "costsĠofĠ": 3807,
      "Owner": 3808,
      "allocatedĠ": 3809,
      "resultĠofĠtheĠ": 3810,
      "damag": 3811,
      "whichĠweĠ": 3812,
      "consist": 3813,
      "proces": 3814,
      "alizedĠ": 3815,
      "model": 3816,
      "len": 3817,
      "inventoryĠ": 3818,
      "2015Ġ": 3819,
      "rent": 3820,
      "amend": 3821,
      "criteriaĠ": 3822,
      "hel": 3823,
      "immedi": 3824,
      ".ĠAnyĠ": 3825,
      "Tex": 3826,
      "exceed": 3827,
      "SecuritiesĠExchangeĠ": 3828,
      "1ĠmillionĠ": 3829,
      "memberĠ": 3830,
      "imĠ": 3831,
      "willĠnotĠ": 3832,
      "JanuaryĠ1,Ġ201": 3833,
      "endĠofĠ": 3834,
      "2ĠmillionĠ": 3835,
      "policyĠ": 3836,
      "rĠ": 3837,
      "andĠRestatedĠ": 3838,
      "commenc": 3839,
      ".ĠInĠaddition": 3840,
      "challeng": 3841,
      "auto": 3842,
      "executiveĠofficer": 3843,
      "entsĠandĠ": 3844,
      "defic": 3845,
      "preventĠ": 3846,
      "nes": 3847,
      "Lin": 3848,
      "CON": 3849,
      "2022": 3850,
      "reimburse": 3851,
      "Jo": 3852,
      "allowanceĠforĠ": 3853,
      "âĹıĠ": 3854,
      "30Ġ": 3855,
      "requiredĠtoĠbeĠ": 3856,
      "Cos": 3857,
      "Wi": 3858,
      "2012Ġ": 3859,
      "air": 3860,
      "2016Ġ": 3861,
      "incentiveĠ": 3862,
      "SecuritiesĠandĠ": 3863,
      "FormĠofĠ": 3864,
      "redemptionĠ": 3865,
      "position": 3866,
      "ings": 3867,
      "haveĠanĠ": 3868,
      "ties.": 3869,
      "15Ġ": 3870,
      "TH": 3871,
      "FairĠ": 3872,
      "conf": 3873,
      "sharesĠofĠourĠ": 3874,
      "Pow": 3875,
      "-relatedĠ": 3876,
      "Loss": 3877,
      "mainĠ": 3878,
      "ipel": 3879,
      "ate,Ġ": 3880,
      "otedĠ": 3881,
      "ing.": 3882,
      "spons": 3883,
      "andĠadministrativeĠ": 3884,
      "themĠ": 3885,
      "Develop": 3886,
      "resultedĠ": 3887,
      "incorporatedĠhereinĠ": 3888,
      "isingĠ": 3889,
      "mak": 3890,
      "record": 3891,
      "couldĠresultĠinĠ": 3892,
      "earlyĠ": 3893,
      "Restric": 3894,
      "recentĠ": 3895,
      "incorpor": 3896,
      "Stockholder": 3897,
      "Col": 3898,
      "researchĠandĠdevelopmentĠ": 3899,
      "ations.": 3900,
      "evenĠ": 3901,
      "accountedĠforĠ": 3902,
      "availableĠforĠ": 3903,
      "how": 3904,
      "includedĠinĠtheĠ": 3905,
      "pharmaceu": 3906,
      "acceptedĠ": 3907,
      "11.": 3908,
      "communic": 3909,
      "s,ĠweĠ": 3910,
      "3ĠmillionĠ": 3911,
      "consoli": 3912,
      "more": 3913,
      "rightĠtoĠ": 3914,
      "tĠtoĠtheĠ": 3915,
      "balanceĠsheetĠ": 3916,
      "CIALĠ": 3917,
      "extĠ": 3918,
      "byĠourĠ": 3919,
      "TopicĠ": 3920,
      "by": 3921,
      "continueĠ": 3922,
      "ation.Ġ": 3923,
      "retailĠ": 3924,
      "2018Ġ": 3925,
      "salesĠandĠ": 3926,
      "ures": 3927,
      "vot": 3928,
      "circumstanc": 3929,
      "nor": 3930,
      "complex": 3931,
      "activityĠ": 3932,
      "fam": 3933,
      "placeĠ": 3934,
      "geo": 3935,
      "amongĠotherĠthings,Ġ": 3936,
      "discre": 3937,
      "BoardĠofĠDirector": 3938,
      "lawĠ": 3939,
      "2017Ġ": 3940,
      "conditionsĠ": 3941,
      "above": 3942,
      "dent": 3943,
      "poin": 3944,
      "(7": 3945,
      "testĠ": 3946,
      "haveĠtheĠ": 3947,
      "err": 3948,
      "delin": 3949,
      "mean": 3950,
      "eca": 3951,
      "Eff": 3952,
      "result,Ġ": 3953,
      ".ĠThereĠ": 3954,
      "subsequentĠ": 3955,
      "outcom": 3956,
      "employmentĠ": 3957,
      "5,5": 3958,
      "istic": 3959,
      "devic": 3960,
      "debt": 3961,
      "productĠcandidat": 3962,
      "e,ĠandĠ": 3963,
      "Des": 3964,
      "designedĠtoĠ": 3965,
      "Inc.,Ġ": 3966,
      "tionĠorĠ": 3967,
      "1,6": 3968,
      "action": 3969,
      "Ġmater": 3970,
      "particularĠ": 3971,
      "consideredĠ": 3972,
      "6,0": 3973,
      "varie": 3974,
      "mortiz": 3975,
      "availableĠtoĠ": 3976,
      "personnel": 3977,
      "intendĠ": 3978,
      "portionĠofĠtheĠ": 3979,
      "es,ĠtheĠ": 3980,
      "primarilyĠdueĠtoĠ": 3981,
      "5,Ġ": 3982,
      "AmendedĠandĠRestatedĠ": 3983,
      "levelĠofĠ": 3984,
      "protectĠ": 3985,
      "adjustmentĠ": 3986,
      "s.ĠIfĠ": 3987,
      "grant": 3988,
      "Fore": 3989,
      "daysĠ": 3990,
      "whileĠ": 3991,
      "achieveĠ": 3992,
      "portionĠofĠ": 3993,
      "lowĠ": 3994,
      "wideĠ": 3995,
      "result": 3996,
      "Int": 3997,
      "mayĠalsoĠ": 3998,
      "s.ĠTheĠCompanyĠ": 3999,
      "affiliatesĠ": 4000,
      "defini": 4001,
      "BR": 4002,
      "ControlĠ": 4003,
      "FINAN": 4004,
      "waterĠ": 4005,
      "entĠofĠ": 4006,
      "failureĠtoĠ": 4007,
      "royal": 4008,
      "92": 4009,
      "relyĠ": 4010,
      "Leas": 4011,
      "pursuantĠtoĠSectionĠ": 4012,
      "BalanceĠShe": 4013,
      "Coun": 4014,
      "Spec": 4015,
      "region": 4016,
      "Repor": 4017,
      "expectĠtoĠ": 4018,
      "standardsĠ": 4019,
      "goti": 4020,
      "acquireĠ": 4021,
      "ratioĠ": 4022,
      "company,Ġ": 4023,
      "associatedĠwithĠtheĠ": 4024,
      "enteredĠintoĠaĠ": 4025,
      "derivativ": 4026,
      "Liabili": 4027,
      "Mo": 4028,
      "arn": 4029,
      "contingentĠ": 4030,
      "llĠ": 4031,
      "indemn": 4032,
      "believesĠ": 4033,
      "itig": 4034,
      "or,Ġ": 4035,
      "usef": 4036,
      "El": 4037,
      "decreasedĠ": 4038,
      "TR": 4039,
      "s'Ġ": 4040,
      "IR": 4041,
      ",Ġ2012": 4042,
      "forwardĠ": 4043,
      "makingĠ": 4044,
      "proceedsĠ": 4045,
      "relevantĠ": 4046,
      "SeeĠNoteĠ": 4047,
      "ibu": 4048,
      "firm": 4049,
      "willĠnotĠbeĠ": 4050,
      "expectĠ": 4051,
      "salesĠofĠ": 4052,
      "efore": 4053,
      "singleĠ": 4054,
      "accur": 4055,
      "ĠmillionĠandĠ$": 4056,
      "stockholdersĠ": 4057,
      "parĠ": 4058,
      ",ĠasĠwellĠasĠ": 4059,
      "PriorĠ": 4060,
      "product": 4061,
      "mitsĠ": 4062,
      "circumstancesĠ": 4063,
      "investingĠ": 4064,
      "patentsĠ": 4065,
      "advanc": 4066,
      "Pa": 4067,
      "representsĠ": 4068,
      "EC": 4069,
      "consumm": 4070,
      "wa": 4071,
      "gine": 4072,
      "liquidityĠ": 4073,
      "wayĠ": 4074,
      "brok": 4075,
      "ric": 4076,
      "forĠanyĠ": 4077,
      "expectedĠtoĠ": 4078,
      "varietyĠofĠ": 4079,
      "(a)Ġ": 4080,
      "faceĠ": 4081,
      "finalĠ": 4082,
      "reduceĠ": 4083,
      "commod": 4084,
      "SecuritiesĠandĠExchangeĠ": 4085,
      "allerĠ": 4086,
      "(8": 4087,
      "SecuritiesĠExchangeĠActĠofĠ19": 4088,
      "ty.": 4089,
      "failĠtoĠ": 4090,
      "EBIT": 4091,
      "7,0": 4092,
      "40,": 4093,
      "GEĠ": 4094,
      "pursu": 4095,
      "personalĠ": 4096,
      "8,Ġ": 4097,
      "VĠ": 4098,
      "FairĠValu": 4099,
      "performingĠ": 4100,
      "unrealizedĠ": 4101,
      "mayĠnotĠbeĠableĠtoĠ": 4102,
      "Gu": 4103,
      "Out": 4104,
      "observableĠ": 4105,
      "approvedĠ": 4106,
      "graph": 4107,
      "representĠ": 4108,
      "ents,Ġ": 4109,
      "prohib": 4110,
      "ategyĠ": 4111,
      "15(d": 4112,
      "ri": 4113,
      "was": 4114,
      "available": 4115,
      "%ĠofĠourĠ": 4116,
      "butĠnotĠ": 4117,
      "3)": 4118,
      "amortizationĠ": 4119,
      "Financ": 4120,
      "LIB": 4121,
      "mightĠ": 4122,
      "resultsĠofĠoperations.": 4123,
      "IONĠ": 4124,
      ".ĠAdditionally,Ġ": 4125,
      "BoardĠofĠDirectorsĠ": 4126,
      "variableĠ": 4127,
      "bill": 4128,
      "POR": 4129,
      "AsĠ": 4130,
      "considerĠ": 4131,
      "ExchangeĠAct": 4132,
      "Priv": 4133,
      "reductionĠ": 4134,
      "SharesĠ": 4135,
      "Good": 4136,
      "cumul": 4137,
      "Lt": 4138,
      "issuanceĠofĠ": 4139,
      "FASBĠ": 4140,
      "asterĠ": 4141,
      "4ĠmillionĠ": 4142,
      "continuingĠ": 4143,
      "(\"": 4144,
      "eligibleĠ": 4145,
      "Group": 4146,
      "pandem": 4147,
      "gen": 4148,
      "DAĠ": 4149,
      "expectedĠtoĠbeĠ": 4150,
      "calculatedĠ": 4151,
      "reporting": 4152,
      "applyĠ": 4153,
      "BasedĠ": 4154,
      "orĠourĠ": 4155,
      "eder": 4156,
      "atorĠ": 4157,
      "deposit": 4158,
      "SĠANDĠ": 4159,
      "lastĠ": 4160,
      "C.Ġ": 4161,
      "7ĠmillionĠ": 4162,
      "aĠandĠ": 4163,
      "acquisitionĠofĠ": 4164,
      "successfulĠ": 4165,
      "noĠassuranceĠ": 4166,
      "estimateĠ": 4167,
      "6,5": 4168,
      "GAAP": 4169,
      "placementĠ": 4170,
      "Up": 4171,
      "âĢĿĠandĠ": 4172,
      "fundingĠ": 4173,
      "advant": 4174,
      "anyĠsuchĠ": 4175,
      "âĢĻs": 4176,
      "eĠisĠ": 4177,
      "specifiedĠ": 4178,
      "intendedĠ": 4179,
      "personĠ": 4180,
      "withĠanĠ": 4181,
      "stra": 4182,
      "2019Ġ": 4183,
      "dependĠ": 4184,
      "6ĠmillionĠ": 4185,
      "include": 4186,
      "ItĠ": 4187,
      "8ĠmillionĠ": 4188,
      "ier": 4189,
      "16.": 4190,
      "unlessĠ": 4191,
      "pursuantĠtoĠtheĠ": 4192,
      "shallĠ": 4193,
      "report": 4194,
      "degre": 4195,
      "providingĠ": 4196,
      "throug": 4197,
      "Accru": 4198,
      "affectĠtheĠ": 4199,
      "LLCĠ": 4200,
      "examin": 4201,
      "harmĠ": 4202,
      "Trust": 4203,
      "testingĠ": 4204,
      "7,Ġ": 4205,
      "ations.Ġ": 4206,
      "ThisĠ": 4207,
      "RegistrantâĢĻsĠ": 4208,
      "weightedĠaverageĠ": 4209,
      "FiscalĠ": 4210,
      "notic": 4211,
      "93": 4212,
      "lawsĠ": 4213,
      "data": 4214,
      "assessmentĠ": 4215,
      "majorĠ": 4216,
      "olĠ": 4217,
      "controlsĠandĠ": 4218,
      "whichĠareĠ": 4219,
      "+Ġ": 4220,
      "Assets": 4221,
      "Compens": 4222,
      "consult": 4223,
      "8,0": 4224,
      "bankingĠ": 4225,
      "les": 4226,
      "pair": 4227,
      "ConvertibleĠ": 4228,
      "elimin": 4229,
      "NetĠcashĠ": 4230,
      "72": 4231,
      "Utili": 4232,
      "fourthĠ": 4233,
      "9,Ġ": 4234,
      "boardĠofĠdirector": 4235,
      "ofĠthisĠ": 4236,
      "writtenĠ": 4237,
      "Sign": 4238,
      "AllĠ": 4239,
      "ifĠany,Ġ": 4240,
      "âĢĳ": 4241,
      "tingĠtheĠ": 4242,
      "63": 4243,
      ",ĠwhichĠisĠ": 4244,
      "Compre": 4245,
      "fourĠ": 4246,
      "one-": 4247,
      "isĠtoĠ": 4248,
      "reput": 4249,
      "reflectedĠ": 4250,
      "ed.Ġ": 4251,
      "esĠofĠtheĠ": 4252,
      "NationalĠ": 4253,
      "RestrictedĠ": 4254,
      "73": 4255,
      "Operations": 4256,
      "Program": 4257,
      "es;": 4258,
      "anch": 4259,
      "asset": 4260,
      "concern": 4261,
      "CurrentĠReportĠonĠFormĠ8-KĠ": 4262,
      "firmĠ": 4263,
      "import": 4264,
      "establishedĠ": 4265,
      "trade": 4266,
      "servedĠasĠ": 4267,
      "underĠourĠ": 4268,
      "sumer": 4269,
      "longerĠ": 4270,
      "ies.": 4271,
      "deal": 4272,
      "WeĠareĠ": 4273,
      "leadĠ": 4274,
      "discussionĠ": 4275,
      "Der": 4276,
      "/202": 4277,
      "completeĠ": 4278,
      "toĠpurchaseĠ": 4279,
      "40Ġ": 4280,
      "L.": 4281,
      "us,Ġ": 4282,
      "e)Ġ": 4283,
      ",Ġ2022": 4284,
      "82": 4285,
      "PhaseĠ": 4286,
      "COVID-19Ġ": 4287,
      "exchang": 4288,
      "income,Ġ": 4289,
      "RegistrationĠ": 4290,
      "compris": 4291,
      "Ox": 4292,
      "arrangement": 4293,
      "thatĠaĠ": 4294,
      "competeĠ": 4295,
      "decreaseĠ": 4296,
      "reasuryĠ": 4297,
      "presentsĠ": 4298,
      "focus": 4299,
      "Univers": 4300,
      "quanti": 4301,
      "behalfĠ": 4302,
      "comput": 4303,
      "reducedĠ": 4304,
      "decision": 4305,
      "9ĠmillionĠ": 4306,
      "reserveĠ": 4307,
      "balanc": 4308,
      "evid": 4309,
      "DecemberĠ31,Ġ2023": 4310,
      "WhileĠ": 4311,
      "emergingĠ": 4312,
      "usefulĠ": 4313,
      "ServicesĠ": 4314,
      "super": 4315,
      "marginĠ": 4316,
      "applicationsĠ": 4317,
      "ensureĠ": 4318,
      "of-": 4319,
      "Amortiz": 4320,
      "intangibleĠassetsĠ": 4321,
      "1)Ġ": 4322,
      "34.": 4323,
      "excessĠ": 4324,
      "securities,Ġ": 4325,
      "priceĠofĠourĠ": 4326,
      "jointĠven": 4327,
      "8,5": 4328,
      "FDA": 4329,
      "forĠtheĠyearsĠendedĠDecemberĠ31,Ġ201": 4330,
      "heldĠbyĠ": 4331,
      "toĠtheĠextentĠ": 4332,
      "interestĠratesĠ": 4333,
      "negoti": 4334,
      "plantĠ": 4335,
      "competitorsĠ": 4336,
      "12Ġ": 4337,
      "FINANCIALĠ": 4338,
      "NewĠYorkĠ": 4339,
      "MarchĠ31,Ġ201": 4340,
      "Corp": 4341,
      "1,4": 4342,
      "subjec": 4343,
      "statutoryĠ": 4344,
      "AccountsĠ": 4345,
      "RO": 4346,
      "âĺĲ": 4347,
      "$3.": 4348,
      ".ĠAtĠ": 4349,
      "proposedĠ": 4350,
      "intoĠtheĠ": 4351,
      "permit": 4352,
      "inĠtheĠfutureĠ": 4353,
      "termsĠ": 4354,
      "alleg": 4355,
      "StateĠ": 4356,
      "33.": 4357,
      "Over": 4358,
      "III": 4359,
      "exce": 4360,
      "levelĠ": 4361,
      "borrowingsĠ": 4362,
      "enterĠintoĠ": 4363,
      "criticalĠ": 4364,
      "Mon": 4365,
      "tonĠ": 4366,
      "strategyĠ": 4367,
      "priorĠtoĠtheĠ": 4368,
      "ele": 4369,
      "enac": 4370,
      "paid": 4371,
      "governmentalĠ": 4372,
      "weak": 4373,
      "litigationĠ": 4374,
      "stim": 4375,
      "intendĠtoĠ": 4376,
      "Analy": 4377,
      "Leg": 4378,
      "hy": 4379,
      "inĠaccordanceĠwithĠtheĠ": 4380,
      "uresĠ": 4381,
      "complet": 4382,
      "sellingĠ": 4383,
      "%ĠandĠ": 4384,
      "repurchaseĠ": 4385,
      "chem": 4386,
      "depositĠ": 4387,
      "bestĠ": 4388,
      "trust": 4389,
      "Corporation": 4390,
      "sta": 4391,
      "Ġmillion,ĠorĠ": 4392,
      "feat": 4393,
      "Ltd": 4394,
      "nextĠ": 4395,
      "PartnershipĠ": 4396,
      "adjustedĠ": 4397,
      "Ġ(âĢľ": 4398,
      "Be": 4399,
      "multipleĠ": 4400,
      "tiesĠandĠ": 4401,
      "ResultsĠofĠ": 4402,
      "ents": 4403,
      ".ĠMr.Ġ": 4404,
      "CommitteeĠ": 4405,
      "brand": 4406,
      "es-": 4407,
      "Disclosu": 4408,
      "settlementĠ": 4409,
      "princip": 4410,
      "opportunitiesĠ": 4411,
      "vend": 4412,
      "ceĠ": 4413,
      "patientĠ": 4414,
      "FromĠ": 4415,
      "AuditĠ": 4416,
      "Chair": 4417,
      "thirdĠpar": 4418,
      "restruc": 4419,
      "SH": 4420,
      ",Ġ2023": 4421,
      "operationalĠ": 4422,
      "Europe": 4423,
      "than": 4424,
      "requiredĠbyĠ": 4425,
      "edĠatĠ": 4426,
      "short-termĠ": 4427,
      "infring": 4428,
      "6,Ġ": 4429,
      "offĠ": 4430,
      "lifeĠ": 4431,
      "ForeignĠ": 4432,
      "revolvingĠ": 4433,
      "stre": 4434,
      "haveĠnotĠ": 4435,
      "conductedĠ": 4436,
      "NumberĠ": 4437,
      "isĠsubjectĠtoĠ": 4438,
      "pharmaceuticalĠ": 4439,
      "youĠ": 4440,
      "CM": 4441,
      "anĠaggregateĠ": 4442,
      "sis": 4443,
      "atel": 4444,
      "recognizeĠ": 4445,
      "consolidatedĠstatementsĠofĠ": 4446,
      "83": 4447,
      "31.": 4448,
      "ferredĠtoĠ": 4449,
      "Industr": 4450,
      "car": 4451,
      "orĠtoĠ": 4452,
      "ted-": 4453,
      "amountĠofĠtheĠ": 4454,
      "orderĠ": 4455,
      "norm": 4456,
      "amountsĠofĠ": 4457,
      "Car": 4458,
      "generallyĠacceptedĠ": 4459,
      "SI": 4460,
      "allowĠ": 4461,
      "premium": 4462,
      "90Ġ": 4463,
      "20.": 4464,
      "byĠaĠ": 4465,
      "test": 4466,
      "eld": 4467,
      "InĠaddition,Ġ": 4468,
      "registrant": 4469,
      "detail": 4470,
      "acrossĠ": 4471,
      "AnnualĠReportĠonĠFormĠ10-K": 4472,
      "commonĠsharesĠ": 4473,
      "priceĠofĠ$": 4474,
      ":Ġ(": 4475,
      "nov": 4476,
      "dig": 4477,
      "potentiallyĠ": 4478,
      "transfer": 4479,
      "operations.": 4480,
      "SĠOFĠ": 4481,
      "long-": 4482,
      "Deriv": 4483,
      "tyĠandĠ": 4484,
      "(iii)Ġ": 4485,
      "9,0": 4486,
      "equipment": 4487,
      "alĠofĠ": 4488,
      "developmentĠandĠ": 4489,
      "Dr": 4490,
      "ityĠofĠ": 4491,
      "plansĠ": 4492,
      "Resear": 4493,
      "(3,": 4494,
      "atĠtheĠtim": 4495,
      "boardĠofĠdirectorsĠ": 4496,
      "modelĠ": 4497,
      "Matter": 4498,
      "temporaryĠ": 4499,
      "ary": 4500,
      "TOĠ": 4501,
      "thirdĠpartyĠ": 4502,
      "Mid": 4503,
      "forĠsuchĠ": 4504,
      ".ĠAllĠ": 4505,
      "9,5": 4506,
      "platform": 4507,
      "originalĠ": 4508,
      "reĠ": 4509,
      "infras": 4510,
      "resultsĠofĠoperationsĠandĠ": 4511,
      "Capital": 4512,
      "ComprehensiveĠ": 4513,
      "5,000Ġ": 4514,
      "11Ġ": 4515,
      "otherĠcomprehensiveĠ": 4516,
      "199": 4517,
      "authoritiesĠ": 4518,
      "servicingĠ": 4519,
      "taxesĠ": 4520,
      "which": 4521,
      "SECUR": 4522,
      "esĠaĠ": 4523,
      "ally": 4524,
      "s,": 4525,
      "saf": 4526,
      "for-": 4527,
      "managementâĢĻsĠ": 4528,
      "DelawareĠ": 4529,
      "Ne": 4530,
      "services,Ġ": 4531,
      "dollar": 4532,
      "siz": 4533,
      "information": 4534,
      "\")Ġ": 4535,
      "reasonableĠassuranceĠ": 4536,
      "ManagementâĢĻsĠ": 4537,
      "STATEMENT": 4538,
      "redeem": 4539,
      "products.Ġ": 4540,
      "allĠofĠourĠ": 4541,
      "anyĠofĠourĠ": 4542,
      "12Ġmonth": 4543,
      "head": 4544,
      "foreignĠcurrencyĠ": 4545,
      "professionalĠ": 4546,
      "ThereĠ": 4547,
      "warrant": 4548,
      "rever": 4549,
      "classifiedĠasĠ": 4550,
      "trend": 4551,
      "Lif": 4552,
      "applicationĠ": 4553,
      "acceleratedĠfiler": 4554,
      "interestĠrat": 4555,
      "registrationĠ": 4556,
      "acter": 4557,
      "opinion": 4558,
      "gineer": 4559,
      "separateĠ": 4560,
      "Offer": 4561,
      "residentialĠ": 4562,
      "interpre": 4563,
      "hasĠaĠ": 4564,
      "filedĠwithĠtheĠSECĠ": 4565,
      "oreĠ": 4566,
      "quotedĠ": 4567,
      "withĠrespectĠtoĠtheĠ": 4568,
      "partiallyĠoffsetĠbyĠ": 4569,
      "333-": 4570,
      "profitĠ": 4571,
      "percentĠ": 4572,
      "aleĠ": 4573,
      "occurĠ": 4574,
      "1,9": 4575,
      "ted.": 4576,
      "pipel": 4577,
      "liabilities,Ġ": 4578,
      "takenĠ": 4579,
      "serveĠ": 4580,
      "NOT": 4581,
      "ates": 4582,
      "solutionsĠ": 4583,
      "2022Ġ": 4584,
      "AtĠ": 4585,
      "reduceĠtheĠ": 4586,
      "stockĠoptionsĠ": 4587,
      "competitionĠ": 4588,
      "CashĠF": 4589,
      "AsĠofĠDecemberĠ31,Ġ201": 4590,
      "Association": 4591,
      "-yearĠ": 4592,
      "PA": 4593,
      "PS": 4594,
      "fuelĠ": 4595,
      "consistentĠ": 4596,
      "inherentĠ": 4597,
      "anno": 4598,
      "sĠthatĠareĠ": 4599,
      "gas": 4600,
      "nation": 4601,
      "(0.": 4602,
      "thatĠmayĠ": 4603,
      "coverĠ": 4604,
      "2011": 4605,
      "doub": 4606,
      "bon": 4607,
      "years": 4608,
      "secur": 4609,
      "able.": 4610,
      "Sar": 4611,
      "GlobalĠ": 4612,
      "YesĠ": 4613,
      ",ĠLLC": 4614,
      "maximumĠ": 4615,
      "raiseĠ": 4616,
      "delayĠ": 4617,
      "transport": 4618,
      "issuedĠandĠ": 4619,
      "Polic": 4620,
      "commitmentsĠ": 4621,
      "weĠareĠunableĠtoĠ": 4622,
      "InsuranceĠ": 4623,
      "electron": 4624,
      "Data": 4625,
      "toĠprovideĠ": 4626,
      "Expens": 4627,
      "regulations,Ġ": 4628,
      "backĠ": 4629,
      "2,7": 4630,
      "CommonĠStock": 4631,
      "entitledĠtoĠ": 4632,
      "a-": 4633,
      "sus": 4634,
      "AccruedĠ": 4635,
      "operatingĠresul": 4636,
      "ICĠ": 4637,
      "umanĠ": 4638,
      "includeĠtheĠ": 4639,
      "margin": 4640,
      "assis": 4641,
      "DIS": 4642,
      "Shares": 4643,
      "NA": 4644,
      "alternativeĠ": 4645,
      "oilĠ": 4646,
      "junc": 4647,
      "Inde": 4648,
      "dateĠofĠtheĠ": 4649,
      "warran": 4650,
      "ferĠtoĠ": 4651,
      "18Ġ": 4652,
      "Holdings,Ġ": 4653,
      "dilutedĠ": 4654,
      "Equi": 4655,
      "Elec": 4656,
      "NorthĠ": 4657,
      "standingĠ": 4658,
      "maintenanceĠ": 4659,
      "GroupĠ": 4660,
      "extendedĠ": 4661,
      "1ĠtoĠ": 4662,
      "officeĠ": 4663,
      "ick": 4664,
      "Initi": 4665,
      "companies,Ġ": 4666,
      "world": 4667,
      "fromĠaĠ": 4668,
      "sk": 4669,
      "Depreci": 4670,
      "Resourc": 4671,
      "ectiveĠ": 4672,
      "termsĠofĠ": 4673,
      "13.": 4674,
      "18.": 4675,
      "warrantĠ": 4676,
      "ingsĠandĠ": 4677,
      "willĠcontinueĠtoĠ": 4678,
      "currenc": 4679,
      "performanc": 4680,
      "Canad": 4681,
      "anĠincreaseĠinĠ": 4682,
      "17.": 4683,
      "opinionĠ": 4684,
      "PresidentĠandĠ": 4685,
      "FundĠ": 4686,
      "remedi": 4687,
      "CF": 4688,
      "ingĠorĠ": 4689,
      "needĠtoĠ": 4690,
      "networkĠ": 4691,
      "measurementĠ": 4692,
      "requirements,Ġ": 4693,
      "equalĠtoĠ": 4694,
      "CommercialĠ": 4695,
      "vestĠ": 4696,
      "claimĠ": 4697,
      "account": 4698,
      "dispos": 4699,
      "containĠ": 4700,
      "Cod": 4701,
      "LT": 4702,
      "defaultĠ": 4703,
      "preferredĠstockĠ": 4704,
      "ierĠ": 4705,
      "LossĠ": 4706,
      "Sol": 4707,
      "Lou": 4708,
      "actĠ": 4709,
      "ason": 4710,
      "comparableĠ": 4711,
      "encyĠ": 4712,
      "arisingĠ": 4713,
      "AG": 4714,
      "SecurityĠ": 4715,
      "conclud": 4716,
      "isĠrecognizedĠ": 4717,
      "stockĠop": 4718,
      "-to-": 4719,
      "setsĠ": 4720,
      "FOR": 4721,
      "andĠaĠ": 4722,
      "Market": 4723,
      "dianĠ": 4724,
      "1.0": 4725,
      "OB": 4726,
      "GAAPĠ": 4727,
      "ight-": 4728,
      "transferĠ": 4729,
      "inĠtheĠUnitedĠStat": 4730,
      "lawsĠandĠregulationsĠ": 4731,
      "itativeĠ": 4732,
      "flic": 4733,
      "okĠ": 4734,
      "auditedĠ": 4735,
      "lender": 4736,
      "costs": 4737,
      "post-": 4738,
      "âĢĶĠ(": 4739,
      "2ĠofĠtheĠ": 4740,
      "after": 4741,
      "fromĠtimeĠtoĠ": 4742,
      "involveĠ": 4743,
      "identifiedĠ": 4744,
      "ratio": 4745,
      "drivenĠ": 4746,
      "Net": 4747,
      "00,000": 4748,
      "preced": 4749,
      "effectivelyĠ": 4750,
      "Qual": 4751,
      "relativeĠ": 4752,
      ".ĠInĠtheĠ": 4753,
      "19.": 4754,
      "Compensation": 4755,
      "Sarban": 4756,
      "Ob": 4757,
      "caus": 4758,
      "sust": 4759,
      "DecemberĠ31,": 4760,
      "reclassi": 4761,
      "financialĠinstitu": 4762,
      "GrossĠ": 4763,
      "involv": 4764,
      "ificantĠ": 4765,
      "identifi": 4766,
      ",ĠweĠhadĠ": 4767,
      "Securities": 4768,
      "0,": 4769,
      "whichĠisĠ": 4770,
      "eachĠofĠtheĠ": 4771,
      "competitor": 4772,
      "partnerĠ": 4773,
      "commodityĠ": 4774,
      "$1,": 4775,
      "00,000Ġ": 4776,
      "andĠitsĠ": 4777,
      "ari": 4778,
      "shareholderĠ": 4779,
      "represent": 4780,
      "PursuantĠtoĠtheĠ": 4781,
      "taryĠ": 4782,
      ",ĠM": 4783,
      "specific": 4784,
      "bey": 4785,
      "amended": 4786,
      "easure": 4787,
      "5%Ġ": 4788,
      "whenĠtheĠ": 4789,
      "ative": 4790,
      "agreementsĠwithĠ": 4791,
      "inĠorderĠtoĠ": 4792,
      "install": 4793,
      "XBR": 4794,
      "retain": 4795,
      "thatĠitĠ": 4796,
      "financialĠcondition,Ġ": 4797,
      "Control": 4798,
      "..": 4799,
      "arch": 4800,
      "categor": 4801,
      "JuneĠ30": 4802,
      "monthlyĠ": 4803,
      "familyĠ": 4804,
      "ED": 4805,
      "esĠandĠtheĠ": 4806,
      "001-": 4807,
      "interestĠinĠ": 4808,
      "Licen": 4809,
      "hasĠnotĠ": 4810,
      "twel": 4811,
      "agreedĠtoĠ": 4812,
      "impactĠonĠourĠ": 4813,
      "incomeĠtaxesĠ": 4814,
      "eventĠofĠ": 4815,
      "holdersĠofĠ": 4816,
      "protectionĠ": 4817,
      "atĠall": 4818,
      "col": 4819,
      "UnitsĠ": 4820,
      "downĠ": 4821,
      "Includ": 4822,
      "limitationsĠ": 4823,
      "impactĠourĠ": 4824,
      "suppor": 4825,
      "theyĠareĠ": 4826,
      "remainĠ": 4827,
      "Well": 4828,
      "Doc": 4829,
      "designatedĠ": 4830,
      "inĠconnectionĠwithĠtheĠ": 4831,
      "(includingĠ": 4832,
      "yâĢĻsĠ": 4833,
      "riskĠofĠ": 4834,
      "Bank,ĠN": 4835,
      "HoldingsĠ": 4836,
      "submittedĠ": 4837,
      "Bio": 4838,
      "Distribu": 4839,
      "$7": 4840,
      "mob": 4841,
      "Date": 4842,
      "acquisitionsĠ": 4843,
      "2)": 4844,
      "stockholderĠ": 4845,
      "longĠ": 4846,
      "goingĠ": 4847,
      "transitionĠ": 4848,
      "financial": 4849,
      "rap": 4850,
      "atĠanyĠ": 4851,
      "usĠandĠ": 4852,
      "OxleyĠ": 4853,
      "areĠrecordedĠ": 4854,
      "thereĠisĠ": 4855,
      "AnnualĠReportĠonĠFormĠ10-KĠ": 4856,
      ".ĠWeĠbelieveĠ": 4857,
      "MergerĠ": 4858,
      "da": 4859,
      "definedĠ": 4860,
      "chargeĠ": 4861,
      "givenĠ": 4862,
      "54": 4863,
      "U.S.ĠfederalĠ": 4864,
      "ternalĠ": 4865,
      "ResearchĠ": 4866,
      "(seeĠ": 4867,
      "special": 4868,
      "chargesĠ": 4869,
      "correspon": 4870,
      "2,8": 4871,
      "SecuritiesĠExchangeĠActĠofĠ1934": 4872,
      "PrivateĠ": 4873,
      "14.": 4874,
      "Divid": 4875,
      "ankĠ": 4876,
      "rangeĠofĠ": 4877,
      "insu": 4878,
      "necessaryĠtoĠ": 4879,
      "aĠsignificantĠ": 4880,
      "Discus": 4881,
      "carryforward": 4882,
      "orĠin": 4883,
      "countriesĠ": 4884,
      "percentageĠofĠ": 4885,
      "52": 4886,
      "DecemberĠ31,Ġ2022": 4887,
      "ix": 4888,
      "responsibleĠforĠ": 4889,
      "Agreement,ĠdatedĠasĠofĠ": 4890,
      "siveĠ": 4891,
      "uncertainĠ": 4892,
      "60Ġ": 4893,
      "poli": 4894,
      "agreementĠwithĠ": 4895,
      "inĠcon": 4896,
      "thatĠcouldĠ": 4897,
      "roduc": 4898,
      "Sarbanes-": 4899,
      "hom": 4900,
      "vail": 4901,
      "AnyĠ": 4902,
      "weĠbelieveĠ": 4903,
      "Pric": 4904,
      "consolidatedĠfinancialĠstatements.": 4905,
      "numer": 4906,
      "$ĠâĢĶĠ": 4907,
      "satisfyĠ": 4908,
      "consolidatedĠbalanceĠshe": 4909,
      "cell": 4910,
      "capitaliz": 4911,
      "Ma": 4912,
      "connectionĠwithĠtheĠ": 4913,
      "XĠ": 4914,
      "partĠofĠtheĠ": 4915,
      "Ġmillion.": 4916,
      "beneficialĠ": 4917,
      "Fut": 4918,
      "civ": 4919,
      "3,7": 4920,
      "2,6": 4921,
      "e,ĠtheĠ": 4922,
      "moreĠlikelyĠ": 4923,
      "bl": 4924,
      "netĠoperatingĠ": 4925,
      "summariz": 4926,
      "(9": 4927,
      "56": 4928,
      "periodicĠ": 4929,
      "draw": 4930,
      "compensation": 4931,
      ",ĠInc.": 4932,
      "$6": 4933,
      "edĠtoĠtheĠ": 4934,
      "datedĠasĠofĠ": 4935,
      "embersĠ": 4936,
      "referredĠtoĠ": 4937,
      "Exerc": 4938,
      "Earn": 4939,
      "developmentĠofĠ": 4940,
      "forward-lookingĠstatementsĠ": 4941,
      "regulator": 4942,
      "objectiv": 4943,
      "personnelĠ": 4944,
      "peti": 4945,
      "excludingĠ": 4946,
      "commun": 4947,
      "smallerĠ": 4948,
      "EuropeanĠ": 4949,
      "constructionĠ": 4950,
      "team": 4951,
      "inĠthousands):": 4952,
      "inĠtheĠUnitedĠStatesĠ": 4953,
      "2010": 4954,
      "caseĠ": 4955,
      "Increas": 4956,
      "rupt": 4957,
      "whichĠcouldĠ": 4958,
      "endedĠDecemberĠ31,Ġ201": 4959,
      "sure": 4960,
      "FinancialĠCon": 4961,
      "logyĠ": 4962,
      "SecuritiesĠandĠExchangeĠCommissionĠ": 4963,
      "plann": 4964,
      "estimatesĠandĠ": 4965,
      "thernĠ": 4966,
      "roll": 4967,
      "criptionĠ": 4968,
      "investmentsĠinĠ": 4969,
      "receip": 4970,
      "unrecognizedĠ": 4971,
      "Perform": 4972,
      "50,": 4973,
      "sav": 4974,
      "property,Ġ": 4975,
      "assessĠ": 4976,
      "such": 4977,
      "establishĠ": 4978,
      "expl": 4979,
      "retainĠ": 4980,
      "101.": 4981,
      "onĠanĠ": 4982,
      "interestĠincomeĠ": 4983,
      "U.S.": 4984,
      "aster": 4985,
      "InĠtheĠ": 4986,
      "becom": 4987,
      "$Ġ2": 4988,
      "capitalizedĠ": 4989,
      "technologiesĠ": 4990,
      "Factor": 4991,
      "ExhibitĠ10.": 4992,
      "clinicalĠtrialĠ": 4993,
      "Min": 4994,
      "laws,Ġ": 4995,
      "inĠconnectionĠwithĠ": 4996,
      "Board": 4997,
      "shouldĠbeĠ": 4998,
      "evaluatedĠ": 4999,
      "ENTĠ": 5000,
      "aĠnumberĠofĠ": 5001,
      "particularlyĠ": 5002,
      "physici": 5003,
      "economicĠcondition": 5004,
      "accordanceĠwithĠ": 5005,
      "Sarbanes-OxleyĠ": 5006,
      "$Ġ1,": 5007,
      "AdjustedĠ": 5008,
      "anufac": 5009,
      "yieldĠ": 5010,
      "byĠandĠbetweenĠ": 5011,
      "character": 5012,
      "transl": 5013,
      "HealthĠ": 5014,
      "Analysi": 5015,
      "AssetĠ": 5016,
      "developedĠ": 5017,
      "(theĠ": 5018,
      "feit": 5019,
      "identif": 5020,
      "2,9": 5021,
      "drill": 5022,
      "foc": 5023,
      "QuarterlyĠ": 5024,
      "concentr": 5025,
      "depositsĠ": 5026,
      "getherĠ": 5027,
      "scop": 5028,
      "businessĠcombinationĠ": 5029,
      "flo": 5030,
      "pas": 5031,
      "resourcesĠ": 5032,
      "view": 5033,
      "financialĠreportingĠ": 5034,
      "increaseĠtheĠ": 5035,
      "oftenĠ": 5036,
      "NetĠincomeĠ": 5037,
      "CHAN": 5038,
      "DebtĠ": 5039,
      "(c": 5040,
      "volatilityĠ": 5041,
      "age,Ġ": 5042,
      "ucle": 5043,
      "electĠ": 5044,
      "actu": 5045,
      "NY": 5046,
      "fluctuationsĠ": 5047,
      "releas": 5048,
      "agno": 5049,
      "consequ": 5050,
      "Association,ĠasĠ": 5051,
      "mayĠhaveĠ": 5052,
      "stateĠandĠ": 5053,
      "INĠ": 5054,
      "exten": 5055,
      "10-QĠ": 5056,
      "beyondĠ": 5057,
      "investment": 5058,
      "monthsĠ": 5059,
      "interimĠ": 5060,
      "resultĠinĠaĠ": 5061,
      "freeĠ": 5062,
      "ash": 5063,
      "affiliatedĠ": 5064,
      "deemĠ": 5065,
      "Perio": 5066,
      "1/": 5067,
      "lesĠ": 5068,
      "combinedĠ": 5069,
      "conflic": 5070,
      "auditsĠ": 5071,
      "SECURITI": 5072,
      "businessesĠ": 5073,
      "(3)": 5074,
      "s.ĠS": 5075,
      "less": 5076,
      "commonĠstock,Ġ": 5077,
      "Accum": 5078,
      "ShareĠ": 5079,
      "Stre": 5080,
      "effectĠofĠ": 5081,
      "suit": 5082,
      "Docu": 5083,
      "inalĠ": 5084,
      "treatmentĠ": 5085,
      "405Ġ": 5086,
      "discontinuedĠ": 5087,
      "payable": 5088,
      "4)": 5089,
      "development": 5090,
      "evaluatingĠtheĠ": 5091,
      "deliveryĠ": 5092,
      "ledg": 5093,
      "5.0": 5094,
      "domes": 5095,
      "AccumulatedĠ": 5096,
      "capitalĠexpenditure": 5097,
      "excessĠofĠ": 5098,
      "projectĠ": 5099,
      "expenses,Ġ": 5100,
      "ors,Ġ": 5101,
      "responsibilityĠ": 5102,
      "loansĠandĠ": 5103,
      "vision": 5104,
      "penaltiesĠ": 5105,
      "focusĠ": 5106,
      "(asĠdefin": 5107,
      "anĠadditionalĠ": 5108,
      "frequ": 5109,
      "operations": 5110,
      "feder": 5111,
      "Bl": 5112,
      "enceĠofĠ": 5113,
      "(b)Ġ": 5114,
      "togetherĠ": 5115,
      "amendmentsĠ": 5116,
      "OPER": 5117,
      ",ĠweĠhaveĠ": 5118,
      "controlsĠ": 5119,
      "inĠanyĠ": 5120,
      "58": 5121,
      "rentalĠ": 5122,
      "onĠitsĠ": 5123,
      "Ġ(FileĠNo.Ġ": 5124,
      "shipĠofĠ": 5125,
      "reservesĠ": 5126,
      "erâĢĻsĠ": 5127,
      "57": 5128,
      "InformationĠ": 5129,
      "advertisingĠ": 5130,
      "consumer": 5131,
      "externalĠ": 5132,
      "shareholdersĠ": 5133,
      "met": 5134,
      "Port": 5135,
      "investĠ": 5136,
      "Account": 5137,
      "factors,Ġ": 5138,
      "EQU": 5139,
      "million": 5140,
      "classĠ": 5141,
      "ificationĠ": 5142,
      "TS": 5143,
      "fiscalĠyearĠendedĠ": 5144,
      "XBRLĠ": 5145,
      "forecas": 5146,
      "Ġme": 5147,
      "(b)": 5148,
      "cashĠandĠcashĠequival": 5149,
      "DiscussionĠandĠ": 5150,
      "smallĠ": 5151,
      "influ": 5152,
      "THEĠ": 5153,
      "COU": 5154,
      "geograph": 5155,
      "2011Ġ": 5156,
      "assign": 5157,
      "enderĠ": 5158,
      "straight-": 5159,
      "introduc": 5160,
      "projectedĠ": 5161,
      "emergingĠgrowthĠ": 5162,
      "announc": 5163,
      "growth": 5164,
      "anticipateĠ": 5165,
      "50%Ġ": 5166,
      "oringĠ": 5167,
      "ofĠRegulationĠ": 5168,
      "quareĠ": 5169,
      "toĠmakeĠ": 5170,
      "FormĠ10-K": 5171,
      "CashĠFlow": 5172,
      "valueĠofĠourĠ": 5173,
      "measureĠ": 5174,
      "anti-": 5175,
      "CC": 5176,
      "typesĠofĠ": 5177,
      "initiativ": 5178,
      "Rece": 5179,
      "InitialĠ": 5180,
      "redemp": 5181,
      "Energ": 5182,
      "consistedĠ": 5183,
      "basis,Ġ": 5184,
      "AccountingĠStand": 5185,
      "decla": 5186,
      "Sum": 5187,
      "including,Ġ": 5188,
      "reflectĠtheĠ": 5189,
      "MedicareĠ": 5190,
      "ers": 5191,
      "4,8": 5192,
      "companyâĢĻsĠ": 5193,
      "policiesĠandĠ": 5194,
      "%Ġ(": 5195,
      "UN": 5196,
      "care": 5197,
      "app": 5198,
      "risksĠandĠ": 5199,
      "systemsĠ": 5200,
      "comprisedĠ": 5201,
      "outstanding": 5202,
      "Equity": 5203,
      "urringĠ": 5204,
      "broad": 5205,
      "heldĠforĠ": 5206,
      "creditĠfacilityĠ": 5207,
      "them": 5208,
      "Inc.ĠandĠ": 5209,
      "Louisi": 5210,
      "Beca": 5211,
      "responseĠ": 5212,
      "accessĠtoĠ": 5213,
      "carri": 5214,
      "identifyĠ": 5215,
      "weĠdoĠnotĠ": 5216,
      "Technolog": 5217,
      "chann": 5218,
      "(10": 5219,
      "AverageĠ": 5220,
      "immediatelyĠ": 5221,
      "ior": 5222,
      "ofĠanyĠ": 5223,
      "agesĠ": 5224,
      "tsĠtheĠ": 5225,
      "edĠonĠtheĠ": 5226,
      "proxyĠ": 5227,
      "capabili": 5228,
      "Louisian": 5229,
      "enhanc": 5230,
      "edĠbyĠourĠ": 5231,
      "Seg": 5232,
      "additionĠtoĠ": 5233,
      "3,8": 5234,
      "filedĠwithĠtheĠSECĠonĠ": 5235,
      ",Ġ2011": 5236,
      "Indent": 5237,
      "losses": 5238,
      "RegistrantĠ": 5239,
      ".ĠWeĠhaveĠ": 5240,
      "AmericanĠ": 5241,
      "brandĠ": 5242,
      "59": 5243,
      "SeptemberĠ30": 5244,
      "mentaryĠ": 5245,
      "inĠitsĠ": 5246,
      "ubli": 5247,
      "WhenĠ": 5248,
      "milest": 5249,
      "moreĠlikelyĠthanĠ": 5250,
      "approachĠ": 5251,
      "specialĠ": 5252,
      "couldĠhaveĠaĠmaterialĠadverseĠeffectĠonĠourĠ": 5253,
      "putĠ": 5254,
      ".ĠAsĠofĠDecemberĠ31,Ġ201": 5255,
      "shares,Ġ": 5256,
      "technicalĠ": 5257,
      "breachĠ": 5258,
      "NOTEĠ": 5259,
      "Vir": 5260,
      "formerĠ": 5261,
      "hand": 5262,
      "importantĠ": 5263,
      "meetingĠ": 5264,
      "Furthermore": 5265,
      "notĠtoĠ": 5266,
      "whetherĠtheĠregistrantĠ": 5267,
      "ser": 5268,
      "termĠofĠtheĠ": 5269,
      "ChangeĠinĠ": 5270,
      "InternationalĠ": 5271,
      "ClassĠBĠ": 5272,
      "pul": 5273,
      "Cont": 5274,
      "inĠwhichĠweĠ": 5275,
      "$4.": 5276,
      "collater": 5277,
      "rulesĠandĠ": 5278,
      "coreĠ": 5279,
      "Fil": 5280,
      "Agreement,Ġ": 5281,
      "2)Ġ": 5282,
      "comparedĠtoĠtheĠ": 5283,
      "evaluateĠ": 5284,
      "however,Ġ": 5285,
      "Subsidi": 5286,
      "mad": 5287,
      "2023": 5288,
      "platformĠ": 5289,
      "mannerĠ": 5290,
      "that,Ġ": 5291,
      "forĠallĠ": 5292,
      "publicĠaccountingĠ": 5293,
      "mustĠbeĠ": 5294,
      "partĠ": 5295,
      "filingĠ": 5296,
      "exhib": 5297,
      "decisionĠ": 5298,
      "LimitedĠ": 5299,
      "tion.": 5300,
      "idg": 5301,
      "RateĠ": 5302,
      "Truste": 5303,
      "HL": 5304,
      "fiscalĠyear": 5305,
      "relatingĠtoĠtheĠ": 5306,
      "Other": 5307,
      "componentsĠ": 5308,
      "ameworkĠ": 5309,
      "ityĠtoĠ": 5310,
      "sĠisĠ": 5311,
      "60,": 5312,
      "twelveĠ": 5313,
      "deferredĠtaxĠassetsĠ": 5314,
      "yearsĠendedĠDecemberĠ31,Ġ201": 5315,
      "recoveryĠ": 5316,
      "ndĠ": 5317,
      "Information": 5318,
      "uncertaintiesĠ": 5319,
      "COUNT": 5320,
      "Distric": 5321,
      "3,6": 5322,
      "premiumĠ": 5323,
      "fundedĠ": 5324,
      "thereĠareĠ": 5325,
      "ted-averageĠ": 5326,
      "leverageĠ": 5327,
      "Org": 5328,
      "center": 5329,
      "following:": 5330,
      "covenantsĠ": 5331,
      "unsecuredĠ": 5332,
      "OneĠ": 5333,
      "reimbursementĠ": 5334,
      "numerousĠ": 5335,
      "exclusiveĠ": 5336,
      "determineĠtheĠ": 5337,
      "statesĠ": 5338,
      "earli": 5339,
      "possib": 5340,
      "OptionĠ": 5341,
      "PM": 5342,
      "areaĠ": 5343,
      "electricĠ": 5344,
      "ligh": 5345,
      "ok": 5346,
      "straight-lineĠ": 5347,
      "udeĠ": 5348,
      "FormĠ10-KĠ": 5349,
      "onĠtheĠCompanyâĢĻsĠ": 5350,
      "4,7": 5351,
      "Business": 5352,
      "Shareholder": 5353,
      "Banc": 5354,
      "pointĠ": 5355,
      "timingĠofĠ": 5356,
      "taxĠbenefitsĠ": 5357,
      "NotesĠtoĠ": 5358,
      "servicesĠtoĠ": 5359,
      "investorsĠ": 5360,
      "generalĠandĠadministrativeĠ": 5361,
      "ordinatedĠ": 5362,
      "agenciesĠ": 5363,
      "toĠpayĠ": 5364,
      "Estim": 5365,
      "enforcementĠ": 5366,
      "totaledĠ": 5367,
      "confid": 5368,
      "2,4": 5369,
      "terminatedĠ": 5370,
      "tativeĠ": 5371,
      "percentageĠ": 5372,
      "Fl": 5373,
      "ing,ĠandĠ": 5374,
      "segment": 5375,
      "RealĠ": 5376,
      "Str": 5377,
      "ACCOUNT": 5378,
      "53": 5379,
      "argoĠ": 5380,
      "Sch": 5381,
      "workingĠcapitalĠ": 5382,
      "IncentiveĠPlanĠ": 5383,
      "borrowingĠ": 5384,
      "employees,Ġ": 5385,
      "disposi": 5386,
      "managementĠandĠ": 5387,
      "s.ĠInĠaddition,Ġ": 5388,
      "cro": 5389,
      "initialĠbusinessĠcombinationĠ": 5390,
      "sales,Ġ": 5391,
      "digitalĠ": 5392,
      "accountingĠprinciplesĠ": 5393,
      "affectĠourĠ": 5394,
      "loans,Ġ": 5395,
      ",ĠbutĠ": 5396,
      "cannotĠbeĠ": 5397,
      "tructureĠ": 5398,
      "harmĠourĠ": 5399,
      "supple": 5400,
      "rights,Ġ": 5401,
      "improveĠ": 5402,
      "Pat": 5403,
      "tsĠofĠtheĠ": 5404,
      "hosp": 5405,
      "sĠF": 5406,
      "houtĠ": 5407,
      "judgmentĠ": 5408,
      "exemp": 5409,
      "forĠwhichĠ": 5410,
      "committeeĠ": 5411,
      "Pres": 5412,
      "effectivenessĠ": 5413,
      "S,Ġ": 5414,
      "bond": 5415,
      "EmployeeĠ": 5416,
      "Aff": 5417,
      "CaliforniaĠ": 5418,
      "TheĠCompanyâĢĻsĠ": 5419,
      "oneĠorĠmoreĠ": 5420,
      "implementĠ": 5421,
      "System": 5422,
      "cumulativeĠ": 5423,
      "crim": 5424,
      "valuationĠallowanceĠ": 5425,
      "IVEĠ": 5426,
      "YearĠEndedĠ": 5427,
      "IndependentĠ": 5428,
      "IncomeĠTax": 5429,
      "MB": 5430,
      "(3)Ġ": 5431,
      "Righ": 5432,
      "requireĠusĠtoĠ": 5433,
      "3,9": 5434,
      "promo": 5435,
      "effortsĠ": 5436,
      "ToĠtheĠ": 5437,
      "Ġ(theĠâĢľ": 5438,
      "**": 5439,
      "canĠbeĠnoĠassuranceĠ": 5440,
      "activities,Ġ": 5441,
      "acquir": 5442,
      "cur": 5443,
      "propertyĠandĠ": 5444,
      "tions.Ġ": 5445,
      "4,9": 5446,
      "Su": 5447,
      "ganĠ": 5448,
      "damageĠ": 5449,
      "courseĠofĠ": 5450,
      "network": 5451,
      "IL": 5452,
      "commission": 5453,
      "UnitĠ": 5454,
      "DiscussionĠandĠAnalysi": 5455,
      "CT": 5456,
      "varyĠ": 5457,
      "directorsĠandĠ": 5458,
      "GasĠ": 5459,
      "tivi": 5460,
      "ierarch": 5461,
      "uld": 5462,
      "overĠaĠ": 5463,
      "marketĠcondition": 5464,
      "($": 5465,
      "sustain": 5466,
      "s.ĠThisĠ": 5467,
      "business.Ġ": 5468,
      "5,8": 5469,
      ".ĠSuchĠ": 5470,
      "anotherĠ": 5471,
      "ChairmanĠ": 5472,
      "tions.": 5473,
      "noĠlongerĠ": 5474,
      "permitĠ": 5475,
      "ofĠtheĠCompany": 5476,
      "qualifyĠ": 5477,
      "assets.Ġ": 5478,
      "amendmentĠ": 5479,
      "andĠstateĠ": 5480,
      "PreferredĠStockĠ": 5481,
      "compu": 5482,
      "RiskĠFactor": 5483,
      "14Ġ": 5484,
      "illĠ": 5485,
      "awardĠ": 5486,
      "breach": 5487,
      "value": 5488,
      "example,Ġ": 5489,
      "endĠofĠtheĠ": 5490,
      "InternalĠControlĠ": 5491,
      "normalĠ": 5492,
      "refin": 5493,
      "ConsolidatedĠBalanceĠShe": 5494,
      "discussedĠ": 5495,
      "equalĠtoĠtheĠ": 5496,
      "train": 5497,
      "incorporatedĠhereinĠbyĠreferenc": 5498,
      "5,7": 5499,
      "locatedĠinĠ": 5500,
      "ProxyĠ": 5501,
      "FinancialĠCondi": 5502,
      "useĠofĠtheĠ": 5503,
      "tleĠ": 5504,
      "ationĠtoĠ": 5505,
      "Thir": 5506,
      "moneyĠ": 5507,
      "ed-": 5508,
      "Exten": 5509,
      "incurred": 5510,
      "COMM": 5511,
      "season": 5512,
      "publi": 5513,
      "sensi": 5514,
      "receivabl": 5515,
      "WithĠ": 5516,
      "scal": 5517,
      "applicableĠtoĠ": 5518,
      "REPOR": 5519,
      "hedgeĠ": 5520,
      "time": 5521,
      ",ĠweĠmayĠ": 5522,
      "SecondĠ": 5523,
      "forĠitsĠ": 5524,
      "aidĠ": 5525,
      "star": 5526,
      "PowerĠ": 5527,
      "repurchas": 5528,
      "hasĠtheĠ": 5529,
      "onstr": 5530,
      ",ĠorĠtheĠ": 5531,
      "insuredĠ": 5532,
      "regulatedĠ": 5533,
      "ical": 5534,
      "idelin": 5535,
      "revenue": 5536,
      "recurringĠ": 5537,
      "cyber": 5538,
      "areĠtheĠ": 5539,
      "16Ġ": 5540,
      "customers,Ġ": 5541,
      "consistsĠofĠ": 5542,
      "increaseĠourĠ": 5543,
      "revenueĠandĠ": 5544,
      "LeaseĠ": 5545,
      "boardĠ": 5546,
      "issoryĠ": 5547,
      "filedĠasĠ": 5548,
      "PL": 5549,
      "consistĠofĠ": 5550,
      "provisionĠforĠ": 5551,
      "Mic": 5552,
      "ordinaryĠsharesĠ": 5553,
      "Receiv": 5554,
      "successĠ": 5555,
      "engineer": 5556,
      "s,ĠexceptĠ": 5557,
      "OperationsĠ": 5558,
      "extendĠ": 5559,
      "disclosure": 5560,
      "DI": 5561,
      "ationĠinĠ": 5562,
      ",ĠâĢľ": 5563,
      "probableĠ": 5564,
      "engageĠ": 5565,
      "Ge": 5566,
      "reng": 5567,
      "revenuesĠandĠ": 5568,
      "experiencedĠ": 5569,
      "broker": 5570,
      "two": 5571,
      "hierarch": 5572,
      "way": 5573,
      "GoodwillĠ": 5574,
      "iqu": 5575,
      "force": 5576,
      "seekĠtoĠ": 5577,
      "largestĠ": 5578,
      "entsĠofĠ": 5579,
      "CreditĠFacili": 5580,
      "FF": 5581,
      ",ĠasĠamended": 5582,
      "herein": 5583,
      "ACT": 5584,
      "2.0": 5585,
      "ItemĠ9": 5586,
      "%ĠtoĠ": 5587,
      "DataĠ": 5588,
      "exec": 5589,
      "WellsĠF": 5590,
      "15(d)ĠofĠtheĠ": 5591,
      "Rul": 5592,
      "50,000": 5593,
      "homeĠ": 5594,
      "demonstr": 5595,
      "designĠ": 5596,
      "servicesĠandĠ": 5597,
      "LID": 5598,
      "Wor": 5599,
      "thatĠwouldĠ": 5600,
      "interestĠexpenseĠ": 5601,
      "CONSO": 5602,
      "howĠ": 5603,
      "untilĠtheĠ": 5604,
      "CONSOLID": 5605,
      "discountedĠ": 5606,
      "yetĠ": 5607,
      "letter": 5608,
      "mattersĠ": 5609,
      "staur": 5610,
      "sci": 5611,
      "exerciseĠofĠ": 5612,
      "amendedĠandĠre": 5613,
      "forĠadditionalĠ": 5614,
      "directors,Ġ": 5615,
      "demand": 5616,
      ",ĠanĠ": 5617,
      "wereĠnoĠ": 5618,
      "followingĠtheĠ": 5619,
      "liability": 5620,
      "SignificantĠ": 5621,
      "MortgageĠLoanĠ": 5622,
      "investmentĠinĠ": 5623,
      "declaredĠ": 5624,
      "nowĠ": 5625,
      "havingĠ": 5626,
      "SA": 5627,
      "6,8": 5628,
      "byĠandĠamongĠ": 5629,
      ".ĠAlthoughĠ": 5630,
      "representedĠ": 5631,
      "erĠofĠtheĠ": 5632,
      "Commission": 5633,
      "y,ĠandĠ": 5634,
      "hot": 5635,
      "years,Ġ": 5636,
      "LIBORĠ": 5637,
      "MA": 5638,
      "asĠaĠresultĠofĠtheĠ": 5639,
      "been": 5640,
      "terminationĠ": 5641,
      "containsĠ": 5642,
      "ffĠ": 5643,
      "investedĠ": 5644,
      "assetsĠorĠ": 5645,
      "fraud": 5646,
      "nomin": 5647,
      "hedgingĠ": 5648,
      "tele": 5649,
      "incorporatedĠbyĠreferenceĠ": 5650,
      "restaur": 5651,
      "consolid": 5652,
      "industrialĠ": 5653,
      "partnership": 5654,
      "createĠ": 5655,
      "spre": 5656,
      "sti": 5657,
      "resultingĠfromĠ": 5658,
      "REITĠ": 5659,
      "EmploymentĠ": 5660,
      "tegr": 5661,
      "adoptionĠofĠ": 5662,
      "mitig": 5663,
      "4,6": 5664,
      "equipment,Ġ": 5665,
      "raw": 5666,
      "humanĠ": 5667,
      "offering": 5668,
      "usesĠ": 5669,
      "25Ġ": 5670,
      "CostĠofĠ": 5671,
      "asser": 5672,
      "deemedĠ": 5673,
      "throughoutĠ": 5674,
      "President,Ġ": 5675,
      "2,000": 5676,
      "Activi": 5677,
      "isĠalsoĠ": 5678,
      "13a-": 5679,
      "efficienc": 5680,
      "staff": 5681,
      "son": 5682,
      ").ĠTheĠ": 5683,
      "Bro": 5684,
      "ability": 5685,
      "13ĠorĠ": 5686,
      ".ĠAccordingly,Ġ": 5687,
      "selec": 5688,
      "expireĠ": 5689,
      "labor": 5690,
      "pack": 5691,
      "uclearĠ": 5692,
      "forĠcertainĠ": 5693,
      "customersĠandĠ": 5694,
      "orrow": 5695,
      "asĠweĠ": 5696,
      "OLD": 5697,
      "property": 5698,
      "incid": 5699,
      "Bu": 5700,
      "Exc": 5701,
      "Tit": 5702,
      "internalĠcontrolĠoverĠfinancialĠreporting": 5703,
      "L.P": 5704,
      "dependingĠ": 5705,
      "management,Ġ": 5706,
      "WarrantsĠ": 5707,
      "soleĠ": 5708,
      "Depart": 5709,
      "Additionally,Ġ": 5710,
      "RSU": 5711,
      "imposeĠ": 5712,
      "EffectiveĠ": 5713,
      "AccountingĠStandardsĠ": 5714,
      "sĠorĠotherĠ": 5715,
      "independ": 5716,
      "cheduleĠ": 5717,
      "meetĠtheĠ": 5718,
      "UT": 5719,
      "B.": 5720,
      "officersĠandĠ": 5721,
      "basedĠuponĠ": 5722,
      "greaterĠthanĠ": 5723,
      "BankĠofĠ": 5724,
      "Income": 5725,
      "furn": 5726,
      "rulesĠ": 5727,
      "provisionsĠ": 5728,
      "TA": 5729,
      "Act,Ġ": 5730,
      "efore,Ġ": 5731,
      "precedingĠ": 5732,
      "RegistrationĠStatementĠ": 5733,
      "extensiveĠ": 5734,
      "proceedingsĠ": 5735,
      "consultingĠ": 5736,
      "accrualĠ": 5737,
      "Cost": 5738,
      "bankrupt": 5739,
      "membersĠ": 5740,
      "stock,Ġ": 5741,
      "DE": 5742,
      "FinancialĠConditionĠandĠ": 5743,
      "interest-": 5744,
      "class": 5745,
      "concludedĠ": 5746,
      "MarchĠ31": 5747,
      "27,": 5748,
      "mayĠbeĠsubjectĠtoĠ": 5749,
      "etro": 5750,
      "preparedĠ": 5751,
      "increasesĠinĠ": 5752,
      "correspondingĠ": 5753,
      "agnos": 5754,
      "HOLD": 5755,
      "sonĠ": 5756,
      "squareĠ": 5757,
      "currentĠandĠ": 5758,
      "FinanceĠ": 5759,
      "SouthĠ": 5760,
      "interpret": 5761,
      "NE": 5762,
      "whichĠmayĠ": 5763,
      "interestĠandĠ": 5764,
      "FER": 5765,
      "portionĠofĠourĠ": 5766,
      "ities": 5767,
      "deter": 5768,
      "SupplementalĠ": 5769,
      "financialĠposi": 5770,
      "interrup": 5771,
      "Long-": 5772,
      "Organiz": 5773,
      "1,000": 5774,
      "haz": 5775,
      "thatĠwereĠ": 5776,
      "specifi": 5777,
      "bearingĠ": 5778,
      "DiscussionĠandĠAnalysisĠofĠ": 5779,
      "ClassĠAĠcommonĠstockĠ": 5780,
      "-for-": 5781,
      "wo": 5782,
      "credi": 5783,
      "throughĠaĠ": 5784,
      "akĠ": 5785,
      "CreditĠFacilityĠ": 5786,
      "earnedĠ": 5787,
      "ather": 5788,
      "when": 5789,
      "Ġmo": 5790,
      "exposureĠtoĠ": 5791,
      "TermĠLoanĠ": 5792,
      "atĠourĠ": 5793,
      "6,7": 5794,
      "incomeĠtaxes": 5795,
      "emission": 5796,
      "La": 5797,
      ".ĠWeĠalsoĠ": 5798,
      "ualĠ": 5799,
      "FASBĠissuedĠ": 5800,
      "moreĠlikelyĠthanĠnotĠ": 5801,
      "s;Ġ": 5802,
      "incre": 5803,
      "thereforeĠ": 5804,
      "feesĠandĠ": 5805,
      "atĠanĠ": 5806,
      "NotĠ": 5807,
      "SponsorĠ": 5808,
      "ultimateĠ": 5809,
      "ton": 5810,
      "Inventor": 5811,
      "Impair": 5812,
      "increasingĠ": 5813,
      "CourtĠ": 5814,
      "ReserveĠ": 5815,
      "RES": 5816,
      "partnershipĠ": 5817,
      "use": 5818,
      "oldĠ": 5819,
      "entĠandĠ": 5820,
      "essĠofĠourĠ": 5821,
      "mobileĠ": 5822,
      "transmissionĠ": 5823,
      "houseĠ": 5824,
      "ExtensionĠ": 5825,
      "AsĠaĠ": 5826,
      "effectsĠofĠ": 5827,
      "$5.": 5828,
      "ServiceĠ": 5829,
      "YearsĠ": 5830,
      "5)": 5831,
      "individual": 5832,
      "mortg": 5833,
      "eĠandĠtheĠ": 5834,
      "information,Ġ": 5835,
      "PriorĠtoĠ": 5836,
      "basedĠonĠourĠ": 5837,
      "full": 5838,
      "explor": 5839,
      "EQUIT": 5840,
      "Customer": 5841,
      "us.": 5842,
      "centr": 5843,
      "liv": 5844,
      "laborĠ": 5845,
      "WellsĠFargoĠ": 5846,
      "SecuredĠ": 5847,
      "sightĠ": 5848,
      "andĠareĠ": 5849,
      "shareĠofĠ": 5850,
      "ownedĠbyĠ": 5851,
      "preparationĠofĠ": 5852,
      "ActĠofĠ200": 5853,
      "streng": 5854,
      "thol": 5855,
      "junctionĠ": 5856,
      "erĠorĠ": 5857,
      "non-cashĠ": 5858,
      "Incorpor": 5859,
      "DISC": 5860,
      "atĠfairĠvalueĠ": 5861,
      "tedĠbyĠtheĠ": 5862,
      "3.1": 5863,
      "CashĠandĠcashĠequival": 5864,
      "storeĠ": 5865,
      ".ĠWeĠareĠ": 5866,
      "Electr": 5867,
      "call": 5868,
      ".ĠAsĠaĠresult,Ġ": 5869,
      "thatĠareĠnotĠ": 5870,
      "risk-": 5871,
      "indebtednessĠ": 5872,
      "pp": 5873,
      "LP": 5874,
      "Integr": 5875,
      "point": 5876,
      "inĠallĠ": 5877,
      "knowledg": 5878,
      "sufficientĠtoĠ": 5879,
      "clear": 5880,
      "inĠcertainĠ": 5881,
      "PCA": 5882,
      "ness": 5883,
      "organ": 5884,
      "forward-lookingĠstate": 5885,
      "Coll": 5886,
      "sĠtoĠbeĠ": 5887,
      "fourthĠquarterĠofĠ": 5888,
      "REL": 5889,
      "IndicateĠbyĠcheckĠmarkĠwhetherĠtheĠregistrantĠ": 5890,
      "w.": 5891,
      "Instru": 5892,
      "anyĠotherĠ": 5893,
      "Plac": 5894,
      "portion": 5895,
      "ERS": 5896,
      "Pe": 5897,
      "loans": 5898,
      "inĠtheĠperiodĠ": 5899,
      "PerformanceĠ": 5900,
      "publiclyĠ": 5901,
      "accompanyingĠnot": 5902,
      "areasĠ": 5903,
      "namedĠ": 5904,
      "win": 5905,
      "development,Ġ": 5906,
      "calend": 5907,
      "expansionĠ": 5908,
      "ogn": 5909,
      "LoansĠ": 5910,
      "join": 5911,
      "5,6": 5912,
      "disclosureĠcontrolsĠandĠ": 5913,
      "CONSOLIDATEDĠ": 5914,
      "studyĠ": 5915,
      "thatĠsuchĠ": 5916,
      "amendedĠandĠrestatedĠ": 5917,
      "28,": 5918,
      "impairedĠ": 5919,
      "onĠFormĠS-": 5920,
      "6)": 5921,
      "5,9": 5922,
      "innov": 5923,
      "may": 5924,
      "www.": 5925,
      "DecemberĠ15": 5926,
      "ilut": 5927,
      "operations.Ġ": 5928,
      "IND": 5929,
      "describedĠinĠ": 5930,
      "maryĠ": 5931,
      "8)": 5932,
      "âĺĴ": 5933,
      "obtainingĠ": 5934,
      "expense,Ġ": 5935,
      "recentlyĠ": 5936,
      "exceedĠ": 5937,
      "________________": 5938,
      "quid": 5939,
      "services.Ġ": 5940,
      "thatĠmayĠbeĠ": 5941,
      "becameĠ": 5942,
      "CAS": 5943,
      "long-livedĠ": 5944,
      "tĠofĠourĠ": 5945,
      "licensedĠ": 5946,
      "FHL": 5947,
      "trial": 5948,
      "statementĠofĠ": 5949,
      "RegisteredĠ": 5950,
      "reconc": 5951,
      "resultsĠofĠoperations,Ġ": 5952,
      "infrastructureĠ": 5953,
      "totalingĠ": 5954,
      "ia,Ġ": 5955,
      "then": 5956,
      "70,": 5957,
      "priceĠofĠtheĠ": 5958,
      "annuallyĠ": 5959,
      "TexasĠ": 5960,
      "Exercis": 5961,
      "attemp": 5962,
      "FinancialĠConditionĠandĠResultsĠofĠ": 5963,
      "e,ĠorĠ": 5964,
      "COVID-19Ġpandem": 5965,
      "15(": 5966,
      "ister": 5967,
      "3,4": 5968,
      "PN": 5969,
      ".ĠHowever,Ġ": 5970,
      "itco": 5971,
      "ationĠisĠ": 5972,
      "show": 5973,
      "consequenc": 5974,
      "increaseĠinĠtheĠ": 5975,
      "FairĠValueĠ": 5976,
      "Allow": 5977,
      "es,ĠweĠ": 5978,
      "yn": 5979,
      "services": 5980,
      "Portfoli": 5981,
      "formul": 5982,
      "aliz": 5983,
      "3.0": 5984,
      "esaleĠ": 5985,
      "ired": 5986,
      "singĠ": 5987,
      "Â·": 5988,
      "atesĠtheĠ": 5989,
      "demandĠforĠ": 5990,
      "availabilityĠofĠ": 5991,
      "againstĠtheĠ": 5992,
      "contributionsĠ": 5993,
      "thatĠtheĠCompanyĠ": 5994,
      "commonĠstock.": 5995,
      "progres": 5996,
      "unpaidĠ": 5997,
      "timeĠandĠ": 5998,
      "grad": 5999,
      "SECURITIESĠ": 6000,
      "natureĠ": 6001,
      "ersĠtoĠ": 6002,
      "ING": 6003,
      "impos": 6004,
      "discover": 6005,
      "abilityĠandĠ": 6006,
      "TreasuryĠ": 6007,
      "guidelin": 6008,
      "easeĠ": 6009,
      "wholl": 6010,
      "1,2": 6011,
      "mand": 6012,
      "groupĠ": 6013,
      "ĠandĠotherĠ": 6014,
      "andĠrelatedĠ": 6015,
      "adj": 6016,
      "(incorporatedĠbyĠreferenceĠtoĠExhibitĠ10.": 6017,
      "bet": 6018,
      "),ĠandĠ": 6019,
      "ANTĠ": 6020,
      "detec": 6021,
      "Ġmanag": 6022,
      "17Ġ": 6023,
      "ProceedsĠfromĠ": 6024,
      "mayĠbeĠrequiredĠtoĠ": 6025,
      "therapeu": 6026,
      "LLP": 6027,
      "cash,Ġ": 6028,
      "secre": 6029,
      "operatingĠactivities": 6030,
      "DueĠ": 6031,
      "differencesĠ": 6032,
      "occurredĠ": 6033,
      "thic": 6034,
      "differenceĠ": 6035,
      "represen": 6036,
      "ero": 6037,
      "turnĠ": 6038,
      "sedĠinĠ": 6039,
      "ating": 6040,
      "6,9": 6041,
      "everyĠ": 6042,
      "SB": 6043,
      "operatingĠresultsĠ": 6044,
      "filedĠaĠ": 6045,
      "$10": 6046,
      "diseas": 6047,
      "SeriesĠAĠ": 6048,
      "isĠanĠ": 6049,
      "componentĠ": 6050,
      "recommen": 6051,
      "ariesĠ": 6052,
      "jurisdictionsĠ": 6053,
      "AcquisitionĠ": 6054,
      "projectsĠ": 6055,
      "assureĠ": 6056,
      "exercisableĠ": 6057,
      "ibilityĠ": 6058,
      "anchis": 6059,
      ".ĠIfĠtheĠ": 6060,
      "FairĠvalu": 6061,
      "taxableĠincomeĠ": 6062,
      "proceedsĠofĠ": 6063,
      "acceptableĠ": 6064,
      "angib": 6065,
      "financialĠinstrumentsĠ": 6066,
      "anyĠofĠtheĠ": 6067,
      "IPĠ": 6068,
      "contribut": 6069,
      "4,4": 6070,
      "PU": 6071,
      "150": 6072,
      "methodo": 6073,
      "ity.": 6074,
      "facilities,Ġ": 6075,
      "orĠotherwiseĠ": 6076,
      "products": 6077,
      "requirementsĠofĠ": 6078,
      "indefin": 6079,
      "financialĠstatements.": 6080,
      "STOC": 6081,
      "mayĠbeĠunableĠtoĠ": 6082,
      "affiliat": 6083,
      "Gre": 6084,
      "priseĠ": 6085,
      "CreditĠAgreementĠ": 6086,
      "Ġmaterial": 6087,
      "7)": 6088,
      "relatedĠtoĠourĠ": 6089,
      "three-": 6090,
      "websiteĠ": 6091,
      "IntangibleĠ": 6092,
      "lackĠ": 6093,
      "1ĠtoĠtheĠ": 6094,
      "programsĠ": 6095,
      "CHANGEĠ": 6096,
      "100Ġ": 6097,
      "Expec": 6098,
      "4.0": 6099,
      "12/": 6100,
      ",ĠwhichĠcouldĠ": 6101,
      "sharesĠofĠourĠcommonĠstockĠ": 6102,
      "munic": 6103,
      "sĠanĠ": 6104,
      "in,Ġ": 6105,
      ".ĠF": 6106,
      "ResearchĠandĠ": 6107,
      "disclosureĠofĠ": 6108,
      "RevolvingĠ": 6109,
      "AlthoughĠ": 6110,
      "esĠ(": 6111,
      "Marke": 6112,
      "impactĠtheĠ": 6113,
      "ferr": 6114,
      ".ĠD": 6115,
      "royaltyĠ": 6116,
      "29,": 6117,
      "sed": 6118,
      "Â®Ġ": 6119,
      "inabilityĠtoĠ": 6120,
      ",ĠwhichĠwasĠ": 6121,
      "wholly-": 6122,
      "assetsĠofĠ": 6123,
      "volumeĠ": 6124,
      "maintainingĠ": 6125,
      "visedĠ": 6126,
      "correc": 6127,
      "RegulatoryĠ": 6128,
      "aboutĠtheĠ": 6129,
      "ary,Ġ": 6130,
      "StockholderĠ": 6131,
      "forfeit": 6132,
      "A,Ġ": 6133,
      "eventsĠorĠ": 6134,
      "change": 6135,
      "A-": 6136,
      "treatmentĠofĠ": 6137,
      "well-": 6138,
      "IIĠ": 6139,
      "ware": 6140,
      "asĠofĠDecemberĠ31,Ġ202": 6141,
      "ultimatelyĠ": 6142,
      "deviceĠ": 6143,
      "$8": 6144,
      "politicalĠ": 6145,
      "fromĠthoseĠ": 6146,
      "herĠ": 6147,
      "alongĠ": 6148,
      "levelsĠofĠ": 6149,
      "occup": 6150,
      "avi": 6151,
      "inglyĠ": 6152,
      "wee": 6153,
      "contract": 6154,
      "e-basedĠ": 6155,
      "dail": 6156,
      "Consum": 6157,
      "7,8": 6158,
      "ChiefĠExecutiveĠOfficerĠandĠ": 6159,
      "merch": 6160,
      "Less": 6161,
      "norĠ": 6162,
      "achieve": 6163,
      "Solu": 6164,
      "suchĠasĠtheĠ": 6165,
      "retro": 6166,
      "recognitionĠ": 6167,
      "6,6": 6168,
      "$10.": 6169,
      ",ĠtheĠFASBĠissuedĠ": 6170,
      "Equip": 6171,
      "underwritingĠ": 6172,
      "earĠ": 6173,
      "InĠaddition": 6174,
      "manufactureĠ": 6175,
      "EXCHANGEĠ": 6176,
      "CertificateĠofĠ": 6177,
      "onomyĠ": 6178,
      "stock-basedĠcompensationĠ": 6179,
      ",Ġ2010": 6180,
      "laun": 6181,
      "oreover": 6182,
      "WĠ": 6183,
      "3)Ġ": 6184,
      "Borrow": 6185,
      "Measure": 6186,
      "consistingĠ": 6187,
      "broadĠ": 6188,
      "32.": 6189,
      ".ĠAnĠ": 6190,
      "usingĠaĠ": 6191,
      "D.": 6192,
      "50,000Ġ": 6193,
      "processingĠ": 6194,
      "ments.ĠTheĠ": 6195,
      "registrantâĢĻsĠ": 6196,
      "ishĠ": 6197,
      "41": 6198,
      "fuel": 6199,
      "ofĠsuchĠ": 6200,
      "attack": 6201,
      "a.": 6202,
      "crudeĠ": 6203,
      "Trad": 6204,
      "theirĠrespectiveĠ": 6205,
      "obligation": 6206,
      "setsĠforthĠ": 6207,
      "MS": 6208,
      "anĠun": 6209,
      "else": 6210,
      "subsidiaries": 6211,
      "ants,Ġ": 6212,
      "dollarĠ": 6213,
      "requirementĠ": 6214,
      "buildingĠ": 6215,
      "harm": 6216,
      "Black": 6217,
      "deterior": 6218,
      "investments": 6219,
      "ationsĠofĠtheĠ": 6220,
      "lifeĠofĠtheĠ": 6221,
      "treatedĠ": 6222,
      "atten": 6223,
      "positiveĠ": 6224,
      "tionĠtoĠtheĠ": 6225,
      "7,7": 6226,
      "ed.ĠTheĠ": 6227,
      "operatedĠ": 6228,
      "abs": 6229,
      "storageĠ": 6230,
      "expensesĠandĠ": 6231,
      "Bancor": 6232,
      "GL": 6233,
      "Nas": 6234,
      "trademark": 6235,
      "complianceĠwithĠtheĠ": 6236,
      "es)": 6237,
      "purchaseĠpriceĠ": 6238,
      "amortizationĠofĠ": 6239,
      "TaxonomyĠ": 6240,
      "arrangementĠ": 6241,
      "REPORTĠ": 6242,
      "inĠotherĠ": 6243,
      "maturitiesĠ": 6244,
      "8,7": 6245,
      "QuarterlyĠReportĠonĠFormĠ": 6246,
      ",Ġrespectively.Ġ": 6247,
      "inde": 6248,
      "six": 6249,
      "entity": 6250,
      "pingĠ": 6251,
      "Conting": 6252,
      "$0.0": 6253,
      "3,000": 6254,
      "inĠwhichĠtheĠ": 6255,
      "probl": 6256,
      "Guar": 6257,
      "affectedĠbyĠ": 6258,
      "onĠJanuaryĠ": 6259,
      "Dividend": 6260,
      "8.Ġ": 6261,
      "retail": 6262,
      "companies": 6263,
      "eĠofĠtheseĠ": 6264,
      "MedicalĠ": 6265,
      "mayĠresultĠinĠ": 6266,
      "costsĠareĠ": 6267,
      "productsĠorĠ": 6268,
      "oneĠyearĠ": 6269,
      "deliverĠ": 6270,
      "difficultĠtoĠ": 6271,
      "Oblig": 6272,
      "submitĠ": 6273,
      "edĠfromĠtheĠ": 6274,
      "Reporting": 6275,
      "enactedĠ": 6276,
      "high-": 6277,
      "Services": 6278,
      "AM": 6279,
      "ated,Ġ": 6280,
      "date,Ġ": 6281,
      "ation,ĠandĠ": 6282,
      "formĠofĠ": 6283,
      "vehicleĠ": 6284,
      "foundĠ": 6285,
      "option": 6286,
      "edĠbyĠaĠ": 6287,
      "edĠwithĠ": 6288,
      "mentsĠinĠ": 6289,
      "prospectiveĠ": 6290,
      "âĢĿĠandĠâĢľ": 6291,
      "calendarĠ": 6292,
      "amount": 6293,
      "expo": 6294,
      "closureĠ": 6295,
      "2023Ġ": 6296,
      "e)": 6297,
      "shownĠ": 6298,
      "ONĠ": 6299,
      "shorterĠ": 6300,
      "Mex": 6301,
      "sĠforĠtheĠ": 6302,
      "Schedul": 6303,
      "Ther": 6304,
      "receivable": 6305,
      "----": 6306,
      ",ĠtheĠCompanyâĢĻsĠ": 6307,
      "FinancingĠ": 6308,
      "alĠandĠ": 6309,
      "beganĠ": 6310,
      "whatĠ": 6311,
      "uncertaintyĠ": 6312,
      "o,Ġ": 6313,
      "toĠitsĠ": 6314,
      "Protec": 6315,
      "equivalentĠ": 6316,
      "intendedĠtoĠ": 6317,
      "oteĠ": 6318,
      "AssetsĠ": 6319,
      "trialĠ": 6320,
      "essĠandĠ": 6321,
      "LevelĠ3Ġ": 6322,
      "turn": 6323,
      ".ĠC": 6324,
      "IncentiveĠPlan": 6325,
      "contracts,Ġ": 6326,
      "financialĠstatementĠ": 6327,
      "arialĠ": 6328,
      "DeferredĠtaxĠ": 6329,
      "DiscussionĠandĠAnalysisĠofĠFinancialĠConditionĠandĠResultsĠofĠ": 6330,
      "executiveĠofficersĠ": 6331,
      "assetĠorĠ": 6332,
      "cedu": 6333,
      "daq": 6334,
      "participateĠ": 6335,
      "Facili": 6336,
      "y.ĠTheĠ": 6337,
      "stockholdersâĢĻĠ": 6338,
      "courtĠ": 6339,
      "Health": 6340,
      "incep": 6341,
      "ire": 6342,
      "investments,Ġ": 6343,
      "investorĠ": 6344,
      "Def": 6345,
      "ger": 6346,
      "whoseĠ": 6347,
      "4,000": 6348,
      "Sci": 6349,
      "balancesĠ": 6350,
      "aspec": 6351,
      "ItemĠ7": 6352,
      "LicenseĠ": 6353,
      "loseĠ": 6354,
      "mb": 6355,
      "incenti": 6356,
      "Index": 6357,
      "uish": 6358,
      "carryingĠvalu": 6359,
      "Gen": 6360,
      "termsĠandĠ": 6361,
      "ed)": 6362,
      "USĠ": 6363,
      "Nat": 6364,
      "dro": 6365,
      "siteĠ": 6366,
      "matur": 6367,
      "valuationĠallow": 6368,
      "returnĠonĠ": 6369,
      "lease": 6370,
      "CR": 6371,
      "80,": 6372,
      "idgeĠ": 6373,
      "lawsu": 6374,
      "obligations,Ġ": 6375,
      "laterĠ": 6376,
      "COMP": 6377,
      "ence": 6378,
      "TierĠ": 6379,
      "lendingĠ": 6380,
      "segmentsĠ": 6381,
      "personsĠ": 6382,
      "Liabilities": 6383,
      "AmericaĠ": 6384,
      "Author": 6385,
      "ExpectedĠ": 6386,
      "co-": 6387,
      "35.": 6388,
      "vil": 6389,
      "preferenc": 6390,
      "wasĠprimarilyĠ": 6391,
      "principalĠamountĠofĠ": 6392,
      "rates,Ġ": 6393,
      "indebtednes": 6394,
      "Activities": 6395,
      "FormĠ8-KĠ": 6396,
      "smallerĠreportingĠ": 6397,
      "ism": 6398,
      "generationĠ": 6399,
      "assumedĠ": 6400,
      "sales": 6401,
      "Nasdaq": 6402,
      "CorporateĠGovern": 6403,
      "ane": 6404,
      "perĠcommonĠ": 6405,
      "Liquid": 6406,
      "subsequentlyĠ": 6407,
      "effectsĠ": 6408,
      "participantsĠ": 6409,
      "agencyĠ": 6410,
      "(12": 6411,
      "enteredĠintoĠanĠ": 6412,
      "verage": 6413,
      "environment": 6414,
      "29.": 6415,
      "restructuringĠ": 6416,
      "hazard": 6417,
      "Award": 6418,
      "sale": 6419,
      "registeredĠpublicĠaccountingĠ": 6420,
      "(4)": 6421,
      "titut": 6422,
      "tainĠtheĠ": 6423,
      "initialĠpublicĠ": 6424,
      "ĠNoĠ": 6425,
      ",ĠweĠareĠ": 6426,
      "GI": 6427,
      "leadingĠ": 6428,
      ",Ġ2024": 6429,
      "âĢł": 6430,
      "ficationĠofĠ": 6431,
      "iv)Ġ": 6432,
      "forĠfiscalĠ": 6433,
      "MasterĠ": 6434,
      "on-": 6435,
      "Ġ(incorporatedĠ": 6436,
      "Code": 6437,
      "degreeĠofĠ": 6438,
      "le,Ġ": 6439,
      "DevelopmentĠ": 6440,
      "onĠourĠabilityĠtoĠ": 6441,
      "employeesĠandĠ": 6442,
      "techniqu": 6443,
      "pass": 6444,
      "basedĠonĠaĠ": 6445,
      "increasedĠbyĠ": 6446,
      "6,000": 6447,
      "advanceĠ": 6448,
      "mod": 6449,
      "period.": 6450,
      "costsĠtoĠ": 6451,
      "fieldĠ": 6452,
      "deficienc": 6453,
      "approach": 6454,
      "ratingĠ": 6455,
      "22,": 6456,
      "pool": 6457,
      "wereĠtoĠ": 6458,
      "9)": 6459,
      "educ": 6460,
      "Ho": 6461,
      "âĢĿ).ĠTheĠ": 6462,
      "(k": 6463,
      "3.2": 6464,
      "Notes": 6465,
      "Environ": 6466,
      "gainsĠandĠ": 6467,
      "federalĠandĠstateĠ": 6468,
      "indicated": 6469,
      "5,4": 6470,
      "orsĠandĠ": 6471,
      "75%Ġ": 6472,
      "regulationĠ": 6473,
      "convertedĠ": 6474,
      "Ab": 6475,
      "forĠtheseĠ": 6476,
      "byĠtheĠCompanyĠ": 6477,
      "Prof": 6478,
      "Ste": 6479,
      "openĠ": 6480,
      "CodeĠofĠ": 6481,
      "willĠdependĠ": 6482,
      "netĠcashĠ": 6483,
      "8,8": 6484,
      "iden": 6485,
      "21,": 6486,
      "atedĠinĠ": 6487,
      "generatingĠ": 6488,
      "Procedu": 6489,
      "publish": 6490,
      "alityĠ": 6491,
      "intend": 6492,
      "sponsorĠ": 6493,
      "XBRLĠTaxonomyĠ": 6494,
      "tfulĠ": 6495,
      "provedĠ": 6496,
      "ed,ĠandĠ": 6497,
      "criminalĠ": 6498,
      "EBITDAĠ": 6499,
      "clas": 6500,
      "NotesĠtoĠConsolidatedĠFinancialĠState": 6501,
      "turedĠ": 6502,
      "spaceĠ": 6503,
      "icit": 6504,
      "taxĠrateĠ": 6505,
      "sectionĠ": 6506,
      "edĠinĠRuleĠ": 6507,
      "growĠ": 6508,
      "accountsĠreceivableĠ": 6509,
      "BeneficialĠ": 6510,
      "civilĠ": 6511,
      "materialĠweak": 6512,
      "NO": 6513,
      "limitsĠ": 6514,
      "Unit": 6515,
      "swapĠ": 6516,
      "operatingĠactivitiesĠ": 6517,
      "fairĠmarketĠ": 6518,
      "complexĠ": 6519,
      "EachĠ": 6520,
      "couldĠadverselyĠaffectĠourĠ": 6521,
      "noncontrollingĠ": 6522,
      "LLC,Ġ": 6523,
      "statusĠ": 6524,
      "federal,Ġ": 6525,
      "valid": 6526,
      "likelyĠtoĠ": 6527,
      "tical": 6528,
      "preclinicalĠ": 6529,
      "RiskĠFactors": 6530,
      "ITĠ": 6531,
      "enhanceĠ": 6532,
      "ThirdĠ": 6533,
      "ended": 6534,
      "b-": 6535,
      "tĠourĠ": 6536,
      "7,9": 6537,
      "willĠbeĠableĠtoĠ": 6538,
      "ugh": 6539,
      "10%Ġ": 6540,
      "where": 6541,
      "dilutiveĠ": 6542,
      "Transaction": 6543,
      "FutureĠ": 6544,
      "NAS": 6545,
      "seekingĠ": 6546,
      "TI": 6547,
      "None.": 6548,
      "PUR": 6549,
      "remov": 6550,
      "Joh": 6551,
      "haveĠanyĠ": 6552,
      "FE": 6553,
      "G&": 6554,
      "license": 6555,
      "build": 6556,
      "disclosuresĠ": 6557,
      "facilities": 6558,
      "Continu": 6559,
      "previousĠ": 6560,
      "00.": 6561,
      "re-": 6562,
      "difficultĠ": 6563,
      "clientsĠ": 6564,
      "exposureĠ": 6565,
      "Link": 6566,
      "secureĠ": 6567,
      "$Ġ4": 6568,
      "Sta": 6569,
      "enableĠ": 6570,
      "posal": 6571,
      "BankâĢĻsĠ": 6572,
      "ConsumerĠ": 6573,
      "relateĠ": 6574,
      "productsĠareĠ": 6575,
      "goodĠ": 6576,
      "wholly-ownedĠ": 6577,
      "franchis": 6578,
      "IfĠweĠ": 6579,
      "âĢĿ)ĠandĠ": 6580,
      "pipelin": 6581,
      "label": 6582,
      "wereĠnotĠ": 6583,
      "assetsĠareĠ": 6584,
      "addressĠ": 6585,
      "tradedĠ": 6586,
      "resolu": 6587,
      "However,Ġ": 6588,
      "periodic": 6589,
      "asĠtoĠ": 6590,
      "90,": 6591,
      "Mexic": 6592,
      "ability,Ġ": 6593,
      "thanĠtheĠ": 6594,
      "6,4": 6595,
      "required": 6596,
      "throughĠourĠ": 6597,
      "isionĠ": 6598,
      "lock": 6599,
      "EarningsĠ": 6600,
      "STOCK": 6601,
      "evaluatingĠ": 6602,
      "provideĠaĠ": 6603,
      "ently,Ġ": 6604,
      "PCAOB": 6605,
      "reinsuranceĠ": 6606,
      "any": 6607,
      "Recogn": 6608,
      "backedĠ": 6609,
      "es.ĠOurĠ": 6610,
      "Oh": 6611,
      ",Ġ2020,Ġ": 6612,
      "LegalĠ": 6613,
      ",Ġ2021,Ġ": 6614,
      "N/": 6615,
      ".ĠDuringĠtheĠ": 6616,
      "SystemĠ": 6617,
      "By": 6618,
      "Ric": 6619,
      "asĠwellĠasĠtheĠ": 6620,
      "date.": 6621,
      "properties": 6622,
      "formityĠ": 6623,
      "principallyĠ": 6624,
      ",\"Ġ": 6625,
      "developingĠ": 6626,
      "antsĠandĠ": 6627,
      "threat": 6628,
      "f-": 6629,
      "Sell": 6630,
      "anĠincreas": 6631,
      "atĠtheĠtimeĠofĠ": 6632,
      "electric": 6633,
      "echan": 6634,
      "admin": 6635,
      "CASHĠ": 6636,
      "fees,Ġ": 6637,
      "withdraw": 6638,
      "34Ġ": 6639,
      "followingĠtableĠ": 6640,
      "found": 6641,
      "PursuantĠtoĠ": 6642,
      "Nam": 6643,
      "Â·Ġ": 6644,
      "21.": 6645,
      "fairĠvalue": 6646,
      "AdditionalĠ": 6647,
      "requiringĠ": 6648,
      "Ohio": 6649,
      "wereĠ$": 6650,
      "Descrip": 6651,
      "7,6": 6652,
      "Limit": 6653,
      "CL": 6654,
      "onoun": 6655,
      "lineĠofĠ": 6656,
      ",ĠtheĠCompanyĠhadĠ": 6657,
      "WestĠ": 6658,
      "sem": 6659,
      "Compli": 6660,
      "tradeĠsecre": 6661,
      "rightsĠtoĠ": 6662,
      "commitmentĠ": 6663,
      "Sarbanes-OxleyĠActĠofĠ200": 6664,
      "popul": 6665,
      "render": 6666,
      "itemsĠ": 6667,
      "indicatedĠ": 6668,
      "coĠ": 6669,
      "whollyĠ": 6670,
      "SouthernĠ": 6671,
      "ingĠfromĠ": 6672,
      "revenue,Ġ": 6673,
      "systemsĠandĠ": 6674,
      "unauthorizedĠ": 6675,
      "have": 6676,
      "weighted-averageĠ": 6677,
      "like": 6678,
      "measuresĠ": 6679,
      ".ĠInĠaddition,ĠtheĠ": 6680,
      "definitiveĠ": 6681,
      "AD": 6682,
      "experti": 6683,
      "connectionĠwithĠ": 6684,
      "SupplementaryĠ": 6685,
      "serviceĠprovider": 6686,
      "believeĠthatĠ": 6687,
      "FR": 6688,
      "eĠ(": 6689,
      "forĠanĠ": 6690,
      "FacilityĠ": 6691,
      "purposesĠofĠ": 6692,
      "isĠcurrentlyĠ": 6693,
      ".Ġ(": 6694,
      "systems,Ġ": 6695,
      "ast": 6696,
      "(loss)": 6697,
      "patent": 6698,
      "beginningĠofĠ": 6699,
      "(4,": 6700,
      "-of-": 6701,
      "tituteĠ": 6702,
      "9,8": 6703,
      "receivablesĠ": 6704,
      "AccountingĠFir": 6705,
      "sanc": 6706,
      "AmendmentĠtoĠ": 6707,
      "channel": 6708,
      "changesĠtoĠ": 6709,
      "inspec": 6710,
      "Mc": 6711,
      "aĠnewĠ": 6712,
      "thatĠhaveĠ": 6713,
      "31Ġ": 6714,
      "oilĠandĠnaturalĠgasĠ": 6715,
      "ded,Ġ": 6716,
      "Wash": 6717,
      "effectivenessĠofĠ": 6718,
      "developĠandĠ": 6719,
      "liabilitiesĠandĠ": 6720,
      "successful": 6721,
      "dailyĠ": 6722,
      "initiallyĠ": 6723,
      "financialĠcondition.": 6724,
      "issuedĠandĠoutstandingĠ": 6725,
      "tholder": 6726,
      "8,9": 6727,
      "combinationĠofĠ": 6728,
      "esĠfromĠ": 6729,
      "foreg": 6730,
      ".ĠUnderĠtheĠ": 6731,
      "derivativesĠ": 6732,
      "TechnologyĠ": 6733,
      "guaranteeĠ": 6734,
      "paidĠtoĠ": 6735,
      "replac": 6736,
      "produceĠ": 6737,
      "ted,Ġ": 6738,
      "ate.": 6739,
      "dist": 6740,
      "updateĠ": 6741,
      "teamĠ": 6742,
      "viewĠ": 6743,
      "StockholderĠMatter": 6744,
      "mun": 6745,
      "quarterĠendedĠ": 6746,
      "es:": 6747,
      "Charg": 6748,
      "S.Ġ": 6749,
      "permittedĠ": 6750,
      "Long-termĠ": 6751,
      "beginningĠafterĠ": 6752,
      "ToĠtheĠextentĠ": 6753,
      "Competi": 6754,
      "ChinaĠ": 6755,
      "ation.ĠTheĠ": 6756,
      "integralĠ": 6757,
      "oneĠorĠmor": 6758,
      "oilĠandĠgasĠ": 6759,
      "issuesĠ": 6760,
      "physician": 6761,
      "wasĠnotĠ": 6762,
      "SeniorĠNotesĠ": 6763,
      "Warrant": 6764,
      "fterĠ": 6765,
      "$Ġ3": 6766,
      "RegisteredĠPublicĠ": 6767,
      "includesĠtheĠ": 6768,
      "PC": 6769,
      "subsidiaries,Ġ": 6770,
      "Washing": 6771,
      "clin": 6772,
      "conven": 6773,
      "leadĠtoĠ": 6774,
      "TC": 6775,
      "referĠtoĠ": 6776,
      "205": 6777,
      "OverĠ": 6778,
      "PensionĠ": 6779,
      "relyĠonĠ": 6780,
      "declineĠ": 6781,
      "diversi": 6782,
      "filedĠbyĠ": 6783,
      "requestĠ": 6784,
      "9,7": 6785,
      "1ĠandĠ": 6786,
      "store": 6787,
      "23,": 6788,
      "facility": 6789,
      "depreciationĠandĠ": 6790,
      "liability,Ġ": 6791,
      "parĠvalueĠ": 6792,
      "thres": 6793,
      "FC": 6794,
      "torne": 6795,
      "ves": 6796,
      ",ĠasĠamendedĠ": 6797,
      "goodwill": 6798,
      "transportationĠ": 6799,
      "althoughĠ": 6800,
      "ACCOUNTINGĠ": 6801,
      "NetĠcashĠprovidedĠbyĠ": 6802,
      "DerivativeĠ": 6803,
      "PurchasesĠofĠ": 6804,
      "Interest": 6805,
      "StateĠofĠ": 6806,
      "4.1": 6807,
      "BusinessĠCombinationĠ": 6808,
      "GN": 6809,
      "modifiedĠ": 6810,
      "RelatedĠStockholderĠMatter": 6811,
      "ishedĠ": 6812,
      "off-": 6813,
      "lossesĠonĠ": 6814,
      ",ĠtoĠ": 6815,
      "signedĠ": 6816,
      "occurrenc": 6817,
      "MENT": 6818,
      "$9": 6819,
      "$6.": 6820,
      "28.": 6821,
      "cat": 6822,
      "asĠcomparedĠtoĠ": 6823,
      "anyĠofĠtheseĠ": 6824,
      "numberĠofĠsharesĠ": 6825,
      "elsewhereĠ": 6826,
      "couldĠmateriallyĠ": 6827,
      "Part": 6828,
      "At": 6829,
      "OutstandingĠ": 6830,
      "phas": 6831,
      "dĠtoĠ": 6832,
      "NumberĠofĠ": 6833,
      "ticsĠ": 6834,
      "Stat": 6835,
      "MAR": 6836,
      "strongĠ": 6837,
      "bookĠ": 6838,
      "changeĠinĠtheĠ": 6839,
      "planĠtoĠ": 6840,
      "ite-": 6841,
      "Bank,ĠNationalĠ": 6842,
      "UtilityĠ": 6843,
      "stopĠ": 6844,
      "NASDA": 6845,
      "lesĠofĠ": 6846,
      "8,6": 6847,
      "foresee": 6848,
      "RealĠE": 6849,
      "401": 6850,
      "structureĠ": 6851,
      "ĠmaterialĠ": 6852,
      "sourceĠ": 6853,
      "incrementalĠ": 6854,
      "s.ĠForĠ": 6855,
      "IncomeĠ(": 6856,
      "RisksĠ": 6857,
      "dĠandĠ": 6858,
      "diagnos": 6859,
      "certainĠofĠourĠ": 6860,
      "yield": 6861,
      "Law": 6862,
      "mix": 6863,
      "XBRLĠTaxonomyĠExtensionĠ": 6864,
      "HomeĠ": 6865,
      "outĠofĠ": 6866,
      "tionĠofĠaĠ": 6867,
      "couldĠcauseĠ": 6868,
      "Texas": 6869,
      "25,": 6870,
      "mid": 6871,
      "ine": 6872,
      "orid": 6873,
      "savingsĠ": 6874,
      "otherwis": 6875,
      "Ġmarket": 6876,
      "creditĠriskĠ": 6877,
      "ternĠ": 6878,
      "representingĠ": 6879,
      "everĠ": 6880,
      "voteĠ": 6881,
      "settl": 6882,
      "hospital": 6883,
      ".ĠAsĠaĠresult": 6884,
      "RegisteredĠPublicĠAccountingĠFir": 6885,
      "C.": 6886,
      "billion": 6887,
      "costsĠassociatedĠwithĠ": 6888,
      "utilizeĠ": 6889,
      "Cash": 6890,
      "$Ġ2,": 6891,
      "debt,Ġ": 6892,
      "denomin": 6893,
      "B.Ġ": 6894,
      "relationshipĠ": 6895,
      "issuedĠbyĠtheĠ": 6896,
      "esĠonĠ": 6897,
      "agingĠ": 6898,
      "regulatoryĠapprovalĠ": 6899,
      "ton,Ġ": 6900,
      "addedĠ": 6901,
      "ais": 6902,
      "BasedĠonĠ": 6903,
      "madeĠbyĠ": 6904,
      "8,000": 6905,
      "agentĠ": 6906,
      "atherĠ": 6907,
      "transferredĠ": 6908,
      "purposeĠofĠ": 6909,
      "vac": 6910,
      "inĠexcessĠofĠ": 6911,
      "combinationĠ": 6912,
      "utilityĠ": 6913,
      "FinancialĠStatementsĠandĠ": 6914,
      "atio": 6915,
      "Officer": 6916,
      "optim": 6917,
      "containedĠinĠ": 6918,
      "CD": 6919,
      "loansĠareĠ": 6920,
      "declineĠinĠ": 6921,
      "ferred": 6922,
      "modific": 6923,
      "approveĠ": 6924,
      "characteristic": 6925,
      "51": 6926,
      "0.0ĠmillionĠ": 6927,
      "IPO": 6928,
      "EBITDA": 6929,
      "payment": 6930,
      "FinancialĠReporting": 6931,
      "TheĠfollowingĠtableĠsummariz": 6932,
      "tenantĠ": 6933,
      "61": 6934,
      "Tim": 6935,
      "es,ĠorĠ": 6936,
      "onĠFebruaryĠ": 6937,
      "purchaseĠofĠ": 6938,
      "PropertyĠandĠ": 6939,
      "inĠmillion": 6940,
      "business,ĠfinancialĠconditionĠandĠ": 6941,
      "AmendmentĠNo.Ġ": 6942,
      "representsĠtheĠ": 6943,
      "lettersĠofĠ": 6944,
      "recordedĠaĠ": 6945,
      "onĠMarchĠ": 6946,
      "componentĠofĠ": 6947,
      "Cl": 6948,
      "ateĠourĠ": 6949,
      "exting": 6950,
      "(15": 6951,
      "cess": 6952,
      ".ĠSeeĠ": 6953,
      "9,6": 6954,
      "25%Ġ": 6955,
      "sĠinĠourĠ": 6956,
      "ProductĠ": 6957,
      "reportableĠ": 6958,
      "transactions,Ġ": 6959,
      "Penn": 6960,
      "24,": 6961,
      "Dr.Ġ": 6962,
      "leng": 6963,
      "itemĠ": 6964,
      "particular": 6965,
      "reductionĠinĠ": 6966,
      "StatementĠofĠ": 6967,
      "4.2": 6968,
      "holdersĠ": 6969,
      "regulation": 6970,
      "weĠwillĠ": 6971,
      "END": 6972,
      "bankruptcyĠ": 6973,
      "nuclearĠ": 6974,
      "adoptionĠ": 6975,
      "inceĠtheĠ": 6976,
      "identicalĠ": 6977,
      "ileĠtheĠ": 6978,
      "plant": 6979,
      "ActualĠ": 6980,
      "matterĠ": 6981,
      ".ĠThe": 6982,
      "Ġmat": 6983,
      "assets.": 6984,
      "their": 6985,
      "DepartmentĠofĠ": 6986,
      "assur": 6987,
      "cashĠflows.": 6988,
      "9,9": 6989,
      "below.": 6990,
      "Further,Ġ": 6991,
      "basedĠuponĠtheĠ": 6992,
      "indicateĠ": 6993,
      "plannedĠ": 6994,
      "netĠlossĠ": 6995,
      "number": 6996,
      "old": 6997,
      "craf": 6998,
      "targe": 6999,
      "products.": 7000,
      "zĠ": 7001,
      "determiningĠ": 7002,
      "allowsĠ": 7003,
      "asĠaĠgoingĠ": 7004,
      "obligations": 7005,
      "carryĠ": 7006,
      "traditionalĠ": 7007,
      "onlineĠ": 7008,
      "resultĠinĠtheĠ": 7009,
      "limitedĠto,Ġ": 7010,
      "gam": 7011,
      "salaryĠ": 7012,
      "recoverĠ": 7013,
      "costsĠincurredĠ": 7014,
      "reportingĠunitĠ": 7015,
      "198": 7016,
      "lossesĠandĠ": 7017,
      "attractiveĠ": 7018,
      "years.": 7019,
      "couldĠalsoĠ": 7020,
      "target": 7021,
      "Har": 7022,
      "ughtĠ": 7023,
      "dependsĠ": 7024,
      "shortĠ": 7025,
      "acquisition,Ġ": 7026,
      "Period": 7027,
      "formityĠwithĠ": 7028,
      "plantĠandĠ": 7029,
      "permitsĠ": 7030,
      "futureĠperiod": 7031,
      "reconcili": 7032,
      "solelyĠ": 7033,
      "firstĠquarterĠofĠ": 7034,
      "skill": 7035,
      "shar": 7036,
      "companies.Ġ": 7037,
      "onĠorĠ": 7038,
      "FrankĠ": 7039,
      "licensingĠ": 7040,
      "seriesĠ": 7041,
      "appoin": 7042,
      "rais": 7043,
      "anceĠforĠ": 7044,
      "requireĠtheĠ": 7045,
      "amortization": 7046,
      ",Ġrespectively.ĠTheĠ": 7047,
      "improvementsĠ": 7048,
      "ItĠisĠ": 7049,
      "reporting,Ġ": 7050,
      "regulationsĠandĠ": 7051,
      "TheĠCompanyĠhasĠ": 7052,
      "requirementsĠofĠtheĠ": 7053,
      "5ĠandĠ201": 7054,
      "evidenceĠ": 7055,
      "iluted": 7056,
      "problem": 7057,
      "evaluationĠofĠ": 7058,
      "geographicĠ": 7059,
      "domesticĠ": 7060,
      "IndependentĠRegisteredĠPublicĠAccountingĠFir": 7061,
      "3.Ġ": 7062,
      "Vi": 7063,
      "spli": 7064,
      "ani": 7065,
      "aroundĠ": 7066,
      "es)Ġ": 7067,
      "stageĠ": 7068,
      "appreci": 7069,
      "andĠisĠ": 7070,
      "BD": 7071,
      "Pla": 7072,
      "complyĠwithĠtheĠ": 7073,
      "usedĠinĠtheĠ": 7074,
      "function": 7075,
      "inĠtheĠU.S.Ġ": 7076,
      "ChiefĠFinancialĠOfficerĠ": 7077,
      "CashĠflow": 7078,
      "largerĠ": 7079,
      "foreseeableĠ": 7080,
      "dens": 7081,
      "selectedĠ": 7082,
      "fairĠvalueĠhierarch": 7083,
      "Procedures": 7084,
      "disput": 7085,
      "wasĠaĠ": 7086,
      "Summar": 7087,
      "Less:Ġ": 7088,
      "BeneficialĠOwner": 7089,
      "Char": 7090,
      "RELATEDĠ": 7091,
      "$Ġ0.": 7092,
      "depreciationĠ": 7093,
      "hear": 7094,
      "physicalĠ": 7095,
      "tib": 7096,
      "Amend": 7097,
      "made": 7098,
      "protectĠourĠ": 7099,
      "onounce": 7100,
      "duringĠtheĠyearĠendedĠDecemberĠ31,Ġ201": 7101,
      "Ġmillion,Ġrespectively,Ġ": 7102,
      "hadĠaĠ": 7103,
      "forĠfurtherĠ": 7104,
      "incomeĠandĠ": 7105,
      "stillĠ": 7106,
      "BenefitĠ": 7107,
      "liho": 7108,
      "yourĠ": 7109,
      "party": 7110,
      "flex": 7111,
      "foreĠtheĠ": 7112,
      "300": 7113,
      "effortsĠtoĠ": 7114,
      "6.0": 7115,
      "involvingĠ": 7116,
      "automat": 7117,
      "servesĠ": 7118,
      "10-Q": 7119,
      "paymentsĠofĠ": 7120,
      "performance": 7121,
      "write-": 7122,
      "ANS": 7123,
      "van": 7124,
      "withĠotherĠ": 7125,
      "ities,Ġ": 7126,
      "qualitativeĠ": 7127,
      "enforce": 7128,
      "actualĠresultsĠ": 7129,
      "profitabilityĠ": 7130,
      "Corporation,Ġ": 7131,
      "asĠfollowsĠ(": 7132,
      ":Ġ(i)Ġ": 7133,
      "proĠ": 7134,
      "ingĠofĠtheĠ": 7135,
      "st-": 7136,
      "entalĠ": 7137,
      "marketableĠ": 7138,
      "entireĠ": 7139,
      "proceedsĠfromĠtheĠ": 7140,
      "volun": 7141,
      "grantĠdateĠ": 7142,
      "SafetyĠ": 7143,
      "sumĠ": 7144,
      "grantsĠ": 7145,
      "regulatoryĠapproval": 7146,
      "81": 7147,
      "tly,Ġ": 7148,
      "2ĠtoĠ": 7149,
      "costs.": 7150,
      "ratioĠofĠ": 7151,
      "ror": 7152,
      "outsideĠtheĠ": 7153,
      "Perc": 7154,
      "ExchangeĠActĠ": 7155,
      "onĠbehalfĠ": 7156,
      "PreferredĠStock": 7157,
      "CurrentĠReportĠonĠFormĠ8-K": 7158,
      "exclusiv": 7159,
      "makeĠitĠ": 7160,
      "ilutedĠ": 7161,
      "complain": 7162,
      "eryĠ": 7163,
      "available-for-": 7164,
      "rawĠmaterial": 7165,
      "customaryĠ": 7166,
      "technology,Ġ": 7167,
      "PI": 7168,
      "bi": 7169,
      "likeliho": 7170,
      "plain": 7171,
      "taxĠpositionsĠ": 7172,
      "UL": 7173,
      "edĠitsĠ": 7174,
      "FederalĠReserveĠ": 7175,
      "areĠalsoĠ": 7176,
      "ryĠ": 7177,
      "rollĠ": 7178,
      "areĠrecognizedĠ": 7179,
      "lossĠonĠ": 7180,
      "Services,Ġ": 7181,
      "PRO": 7182,
      "ofĠtheĠCompany'sĠ": 7183,
      "RestrictedĠStockĠ": 7184,
      "71": 7185,
      "paidĠinĠ": 7186,
      "advancedĠ": 7187,
      "Virgin": 7188,
      "AwardĠ": 7189,
      "changingĠ": 7190,
      "patient": 7191,
      "es.ĠTheseĠ": 7192,
      "esĠofĠ$": 7193,
      "ticlesĠofĠ": 7194,
      "Fix": 7195,
      "ing.Ġ": 7196,
      "anchiseĠ": 7197,
      "reportingĠunit": 7198,
      "obligatedĠ": 7199,
      "Holder": 7200,
      "predictĠ": 7201,
      "equipmentĠandĠ": 7202,
      "COR": 7203,
      "aĠvarietyĠofĠ": 7204,
      "s,ĠourĠ": 7205,
      "marketĠandĠ": 7206,
      "cam": 7207,
      "toĠobtainĠ": 7208,
      "2010Ġ": 7209,
      "26,": 7210,
      "affectedĠ": 7211,
      "ViceĠPresidentĠ": 7212,
      "eâĢĻsĠ": 7213,
      "equityĠsecuritiesĠ": 7214,
      "summarizedĠ": 7215,
      "MedicaidĠ": 7216,
      ",Ġ2013,Ġ": 7217,
      "phoneĠ": 7218,
      "isonĠ": 7219,
      "ollar": 7220,
      "so,Ġ": 7221,
      "12b-": 7222,
      "pac": 7223,
      "ifĠaĠ": 7224,
      "usedĠforĠ": 7225,
      "subordinatedĠ": 7226,
      "allowanceĠforĠloanĠ": 7227,
      "80Ġ": 7228,
      "Document": 7229,
      "(orĠ": 7230,
      "Secre": 7231,
      "software": 7232,
      "High": 7233,
      "ifĠtheĠregistrantĠ": 7234,
      "pursueĠ": 7235,
      "wide": 7236,
      "materialĠmis": 7237,
      "attributableĠ": 7238,
      ".ĠIfĠweĠ": 7239,
      "sim": 7240,
      "period,Ġ": 7241,
      "EQUITY": 7242,
      "resultingĠinĠ": 7243,
      "relationshipsĠ": 7244,
      "RegistrationĠStatementĠonĠFormĠS-": 7245,
      "IntegratedĠ": 7246,
      "ĠandĠ2020": 7247,
      "dulyĠ": 7248,
      "ofĠanĠ": 7249,
      "appl": 7250,
      "Dod": 7251,
      "ofĠeachĠ": 7252,
      "Exhibit": 7253,
      "PortfolioĠ": 7254,
      "NewĠYork": 7255,
      "AmortizationĠofĠ": 7256,
      "Florid": 7257,
      "2.Ġ": 7258,
      "fees": 7259,
      "inĠfiscalĠ": 7260,
      "leasedĠ": 7261,
      "WeightedĠaverageĠ": 7262,
      "Schol": 7263,
      "7,4": 7264,
      "materialĠrespec": 7265,
      "periodĠfromĠ": 7266,
      "tively,Ġ": 7267,
      "provideĠreasonableĠassuranceĠ": 7268,
      "13ĠorĠ15(d)ĠofĠtheĠ": 7269,
      "estimateĠtheĠ": 7270,
      "doubtfulĠ": 7271,
      "dra": 7272,
      "s.ĠAsĠaĠ": 7273,
      "betterĠ": 7274,
      "Asi": 7275,
      "anĠintegralĠ": 7276,
      "intern": 7277,
      "toĠtheĠCompanyĠ": 7278,
      "subsidiaryĠofĠ": 7279,
      "ularĠ": 7280,
      "designĠandĠ": 7281,
      "Georg": 7282,
      "hazardousĠ": 7283,
      "coveredĠbyĠ": 7284,
      "perĠshare,Ġ": 7285,
      "cannotĠassureĠ": 7286,
      "periodicallyĠ": 7287,
      "STOCKHOLD": 7288,
      "EG": 7289,
      "isĠrequiredĠtoĠ": 7290,
      "2.5": 7291,
      "limitĠtheĠ": 7292,
      "acquired": 7293,
      "WeĠmayĠ": 7294,
      "$Ġ5": 7295,
      "15d-": 7296,
      "Adv": 7297,
      "helpĠ": 7298,
      "judgmentsĠ": 7299,
      "safetyĠandĠ": 7300,
      "Medi": 7301,
      "itcoinĠ": 7302,
      "productsĠandĠservicesĠ": 7303,
      "TIONĠ": 7304,
      "Transac": 7305,
      "91": 7306,
      "secu": 7307,
      "taxĠbenefitĠ": 7308,
      "jointĠventureĠ": 7309,
      "completeĠourĠ": 7310,
      "GainĠ": 7311,
      "sideĠ": 7312,
      "Wes": 7313,
      "sionĠofĠ": 7314,
      "postretirementĠ": 7315,
      "toĠthisĠ": 7316,
      "AccountingĠPolic": 7317,
      "environmentĠ": 7318,
      "increasesĠ": 7319,
      "technologyĠandĠ": 7320,
      "fromĠcontinuingĠ": 7321,
      "sourcesĠofĠ": 7322,
      "ratherĠ": 7323,
      "vad": 7324,
      "estimatesĠandĠassumptionsĠ": 7325,
      "wasĠrequiredĠtoĠ": 7326,
      "issuedĠtoĠ": 7327,
      "acquisitions,Ġ": 7328,
      "redeemableĠ": 7329,
      "7,000": 7330,
      "CEĠ": 7331,
      "Gul": 7332,
      "STATEMENTSĠOFĠ": 7333,
      "extinguish": 7334,
      "deemedĠtoĠbeĠ": 7335,
      "collectivelyĠ": 7336,
      "impactĠonĠtheĠ": 7337,
      "ifyĠ": 7338,
      "Reserv": 7339,
      "Relation": 7340,
      "summaryĠ": 7341,
      "pense": 7342,
      "Defin": 7343,
      "Â¨": 7344,
      "ationĠforĠ": 7345,
      "pound": 7346,
      "enroll": 7347,
      "4.5": 7348,
      "BalanceĠatĠ": 7349,
      "IncludesĠ": 7350,
      "ngĠ": 7351,
      "use,Ġ": 7352,
      "forĠusĠtoĠ": 7353,
      "ateĠandĠ": 7354,
      "integratedĠ": 7355,
      "Cana": 7356,
      "areĠasĠfollows:": 7357,
      "payingĠ": 7358,
      "REĠ": 7359,
      "ance.": 7360,
      "kin": 7361,
      "âĢĶĠâĢĶ": 7362,
      "ANT": 7363,
      "multi-": 7364,
      "chiefĠ": 7365,
      "diseaseĠ": 7366,
      "giv": 7367,
      "meet": 7368,
      ")Ġ$Ġ(": 7369,
      "adverselyĠaffected.": 7370,
      "PerĠ": 7371,
      "4.3": 7372,
      "Total": 7373,
      "thes": 7374,
      "consolidatedĠbalanceĠsheet": 7375,
      "analys": 7376,
      "Prim": 7377,
      "99.": 7378,
      "Div": 7379,
      "mut": 7380,
      "price": 7381,
      "securitiz": 7382,
      "listedĠ": 7383,
      "cardĠ": 7384,
      "isĠrecordedĠ": 7385,
      "methodĠofĠ": 7386,
      "financingĠactivities": 7387,
      "becauseĠofĠ": 7388,
      "Prom": 7389,
      "provisionsĠofĠtheĠ": 7390,
      "accuratelyĠ": 7391,
      "netĠoperatingĠlossĠ": 7392,
      "second": 7393,
      "FDICĠ": 7394,
      "applicable": 7395,
      "debtĠandĠ": 7396,
      "discussedĠinĠ": 7397,
      "s,ĠandĠotherĠ": 7398,
      "2013,Ġ": 7399,
      "levelsĠ": 7400,
      "PublicĠOffer": 7401,
      "FI": 7402,
      "perman": 7403,
      "ulti": 7404,
      "Vent": 7405,
      "agreement,Ġ": 7406,
      "ChiefĠExecutiveĠOfficerĠ": 7407,
      "ersâĢĻĠ": 7408,
      "life": 7409,
      "appr": 7410,
      "ReportĠonĠ": 7411,
      "biolog": 7412,
      "ControlsĠandĠ": 7413,
      "self-": 7414,
      "forceĠ": 7415,
      "preparationĠofĠfinancialĠstatementsĠ": 7416,
      "suppliersĠ": 7417,
      "INCOM": 7418,
      "impairmentĠcharg": 7419,
      "financialĠstatements,Ġ": 7420,
      "underĠaĠ": 7421,
      "participatingĠ": 7422,
      "DepreciationĠandĠ": 7423,
      "hard": 7424,
      "orĠfutureĠ": 7425,
      "takingĠ": 7426,
      "saleĠofĠtheĠ": 7427,
      "relationshipsĠwithĠ": 7428,
      "years.Ġ": 7429,
      "AmountsĠ": 7430,
      "otherĠcomprehensiveĠincomeĠ": 7431,
      "Off": 7432,
      "amountsĠandĠ": 7433,
      "Ġmillion,ĠandĠ": 7434,
      "officersĠ": 7435,
      "reach": 7436,
      "of,Ġ": 7437,
      "ild": 7438,
      "10-QĠforĠtheĠ": 7439,
      "toĠfundĠ": 7440,
      "(g": 7441,
      ".com": 7442,
      "relativelyĠ": 7443,
      "cellĠ": 7444,
      "delinqu": 7445,
      "yingĠtheĠ": 7446,
      "events,Ġ": 7447,
      "operator": 7448,
      "Expense": 7449,
      "Set": 7450,
      "King": 7451,
      "duci": 7452,
      "onĠDecemberĠ": 7453,
      "ĠandĠ2013": 7454,
      "meetĠourĠ": 7455,
      "asĠourĠ": 7456,
      "supplyĠcha": 7457,
      "mechan": 7458,
      "OctoberĠ31,Ġ201": 7459,
      "involvedĠinĠ": 7460,
      "socialĠ": 7461,
      "coveredĠ": 7462,
      "information.": 7463,
      "industry,Ġ": 7464,
      "commerciallyĠ": 7465,
      "marketĠpriceĠofĠourĠ": 7466,
      "sĠ(orĠ": 7467,
      "(k)Ġ": 7468,
      "bĠ": 7469,
      "TheĠinformationĠ": 7470,
      "renewalĠ": 7471,
      "(seeĠExhibitĠ": 7472,
      "Dodd-": 7473,
      "inĠtheĠamountĠofĠ": 7474,
      "feature": 7475,
      "Present": 7476,
      "defend": 7477,
      "continueĠasĠaĠgoingĠ": 7478,
      "certainĠotherĠ": 7479,
      "2021,Ġ": 7480,
      "ic,Ġ": 7481,
      "VIE": 7482,
      "risks,Ġ": 7483,
      "technologicalĠ": 7484,
      "marketingĠandĠ": 7485,
      "indemnificationĠ": 7486,
      "OptionsĠ": 7487,
      "actuarialĠ": 7488,
      "lackĠofĠ": 7489,
      "icsĠ": 7490,
      "determiningĠtheĠ": 7491,
      "clinicalĠtrialsĠ": 7492,
      "ation,ĠtheĠ": 7493,
      "totalĠofĠ": 7494,
      "impactĠofĠtheĠ": 7495,
      "ChiefĠExecutiveĠOfficer": 7496,
      "letterĠ": 7497,
      "sold": 7498,
      "SpecialĠ": 7499,
      "orĠofĠ": 7500,
      "LOSU": 7501,
      "UponĠ": 7502,
      "drivenĠbyĠ": 7503,
      "OW": 7504,
      "issuingĠ": 7505,
      "financialĠandĠ": 7506,
      "candidatesĠ": 7507,
      "impactĠonĠ": 7508,
      "SecuritiesĠAct": 7509,
      "unitholder": 7510,
      "research": 7511,
      "netĠsalesĠ": 7512,
      "willĠhaveĠ": 7513,
      "SeriesĠBĠ": 7514,
      "GH": 7515,
      "TrustĠAccoun": 7516,
      "(theĠ\"": 7517,
      "throughoutĠtheĠ": 7518,
      "DISCLOSU": 7519,
      "whollyĠownedĠ": 7520,
      "adverselyĠaffectĠtheĠ": 7521,
      "IssuanceĠofĠ": 7522,
      "reduceĠourĠ": 7523,
      "readĠ": 7524,
      "timesĠ": 7525,
      ".ĠEachĠ": 7526,
      "2009": 7527,
      "Fre": 7528,
      ".ĠSeeĠNoteĠ": 7529,
      ",ĠandĠweĠ": 7530,
      "than-": 7531,
      "year,Ġ": 7532,
      "U.S.Ġdollar": 7533,
      "ACTĠ": 7534,
      "Center": 7535,
      "SalesĠ": 7536,
      "advisoryĠ": 7537,
      "documentsĠ": 7538,
      "SegmentĠ": 7539,
      "byĠusĠ": 7540,
      "optionĠtoĠ": 7541,
      "healthĠcareĠ": 7542,
      "ReportingĠ": 7543,
      "likelihoodĠ": 7544,
      "fron": 7545,
      "performanceĠofĠ": 7546,
      "reductionsĠ": 7547,
      "earningĠ": 7548,
      "uĠ": 7549,
      "gradeĠ": 7550,
      "4.4": 7551,
      "âĢ¢Ġ": 7552,
      "1,3": 7553,
      "subjectĠtoĠcertainĠ": 7554,
      "exposedĠtoĠ": 7555,
      "andĠtoĠ": 7556,
      "pricesĠforĠ": 7557,
      "ideĠ": 7558,
      "costs.Ġ": 7559,
      "requirementsĠforĠ": 7560,
      "concerningĠ": 7561,
      "operatingĠleaseĠ": 7562,
      "failureĠ": 7563,
      "00%Ġ": 7564,
      "CONT": 7565,
      "anĠaggregateĠofĠ": 7566,
      "awa": 7567,
      "fill": 7568,
      "CorporationĠandĠ": 7569,
      "estimatedĠusefulĠ": 7570,
      "atĠanyĠtimeĠ": 7571,
      "profitsĠ": 7572,
      "ServicingĠ": 7573,
      "spe": 7574,
      "medic": 7575,
      "3.4": 7576,
      "handl": 7577,
      "Carr": 7578,
      "continuesĠtoĠ": 7579,
      "ParkĠ": 7580,
      "theretoĠ": 7581,
      "ProxyĠStatementĠ": 7582,
      "authorityĠ": 7583,
      "accre": 7584,
      "cases,Ġ": 7585,
      "accounting": 7586,
      "Drug": 7587,
      "onĠMayĠ": 7588,
      "toĠusĠ": 7589,
      "theĠCompanyĠandĠ": 7590,
      "contentĠ": 7591,
      ",ĠandĠotherĠ": 7592,
      "appe": 7593,
      "payments,Ġ": 7594,
      "regionalĠ": 7595,
      "becomesĠ": 7596,
      "responsibili": 7597,
      "squareĠfe": 7598,
      "TradingĠ": 7599,
      "Relationship": 7600,
      "tsĠorĠ": 7601,
      "ank": 7602,
      "3.3": 7603,
      "stock-basedĠ": 7604,
      "focusĠonĠ": 7605,
      "stateĠandĠlocalĠ": 7606,
      "AI": 7607,
      "1,Ġ202": 7608,
      "componentsĠofĠ": 7609,
      "FinancialĠStatementsĠandĠSupplementaryĠ": 7610,
      "oneĠofĠtheĠ": 7611,
      "assetsĠandĠliabilities": 7612,
      "sigh": 7613,
      "standardsĠofĠtheĠ": 7614,
      "accountingĠforĠ": 7615,
      "expandĠourĠ": 7616,
      "Pharmaceu": 7617,
      "step": 7618,
      "100.": 7619,
      "Furthermore,Ġ": 7620,
      "tingĠourĠ": 7621,
      "es.ĠInĠ": 7622,
      "....": 7623,
      ")ĠtoĠ": 7624,
      "termĠloanĠ": 7625,
      "comprisedĠofĠ": 7626,
      "exchangeĠforĠ": 7627,
      "sensitiveĠ": 7628,
      "le-": 7629,
      "s.ĠInĠaddition": 7630,
      "demandĠforĠourĠ": 7631,
      "ElectricĠ": 7632,
      "alseĠ": 7633,
      "InternalĠRevenueĠ": 7634,
      "ersĠofĠ": 7635,
      "dian": 7636,
      "informationĠisĠ": 7637,
      "December": 7638,
      "financialĠinstru": 7639,
      "structure": 7640,
      "cost-": 7641,
      "Amount": 7642,
      "streamĠ": 7643,
      "transactionsĠandĠ": 7644,
      "Sw": 7645,
      "ControlsĠandĠProcedures": 7646,
      "Ger": 7647,
      "companiesĠandĠ": 7648,
      "ratesĠandĠ": 7649,
      "EPAĠ": 7650,
      "IncomeĠTaxes": 7651,
      "S.": 7652,
      "inĠeachĠ": 7653,
      "revenueĠfromĠ": 7654,
      "2,2": 7655,
      "failure": 7656,
      ",ĠtheĠFASBĠissuedĠASUĠ": 7657,
      "redeemĠ": 7658,
      "istĠ": 7659,
      "TheĠfollowingĠtableĠpresentsĠ": 7660,
      "PartĠII": 7661,
      "MAT": 7662,
      "Rob": 7663,
      "quot": 7664,
      "benefic": 7665,
      "historicallyĠ": 7666,
      "ivedĠ": 7667,
      "First": 7668,
      "ProvisionĠ": 7669,
      "cancell": 7670,
      "OPERATION": 7671,
      "Ġmillion.ĠTheĠ": 7672,
      "(inĠthousand": 7673,
      "8,4": 7674,
      "analyz": 7675,
      "asĠpartĠofĠ": 7676,
      "netĠofĠtax": 7677,
      "additionĠtoĠtheĠ": 7678,
      "itionĠ": 7679,
      "identifiableĠ": 7680,
      "treasuryĠ": 7681,
      "ManagingĠ": 7682,
      "(expense": 7683,
      "run": 7684,
      "Consoli": 7685,
      "ldĠ": 7686,
      "PlacementĠ": 7687,
      "EnvironmentalĠ": 7688,
      "materialsĠ": 7689,
      "ite-livedĠ": 7690,
      "olin": 7691,
      "thatĠwasĠ": 7692,
      "thereĠwereĠ": 7693,
      "termĠofĠ": 7694,
      "ess,Ġ": 7695,
      "fiduci": 7696,
      "differĠmateriallyĠ": 7697,
      "KE": 7698,
      "veryĠ": 7699,
      "interest,Ġ": 7700,
      "Centr": 7701,
      "operatingĠexpensesĠ": 7702,
      "drillingĠ": 7703,
      "tionaryĠ": 7704,
      "locationsĠ": 7705,
      "RightsĠ": 7706,
      "therebyĠ": 7707,
      "eddedĠ": 7708,
      "policies,Ġ": 7709,
      "AllowanceĠforĠ": 7710,
      "toĠ$": 7711,
      "tamin": 7712,
      "approvedĠbyĠtheĠ": 7713,
      "satisfac": 7714,
      "CanadianĠ": 7715,
      "independentĠregisteredĠpublicĠaccountingĠ": 7716,
      "Dodd-FrankĠ": 7717,
      "(5,": 7718,
      "isĠresponsibleĠforĠ": 7719,
      "intangib": 7720,
      "cashĠandĠ": 7721,
      "duringĠtheĠyearĠendedĠ": 7722,
      "providesĠaĠ": 7723,
      "exceedsĠ": 7724,
      "part,Ġ": 7725,
      "thereĠisĠaĠ": 7726,
      "CEO": 7727,
      "ey": 7728,
      "client": 7729,
      "referredĠtoĠasĠ": 7730,
      "3ĠandĠ201": 7731,
      "acyĠandĠ": 7732,
      "planĠandĠ": 7733,
      "agreements,Ġ": 7734,
      "ence,Ġ": 7735,
      "DisclosureĠ": 7736,
      "WaterĠ": 7737,
      "denti": 7738,
      "areĠgenerallyĠ": 7739,
      "opportunityĠ": 7740,
      "shallĠbeĠ": 7741,
      "cybersecurityĠ": 7742,
      "NasdaqĠ": 7743,
      "(iv)Ġ": 7744,
      "whomĠ": 7745,
      "countedĠ": 7746,
      "adequatelyĠ": 7747,
      "GovernmentĠ": 7748,
      "scienti": 7749,
      "gi": 7750,
      "bothĠtheĠ": 7751,
      "priorityĠ": 7752,
      "R&": 7753,
      "anyĠfutureĠ": 7754,
      "stream": 7755,
      "onĠAprilĠ": 7756,
      "CertificationĠofĠ": 7757,
      "informationĠaboutĠ": 7758,
      "OFĠTHEĠ": 7759,
      "createdĠ": 7760,
      "ViceĠPresidentĠandĠ": 7761,
      "mortgag": 7762,
      "Derivativ": 7763,
      "therapeuticĠ": 7764,
      "-inĠ": 7765,
      "inf": 7766,
      "reliabilityĠ": 7767,
      "orĠun": 7768,
      "value,Ġ": 7769,
      "Independ": 7770,
      "impactedĠbyĠ": 7771,
      "itĠisĠmoreĠlikelyĠthanĠnotĠ": 7772,
      "DR": 7773,
      "Addition": 7774,
      "ourĠproductsĠ": 7775,
      "markets,Ġ": 7776,
      "HI": 7777,
      "1.5": 7778,
      "tangibleĠ": 7779,
      "reten": 7780,
      "government": 7781,
      "confidentialĠ": 7782,
      "inĠtheseĠ": 7783,
      "analysisĠ": 7784,
      "losses,Ġ": 7785,
      "Partic": 7786,
      "yearsĠofĠ": 7787,
      "2012,Ġ": 7788,
      "prior": 7789,
      "institutionsĠ": 7790,
      "document": 7791,
      "immun": 7792,
      "beginningĠafterĠDecemberĠ15": 7793,
      "asĠaĠpercentageĠofĠ": 7794,
      "monitor": 7795,
      "umb": 7796,
      "Under": 7797,
      "goal": 7798,
      "headĠ": 7799,
      "weatherĠ": 7800,
      "WeĠbelieveĠ": 7801,
      "iverĠ": 7802,
      "stockĠoptionĠ": 7803,
      "thisĠrepor": 7804,
      "onĠaĠstraight-lineĠ": 7805,
      "causedĠ": 7806,
      "StockĠOptionĠ": 7807,
      "sam": 7808,
      ".ĠTheĠCompanyâĢĻsĠ": 7809,
      "RetirementĠ": 7810,
      "contractor": 7811,
      "andĠmayĠ": 7812,
      "beforeĠtheĠ": 7813,
      "announcedĠ": 7814,
      "TitleĠ": 7815,
      "yp": 7816,
      "governanceĠ": 7817,
      "ĠmonthsĠ": 7818,
      "vendor": 7819,
      "dismis": 7820,
      "statement": 7821,
      "assessmentĠofĠ": 7822,
      "evaluateĠtheĠ": 7823,
      "areas": 7824,
      "non-U.S.Ġ": 7825,
      "userĠ": 7826,
      "rightĠ": 7827,
      "heldĠinĠtheĠ": 7828,
      "Ltd.Ġ": 7829,
      "Ark": 7830,
      "collaborator": 7831,
      "testsĠ": 7832,
      "facilit": 7833,
      "12b-2ĠofĠtheĠ": 7834,
      "âĢĿ).": 7835,
      "70Ġ": 7836,
      "MeetingĠ": 7837,
      ".ĠT": 7838,
      "primarilyĠofĠ": 7839,
      "estimatesĠofĠ": 7840,
      "activelyĠ": 7841,
      "thisĠreportĠ": 7842,
      "principalĠandĠ": 7843,
      "bat": 7844,
      "commercializeĠ": 7845,
      "AF": 7846,
      "tool": 7847,
      "forĠimpairmentĠ": 7848,
      "impaired": 7849,
      "memberĠofĠtheĠ": 7850,
      "managedĠ": 7851,
      "wasĠapproximatelyĠ$": 7852,
      "eg": 7853,
      "inĠtheĠeventĠofĠ": 7854,
      "ENS": 7855,
      "proceedsĠfromĠ": 7856,
      "promissoryĠ": 7857,
      "becauseĠtheĠ": 7858,
      "(16": 7859,
      "YearsĠEndedĠ": 7860,
      "annivers": 7861,
      "mileston": 7862,
      "PropertyĠ": 7863,
      "withĠanyĠ": 7864,
      "Ethic": 7865,
      "SP": 7866,
      "expensesĠandĠotherĠ": 7867,
      "closingĠofĠtheĠ": 7868,
      "sharesĠofĠtheĠCompanyâĢĻsĠ": 7869,
      "computedĠ": 7870,
      "res.": 7871,
      "errorĠ": 7872,
      "decisionsĠ": 7873,
      "verag": 7874,
      "sharesĠandĠ": 7875,
      "SIGN": 7876,
      "Black-": 7877,
      "tivityĠ": 7878,
      "properties,Ġ": 7879,
      "ViceĠPresident,Ġ": 7880,
      "specificallyĠ": 7881,
      "exhibitĠ": 7882,
      "dea": 7883,
      "considersĠ": 7884,
      "involvesĠ": 7885,
      "contingenc": 7886,
      "wareĠ": 7887,
      "top": 7888,
      "ĠandĠ2011": 7889,
      "purposesĠ": 7890,
      "3.5": 7891,
      "ulg": 7892,
      "buy": 7893,
      "categoryĠ": 7894,
      "UnrealizedĠ": 7895,
      "initialĠbusinessĠcombination": 7896,
      "5ĠtoĠ": 7897,
      "comparedĠwithĠ": 7898,
      "anĠannualĠ": 7899,
      "tiff": 7900,
      "resourcesĠtoĠ": 7901,
      ",ĠdatedĠasĠofĠ": 7902,
      "majorityĠofĠourĠ": 7903,
      "ifĠourĠ": 7904,
      "terror": 7905,
      ",ĠMr.Ġ": 7906,
      "7Ġ$Ġ": 7907,
      "financingĠactivitiesĠ": 7908,
      "aircraf": 7909,
      "onĠandĠ": 7910,
      "CustomerĠ": 7911,
      "worth": 7912,
      "typeĠofĠ": 7913,
      "DecemberĠ31,Ġ2023ĠandĠ": 7914,
      "GM": 7915,
      "intr": 7916,
      "inĠeffectĠ": 7917,
      "6Ġ$Ġ": 7918,
      "impairment": 7919,
      "inhib": 7920,
      "undis": 7921,
      "metĠ": 7922,
      "replacementĠ": 7923,
      "2Ġ$Ġ": 7924,
      "whereĠtheĠ": 7925,
      "byĠreferenceĠtoĠExhibitĠ4.": 7926,
      "otĠ": 7927,
      "epĠ": 7928,
      "anchĠ": 7929,
      "resultedĠinĠ": 7930,
      "charter": 7931,
      "promis": 7932,
      "ProtectionĠ": 7933,
      "3.6": 7934,
      "costlyĠ": 7935,
      "$7.": 7936,
      "URES": 7937,
      "pipelineĠ": 7938,
      "Il": 7939,
      "\")": 7940,
      "TRANS": 7941,
      "3Ġ$Ġ": 7942,
      "ownership": 7943,
      "Austr": 7944,
      "OversightĠ": 7945,
      "MR": 7946,
      "foodĠ": 7947,
      "FinancialĠStatementĠ": 7948,
      "separatelyĠ": 7949,
      "organĠ": 7950,
      "Therap": 7951,
      "spendingĠ": 7952,
      "sĠwereĠ": 7953,
      "circumstances,Ġ": 7954,
      "situ": 7955,
      "shorterĠperiodĠ": 7956,
      "ingĠtoĠtheĠ": 7957,
      ".ĠRe": 7958,
      "Brand": 7959,
      "inĠconjunctionĠ": 7960,
      "8Ġ$Ġ": 7961,
      "4Ġ$Ġ": 7962,
      "assessĠtheĠ": 7963,
      "Black-Schol": 7964,
      "computerĠ": 7965,
      "ardedĠ": 7966,
      "9,000": 7967,
      "9Ġ$Ġ": 7968,
      "Cle": 7969,
      "customersâĢĻĠ": 7970,
      "inĠtheirĠ": 7971,
      "S-K": 7972,
      "unobservableĠ": 7973,
      "Lab": 7974,
      "decl": 7975,
      "Ġmanufac": 7976,
      "OtherĠcomprehensiveĠ": 7977,
      "viaĠ": 7978,
      "precedingĠ12Ġmonth": 7979,
      "edĠasĠaĠ": 7980,
      "$ĠâĢĶĠ$Ġ": 7981,
      "SanĠ": 7982,
      ",Ġ2012,Ġ": 7983,
      "ationĠofĠaĠ": 7984,
      "readyĠ": 7985,
      "LinkbaseĠ": 7986,
      "elsewhereĠinĠthisĠ": 7987,
      "excessĠofĠtheĠ": 7988,
      "generallyĠacceptedĠaccountingĠprincipl": 7989,
      "creditsĠ": 7990,
      "retrospec": 7991,
      "lawsĠorĠ": 7992,
      "rangeĠ": 7993,
      "parties": 7994,
      "revenues": 7995,
      "organization": 7996,
      "Settle": 7997,
      "Participan": 7998,
      "inclus": 7999,
      ".ĠForĠtheĠ": 8000,
      "3ĠtoĠ": 8001,
      "strategiesĠ": 8002,
      "LifeĠ": 8003,
      "s:Ġ": 8004,
      "frac": 8005,
      "4.8": 8006,
      "wholesaleĠ": 8007,
      "SECTIONĠ": 8008,
      "Expenses": 8009,
      "AgreementĠwithĠ": 8010,
      "amongĠother": 8011,
      "SectionĠ13ĠorĠ15(d)ĠofĠtheĠ": 8012,
      "mergerĠ": 8013,
      "ist": 8014,
      "ĠandĠ2017": 8015,
      "ChiefĠFinancialĠOfficer": 8016,
      "-monthĠ": 8017,
      "certa": 8018,
      "including": 8019,
      "clientĠ": 8020,
      "N.": 8021,
      "sureĠ": 8022,
      "ĠmoreĠ": 8023,
      "andĠfinancialĠ": 8024,
      "ainingĠ": 8025,
      "recognizesĠ": 8026,
      "Cal": 8027,
      "mateĠ": 8028,
      "onĠOctoberĠ": 8029,
      "toĠwhichĠ": 8030,
      "Sm": 8031,
      "input": 8032,
      "thisĠAnnualĠReportĠonĠFormĠ10-K": 8033,
      "completionĠofĠtheĠ": 8034,
      "pursuantĠtoĠwhichĠ": 8035,
      "Appro": 8036,
      "prevail": 8037,
      "ĠandĠ2018": 8038,
      "truste": 8039,
      "onĠNovemberĠ": 8040,
      "PartnersĠ": 8041,
      "pointsĠ": 8042,
      "Let": 8043,
      "budg": 8044,
      "stockĠpriceĠ": 8045,
      "giveĠ": 8046,
      "naturalĠgas": 8047,
      "trig": 8048,
      "issuableĠ": 8049,
      "2.1": 8050,
      "revenues,Ġ": 8051,
      "33,": 8052,
      "thereĠcanĠbeĠnoĠassuranceĠ": 8053,
      "syl": 8054,
      "GulfĠ": 8055,
      "sha": 8056,
      ".ĠP": 8057,
      "requirement": 8058,
      "positionĠofĠ": 8059,
      "âĢĶĠâĢĶĠâĢĶĠâĢĶĠ": 8060,
      "WarrantĠ": 8061,
      "uniqu": 8062,
      "New": 8063,
      "impli": 8064,
      "requirements.Ġ": 8065,
      "productĠcandidateĠ": 8066,
      "2.6": 8067,
      "s.ĠWeĠbelieveĠ": 8068,
      "PrepaidĠ": 8069,
      "lit": 8070,
      "terminateĠ": 8071,
      "turalĠ": 8072,
      "RIS": 8073,
      "dilig": 8074,
      "DecemberĠ31,Ġ2014": 8075,
      "syn": 8076,
      "execut": 8077,
      "findĠ": 8078,
      "2.2": 8079,
      "apprais": 8080,
      "fromĠotherĠ": 8081,
      "estimateĠofĠ": 8082,
      "1Ġ$Ġ": 8083,
      "China": 8084,
      "ariseĠ": 8085,
      "referenceĠ": 8086,
      "expectationsĠ": 8087,
      ".ĠDuringĠ": 8088,
      "onĠwhichĠ": 8089,
      "inĠsuchĠ": 8090,
      "issionĠ": 8091,
      "LLC,ĠasĠ": 8092,
      "settingĠ": 8093,
      "ChairmanĠofĠtheĠ": 8094,
      "necessarilyĠ": 8095,
      "(c)": 8096,
      "AĠandĠ": 8097,
      "thĠofĠ": 8098,
      "Ġmarke": 8099,
      "ConsolidatedĠBalanceĠSheet": 8100,
      "Rem": 8101,
      "CurrentĠReportĠonĠFormĠ8-KĠfiledĠonĠ": 8102,
      "9,4": 8103,
      "itiz": 8104,
      "financing": 8105,
      "worldwideĠ": 8106,
      "lino": 8107,
      "wouldĠhaveĠ": 8108,
      "InternetĠ": 8109,
      "IncomeĠtaxĠ": 8110,
      "accountingĠprinciplesĠgenerallyĠacceptedĠ": 8111,
      "ailureĠtoĠ": 8112,
      "chargedĠtoĠ": 8113,
      "whichĠwasĠ": 8114,
      "beyondĠourĠ": 8115,
      "Atl": 8116,
      "Manufac": 8117,
      "Enti": 8118,
      "dated": 8119,
      "BoardĠ(": 8120,
      "makesĠ": 8121,
      "accompanyingĠnotesĠareĠ": 8122,
      "3.7": 8123,
      "relatesĠ": 8124,
      "largelyĠ": 8125,
      "legislationĠ": 8126,
      "incorporatedĠhereinĠbyĠreference.": 8127,
      "manufacturersĠ": 8128,
      "LIBOR": 8129,
      "sylvan": 8130,
      "securedĠbyĠ": 8131,
      "difficultiesĠ": 8132,
      "qualifyingĠ": 8133,
      "Balance,Ġ": 8134,
      "outsideĠ": 8135,
      "shif": 8136,
      "AdministrativeĠ": 8137,
      "applyĠtoĠ": 8138,
      "Illino": 8139,
      "plans": 8140,
      "support": 8141,
      "contem": 8142,
      "5Ġ$Ġ": 8143,
      "BasisĠ": 8144,
      "fiduciaryĠ": 8145,
      "ScheduleĠ": 8146,
      "freeĠofĠ": 8147,
      "holdingĠcompanyĠ": 8148,
      "caseĠofĠ": 8149,
      "collaborationĠ": 8150,
      "FrameworkĠ": 8151,
      "currentĠassets": 8152,
      "ev": 8153,
      "warrantyĠ": 8154,
      "including,ĠbutĠnotĠ": 8155,
      "determinedĠthatĠ": 8156,
      "performĠtheĠ": 8157,
      "No.": 8158,
      "BasicĠ": 8159,
      "Form": 8160,
      "8.0": 8161,
      "PURSU": 8162,
      "week": 8163,
      "useĠinĠ": 8164,
      "focusedĠonĠ": 8165,
      "Corp.Ġ": 8166,
      "orĠinĠ": 8167,
      "frau": 8168,
      "asĠofĠDecemberĠ31,Ġ2020": 8169,
      "translationĠ": 8170,
      "underĠSectionĠ": 8171,
      "1.3": 8172,
      "riskĠmanagementĠ": 8173,
      "recordsĠ": 8174,
      "s,ĠsuchĠasĠ": 8175,
      "wasĠprimarilyĠdueĠtoĠ": 8176,
      "4.6": 8177,
      "groundĠ": 8178,
      "requirementsĠandĠ": 8179,
      ".ĠTheĠCompanyĠhasĠ": 8180,
      "threeĠyearsĠ": 8181,
      "individualsĠ": 8182,
      "Number": 8183,
      "successfulĠinĠ": 8184,
      "Pennsylvan": 8185,
      ",ĠwithĠ": 8186,
      "Litig": 8187,
      "Company.": 8188,
      "goodsĠ": 8189,
      "thousandĠ": 8190,
      "infringementĠ": 8191,
      "Revenue": 8192,
      "effective": 8193,
      "IssuerĠ": 8194,
      "3.8": 8195,
      "improvedĠ": 8196,
      "15(d)Ġ": 8197,
      "1.4": 8198,
      "creditĠlossesĠ": 8199,
      "pledg": 8200,
      "privateĠplacementĠ": 8201,
      "1934": 8202,
      "thereto": 8203,
      "objectiveĠ": 8204,
      "rulesĠandĠregulationsĠ": 8205,
      "Avail": 8206,
      "Applic": 8207,
      "income.": 8208,
      "performance,Ġ": 8209,
      "âĦ": 8210,
      "capabilitiesĠ": 8211,
      "occurrenceĠofĠ": 8212,
      "PaymentsĠ": 8213,
      "NASDAQĠ": 8214,
      "5ĠandĠ": 8215,
      "s,ĠInc.Ġ": 8216,
      "2.3": 8217,
      "BB": 8218,
      "outsideĠofĠtheĠ": 8219,
      "someĠofĠourĠ": 8220,
      "fromĠtimeĠtoĠtimeĠ": 8221,
      "targetedĠ": 8222,
      "altyĠ": 8223,
      "foot": 8224,
      "assetsĠacquiredĠ": 8225,
      "IndustrialĠ": 8226,
      "PURSUANTĠ": 8227,
      "Cri": 8228,
      "wereĠasĠfollows:": 8229,
      "achin": 8230,
      "exist": 8231,
      "âĦ¢": 8232,
      "7.0": 8233,
      "ingĠinĠ": 8234,
      "manner": 8235,
      "corporationĠ": 8236,
      "maintainĠaĠ": 8237,
      "supplier": 8238,
      "Ren": 8239,
      "edĠourĠ": 8240,
      "contractsĠwithĠ": 8241,
      "thatĠweĠwillĠ": 8242,
      "reportedĠamountsĠofĠ": 8243,
      "olog": 8244,
      "through": 8245,
      "ucture": 8246,
      "certificateĠofĠ": 8247,
      "regardĠ": 8248,
      "embeddedĠ": 8249,
      ";Ġ(ii)Ġ": 8250,
      "FairĠValueĠMeasure": 8251,
      "basis.": 8252,
      "ĠandĠ2019": 8253,
      "radi": 8254,
      "beneficiallyĠ": 8255,
      "tenderĠ": 8256,
      "1.2": 8257,
      "interestĠinĠtheĠ": 8258,
      "edi": 8259,
      "principalĠexecutiveĠoffic": 8260,
      "customers.Ġ": 8261,
      "performanceĠandĠ": 8262,
      "90Ġday": 8263,
      "FinancialĠStatementĠSchedul": 8264,
      "issi": 8265,
      "DistributionĠ": 8266,
      "monetaryĠ": 8267,
      "three-yearĠ": 8268,
      "CareĠ": 8269,
      "2009Ġ": 8270,
      "tablesĠ": 8271,
      "applicable.": 8272,
      "ownershipĠofĠ": 8273,
      "disruptionsĠ": 8274,
      "hotel": 8275,
      "34,": 8276,
      "andĠregulatoryĠ": 8277,
      "Employe": 8278,
      "StreetĠ": 8279,
      "FinancialĠStatementsĠandĠSupplementaryĠData": 8280,
      "onĠtheĠdateĠofĠ": 8281,
      "forĠsuchĠshorterĠperiodĠ": 8282,
      "NaturalĠ": 8283,
      "):": 8284,
      "recognizedĠinĠ": 8285,
      "ertĠ": 8286,
      ")ĠtheĠ": 8287,
      "TierĠ1Ġ": 8288,
      "pursuantĠtoĠRuleĠ": 8289,
      "onĠAugustĠ": 8290,
      "Plans": 8291,
      "32,": 8292,
      "PRCĠ": 8293,
      "penalties,Ġ": 8294,
      "bonusĠ": 8295,
      "ACTĠOFĠ": 8296,
      "DistrictĠ": 8297,
      "cleĠ": 8298,
      ".ĠUnderĠ": 8299,
      "vide": 8300,
      "$0.00": 8301,
      "owever,ĠtheĠ": 8302,
      "ReportĠofĠ": 8303,
      "determinationĠ": 8304,
      "containedĠ": 8305,
      "Ber": 8306,
      "Indenture": 8307,
      "ĠandĠitsĠ": 8308,
      "1.8": 8309,
      "FinancialĠInstru": 8310,
      "spreadĠ": 8311,
      "Gain": 8312,
      "issuanc": 8313,
      "costĠandĠ": 8314,
      "CER": 8315,
      "Low": 8316,
      "recru": 8317,
      "PURSUANTĠTOĠ": 8318,
      "developmentsĠ": 8319,
      "promulg": 8320,
      "IndependentĠRegisteredĠPublicĠAccountingĠFirm": 8321,
      "sourceĠofĠ": 8322,
      "Bancorp": 8323,
      "ofĠtheirĠ": 8324,
      "ts,ĠtheĠ": 8325,
      "rail": 8326,
      "reverseĠ": 8327,
      "Star": 8328,
      "AgreementĠbetweenĠ": 8329,
      ".ĠSub": 8330,
      "subscriptionĠ": 8331,
      "ĠandĠ2016": 8332,
      "proceeding": 8333,
      "Value": 8334,
      "es,": 8335,
      "oly": 8336,
      "2ĠtoĠtheĠ": 8337,
      "plans,Ġ": 8338,
      "OwnershipĠofĠ": 8339,
      "Tw": 8340,
      "rowĠ": 8341,
      "1.7": 8342,
      "liquidationĠ": 8343,
      "PriceĠ": 8344,
      "Arkans": 8345,
      "valuationĠofĠ": 8346,
      "including:": 8347,
      "claimsĠandĠ": 8348,
      "VER": 8349,
      "inĠsomeĠ": 8350,
      "abilityĠofĠourĠ": 8351,
      "1.6": 8352,
      "4.7": 8353,
      "avo": 8354,
      "ValuationĠ": 8355,
      "financialĠinstitutionsĠ": 8356,
      "onĠtheseĠ": 8357,
      "year-": 8358,
      "managingĠ": 8359,
      "cancel": 8360,
      "weĠareĠnotĠ": 8361,
      "stepĠ": 8362,
      "ProductsĠ": 8363,
      "astro": 8364,
      "attest": 8365,
      "NetĠcashĠusedĠinĠ": 8366,
      "SEĠ": 8367,
      "forĠtheĠpurposeĠofĠ": 8368,
      "2.4": 8369,
      ".ĠPriorĠtoĠ": 8370,
      "above,Ġ": 8371,
      "tionedĠ": 8372,
      "thanĠweĠ": 8373,
      "officers,Ġ": 8374,
      "patentĠapplicationsĠ": 8375,
      "cannotĠassureĠyouĠ": 8376,
      "%.": 8377,
      "customersĠtoĠ": 8378,
      "directlyĠorĠin": 8379,
      "setĠforthĠinĠtheĠ": 8380,
      "scheduledĠ": 8381,
      "services.": 8382,
      "exercisedĠ": 8383,
      "Strateg": 8384,
      "Vo": 8385,
      "impairĠ": 8386,
      "borrowerĠ": 8387,
      "tĠorĠ": 8388,
      "toĠsupportĠ": 8389,
      "as,Ġ": 8390,
      "Om": 8391,
      "operatesĠ": 8392,
      "FERCĠ": 8393,
      "Ver": 8394,
      "assessingĠtheĠ": 8395,
      "LegalĠProceed": 8396,
      "regularlyĠ": 8397,
      "expertiseĠ": 8398,
      "rout": 8399,
      "$15": 8400,
      "callĠ": 8401,
      "outcomeĠofĠ": 8402,
      "âĢĿĠorĠ": 8403,
      ",ĠtheĠCompanyĠissuedĠ": 8404,
      "Cam": 8405,
      "ANAG": 8406,
      "NĠ": 8407,
      "e.ĠOurĠ": 8408,
      "(5)": 8409,
      "roughĠ": 8410,
      "bod": 8411,
      "os": 8412,
      "contamin": 8413,
      "ITIONĠ": 8414,
      "subsidiary,Ġ": 8415,
      "organizationĠ": 8416,
      "Ms.Ġ": 8417,
      "tingĠaĠ": 8418,
      "additionalĠcapitalĠ": 8419,
      "obligationĠtoĠ": 8420,
      "price,Ġ": 8421,
      "restrictedĠstockĠunitsĠ": 8422,
      "electronicallyĠ": 8423,
      "frameworkĠ": 8424,
      "financialĠresul": 8425,
      "payments": 8426,
      "obligationsĠandĠ": 8427,
      "UnitedĠKing": 8428,
      "payĠtheĠ": 8429,
      "fairĠvalueĠmeasure": 8430,
      "Claim": 8431,
      "expenseĠofĠ$": 8432,
      "Hedg": 8433,
      "CommitteeĠofĠ": 8434,
      "rightsĠandĠ": 8435,
      "AnnualĠReport": 8436,
      "accompanyingĠnotesĠareĠanĠintegralĠ": 8437,
      "-BasedĠ": 8438,
      "onĠJulyĠ": 8439,
      ".ĠTher": 8440,
      "reflectsĠtheĠ": 8441,
      "%)": 8442,
      "proto": 8443,
      "ableĠandĠ": 8444,
      "sequentĠ": 8445,
      "deductibleĠ": 8446,
      "FORM": 8447,
      "regulatoryĠauthoritiesĠ": 8448,
      "quantitativeĠ": 8449,
      "Identi": 8450,
      "ITIES": 8451,
      "receivable,Ġ": 8452,
      "2ĠandĠ2021": 8453,
      "Treasur": 8454,
      "carryingĠvalueĠofĠ": 8455,
      "Decreas": 8456,
      "Ended": 8457,
      "claims,Ġ": 8458,
      "resolvedĠ": 8459,
      "rangingĠfromĠ": 8460,
      "atedĠbyĠ": 8461,
      "decess": 8462,
      "tmentĠ": 8463,
      "performedĠ": 8464,
      ",Ġ2016,Ġ": 8465,
      "Loss)Ġ": 8466,
      "livesĠ": 8467,
      "exĠ": 8468,
      "ed,ĠtheĠ": 8469,
      "fillĠ": 8470,
      "Los": 8471,
      "purchasesĠ": 8472,
      "industry": 8473,
      "RealĠEstateĠ": 8474,
      "issuer": 8475,
      "CenterĠ": 8476,
      "also": 8477,
      "3Ġ)": 8478,
      "CreditĠAgreement": 8479,
      "countĠ": 8480,
      "usĠfromĠ": 8481,
      "equity,Ġ": 8482,
      "LessĠ": 8483,
      "2.8": 8484,
      "weightedĠ": 8485,
      "2Ġ)": 8486,
      "exchangeĠrateĠ": 8487,
      "franchiseĠ": 8488,
      "sĠtoĠtheĠ": 8489,
      "listingĠ": 8490,
      "FixedĠ": 8491,
      "liquidĠ": 8492,
      ",\"Ġ\"": 8493,
      "sâĢĻ": 8494,
      "commonĠunitsĠ": 8495,
      "headquarter": 8496,
      "issipp": 8497,
      "vehicl": 8498,
      "MarketingĠ": 8499,
      "conom": 8500,
      "advancesĠ": 8501,
      "Street": 8502,
      "descrip": 8503,
      "qualifi": 8504,
      "2016-": 8505,
      "healthĠandĠ": 8506,
      "insurance": 8507,
      "majorityĠofĠtheĠ": 8508,
      "investingĠactivities": 8509,
      "influenc": 8510,
      "2.7": 8511,
      "gather": 8512,
      "IfĠtheĠ": 8513,
      "third-partyĠpay": 8514,
      "IncorporatedĠbyĠreferenceĠtoĠExhibitĠ10.": 8515,
      ")Ġ$Ġ": 8516,
      "debtĠissuanceĠ": 8517,
      "DukeĠ": 8518,
      "7Ġ)": 8519,
      "understand": 8520,
      "ississipp": 8521,
      "appear": 8522,
      "foreseeableĠfuture": 8523,
      "Softw": 8524,
      "patientsĠwithĠ": 8525,
      "inĠaccordanceĠwithĠtheĠstandardsĠofĠtheĠ": 8526,
      "EXCHANGEĠACTĠOFĠ": 8527,
      "Mater": 8528,
      "aveĠ": 8529,
      "table": 8530,
      "uringĠ": 8531,
      "anĠentityĠ": 8532,
      "STR": 8533,
      "reflectsĠ": 8534,
      "PublicĠCompanyĠ": 8535,
      "merchand": 8536,
      "AnĠ": 8537,
      "ilĠandĠ": 8538,
      "assessmentĠofĠtheĠ": 8539,
      "CORPOR": 8540,
      "Do": 8541,
      "Omn": 8542,
      "4.9": 8543,
      "precedingĠ12ĠmonthsĠ(orĠ": 8544,
      "simul": 8545,
      "(asĠ": 8546,
      "3/": 8547,
      "therefore,Ġ": 8548,
      ",000,000Ġ": 8549,
      "targetĠbusinessĠ": 8550,
      "ruleĠ": 8551,
      "tifiedĠ": 8552,
      "deficit": 8553,
      "designatedĠasĠ": 8554,
      "recommend": 8555,
      "$12": 8556,
      "collectĠ": 8557,
      "EMENTĠ": 8558,
      "HoldingĠ": 8559,
      "s.ĠThereĠ": 8560,
      "partĠofĠtheseĠ": 8561,
      "could": 8562,
      "lawsuitsĠ": 8563,
      "nameĠ": 8564,
      "isĠbasedĠonĠ": 8565,
      "attributableĠtoĠtheĠ": 8566,
      "COĠ": 8567,
      "haveĠaĠmaterialĠadverseĠeffectĠonĠourĠ": 8568,
      "th,Ġ": 8569,
      "areĠincludedĠinĠ": 8570,
      "electronicĠ": 8571,
      "StatesĠ": 8572,
      "JohnĠ": 8573,
      "groupĠofĠ": 8574,
      "issuedĠinĠ": 8575,
      "IIIĠ": 8576,
      "ClinicalĠ": 8577,
      ".ĠFromĠ": 8578,
      "effectivenessĠofĠourĠ": 8579,
      "ASSE": 8580,
      "inĠallĠmaterialĠrespec": 8581,
      "tionĠforĠ": 8582,
      "ateĠaĠ": 8583,
      "2008Ġ": 8584,
      "resultingĠfromĠtheĠ": 8585,
      "13ĠORĠ": 8586,
      "ulativeĠ": 8587,
      "Communic": 8588,
      "Affili": 8589,
      "3ĠandĠ": 8590,
      "linesĠofĠ": 8591,
      "Properties": 8592,
      "SuchĠ": 8593,
      "onĠJuneĠ": 8594,
      "IndentureĠ": 8595,
      "poss": 8596,
      "West": 8597,
      "power": 8598,
      "ĠandĠ2015": 8599,
      "SFĠ": 8600,
      "DecemberĠ31,Ġ2012": 8601,
      "derivedĠfromĠ": 8602,
      "ario": 8603,
      "pir": 8604,
      "completionĠofĠ": 8605,
      "Long-TermĠ": 8606,
      "AE": 8607,
      "ID": 8608,
      "ron": 8609,
      "espec": 8610,
      "isĠeffectiveĠ": 8611,
      "debtĠsecuritiesĠ": 8612,
      "fromĠtheseĠ": 8613,
      "interestĠrate": 8614,
      "break": 8615,
      "supervisionĠ": 8616,
      "(LevelĠ": 8617,
      "olec": 8618,
      "icon": 8619,
      "producingĠ": 8620,
      "s.ĠSuchĠ": 8621,
      "Contingenc": 8622,
      "individuallyĠ": 8623,
      "inven": 8624,
      ",ĠtheĠCompanyĠhasĠ": 8625,
      "completedĠtheĠ": 8626,
      "exposure": 8627,
      "casesĠ": 8628,
      "cla": 8629,
      ",Ġ2022,Ġ": 8630,
      "RulesĠ": 8631,
      "alli": 8632,
      "changeĠofĠ": 8633,
      "effectĠonĠtheĠ": 8634,
      "jurisdiction": 8635,
      "secondaryĠ": 8636,
      "expenseĠandĠ": 8637,
      "expensiveĠ": 8638,
      "24Ġ": 8639,
      "Tread": 8640,
      "Alli": 8641,
      "hadĠbeenĠ": 8642,
      "unrecognizedĠtaxĠbenefitsĠ": 8643,
      "ĠmanagementĠ": 8644,
      "inĠandĠ": 8645,
      ".ĠBeca": 8646,
      "LouisianaĠ": 8647,
      "reportingĠperiod": 8648,
      "changesĠinĠourĠ": 8649,
      "earningsĠperĠshareĠ": 8650,
      "madeĠtoĠ": 8651,
      "isĠgenerallyĠ": 8652,
      "Construc": 8653,
      "enterpriseĠ": 8654,
      "FORMĠ": 8655,
      "propos": 8656,
      "benefici": 8657,
      "isĠnotĠrequiredĠtoĠ": 8658,
      "Black-ScholesĠ": 8659,
      "37,": 8660,
      "8Ġ)": 8661,
      "informationĠtechnologyĠ": 8662,
      "(1,0": 8663,
      ",ĠwhichĠmayĠ": 8664,
      "offeringsĠ": 8665,
      "PURSUANTĠTOĠSECTIONĠ": 8666,
      "ationsĠorĠ": 8667,
      "Â§": 8668,
      "sed,Ġ": 8669,
      "ceas": 8670,
      "ContractsĠ": 8671,
      "StockholdersâĢĻĠ": 8672,
      "Price": 8673,
      "3.9": 8674,
      "ManagementĠandĠ": 8675,
      "earlierĠ": 8676,
      "orâĢĻsĠ": 8677,
      "functionalĠ": 8678,
      "investingĠactivitiesĠ": 8679,
      "yl": 8680,
      "accid": 8681,
      "obtainedĠ": 8682,
      "knownĠasĠ": 8683,
[...]
