{
  "version": "1.0",
  "truncation": null,
  "padding": null,
  "added_tokens": [
    {
      "id": 0,
      "content": "<|endoftext|>",
      "single_word": false,
      "lstrip": false,
      "rstrip": false,
      "normalized": false,
      "special": true
    }
  ],
  "normalizer": null,
  "pre_tokenizer": {
    "type": "ByteLevel",
    "add_prefix_space": false,
    "trim_offsets": true,
    "use_regex": true
  },
  "post_processor": null,
  "decoder": {
    "type": "ByteLevel",
    "add_prefix_space": true,
    "trim_offsets": true,
    "use_regex": true
  },
  "model": {
    "type": "BPE",
    "dropout": null,
    "unk_token": null,
    "continuing_subword_prefix": null,
    "end_of_word_suffix": null,
    "fuse_unk": false,
    "byte_fallback": false,
    "ignore_merges": false,
    "vocab": {
      "<|endoftext|>": 0,
      "!": 1,
      "\"": 2,
      "#": 3,
      "$": 4,
      "%": 5,
      "&": 6,
      "'": 7,
      "(": 8,
      ")": 9,
      "*": 10,
      "+": 11,
      ",": 12,
      "-": 13,
      ".": 14,
      "/": 15,
      "0": 16,
      "1": 17,
      "2": 18,
      "3": 19,
      "4": 20,
      "5": 21,
      "6": 22,
      "7": 23,
      "8": 24,
      "9": 25,
      ":": 26,
      ";": 27,
      "<": 28,
      "=": 29,
      ">": 30,
      "?": 31,
      "@": 32,
      "A": 33,
      "B": 34,
      "C": 35,
      "D": 36,
      "E": 37,
      "F": 38,
      "G": 39,
      "H": 40,
      "I": 41,
      "J": 42,
      "K": 43,
      "L": 44,
      "M": 45,
      "N": 46,
      "O": 47,
      "P": 48,
      "Q": 49,
      "R": 50,
      "S": 51,
      "T": 52,
      "U": 53,
      "V": 54,
      "W": 55,
      "X": 56,
      "Y": 57,
      "Z": 58,
      "[": 59,
      "\\": 60,
      "]": 61,
      "^": 62,
      "_": 63,
      "`": 64,
      "a": 65,
      "b": 66,
      "c": 67,
      "d": 68,
      "e": 69,
      "f": 70,
      "g": 71,
      "h": 72,
      "i": 73,
      "j": 74,
      "k": 75,
      "l": 76,
      "m": 77,
      "n": 78,
      "o": 79,
      "p": 80,
      "q": 81,
      "r": 82,
      "s": 83,
      "t": 84,
      "u": 85,
      "v": 86,
      "w": 87,
      "x": 88,
      "y": 89,
      "z": 90,
      "{": 91,
      "|": 92,
      "}": 93,
      "~": 94,
      "¡": 95,
      "¢": 96,
      "£": 97,
      "¤": 98,
      "¥": 99,
      "¦": 100,
      "§": 101,
      "¨": 102,
      "©": 103,
      "ª": 104,
      "«": 105,
      "¬": 106,
      "®": 107,
      "¯": 108,
      "°": 109,
      "±": 110,
      "²": 111,
      "³": 112,
      "´": 113,
      "µ": 114,
      "¶": 115,
      "·": 116,
      "¸": 117,
      "¹": 118,
      "º": 119,
      "»": 120,
      "¼": 121,
      "½": 122,
      "¾": 123,
      "¿": 124,
      "À": 125,
      "Á": 126,
      "Â": 127,
      "Ã": 128,
      "Ä": 129,
      "Å": 130,
      "Æ": 131,
      "Ç": 132,
      "È": 133,
      "É": 134,
      "Ê": 135,
      "Ë": 136,
      "Ì": 137,
      "Í": 138,
      "Î": 139,
      "Ï": 140,
      "Ð": 141,
      "Ñ": 142,
      "Ò": 143,
      "Ó": 144,
      "Ô": 145,
      "Õ": 146,
      "Ö": 147,
      "×": 148,
      "Ø": 149,
      "Ù": 150,
      "Ú": 151,
      "Û": 152,
      "Ü": 153,
      "Ý": 154,
      "Þ": 155,
      "ß": 156,
      "à": 157,
      "á": 158,
      "â": 159,
      "ã": 160,
      "ä": 161,
      "å": 162,
      "æ": 163,
      "ç": 164,
      "è": 165,
      "é": 166,
      "ê": 167,
      "ë": 168,
      "ì": 169,
      "í": 170,
      "î": 171,
      "ï": 172,
      "ð": 173,
      "ñ": 174,
      "ò": 175,
      "ó": 176,
      "ô": 177,
      "õ": 178,
      "ö": 179,
      "÷": 180,
      "ø": 181,
      "ù": 182,
      "ú": 183,
      "û": 184,
      "ü": 185,
      "ý": 186,
      "þ": 187,
      "ÿ": 188,
      "Ā": 189,
      "ā": 190,
      "Ă": 191,
      "ă": 192,
      "Ą": 193,
      "ą": 194,
      "Ć": 195,
      "ć": 196,
      "Ĉ": 197,
      "ĉ": 198,
      "Ċ": 199,
      "ċ": 200,
      "Č": 201,
      "č": 202,
      "Ď": 203,
      "ď": 204,
      "Đ": 205,
      "đ": 206,
      "Ē": 207,
      "ē": 208,
      "Ĕ": 209,
      "ĕ": 210,
      "Ė": 211,
      "ė": 212,
      "Ę": 213,
      "ę": 214,
      "Ě": 215,
      "ě": 216,
      "Ĝ": 217,
      "ĝ": 218,
      "Ğ": 219,
      "ğ": 220,
      "Ġ": 221,
      "ġ": 222,
      "Ģ": 223,
      "ģ": 224,
      "Ĥ": 225,
      "ĥ": 226,
      "Ħ": 227,
      "ħ": 228,
      "Ĩ": 229,
      "ĩ": 230,
      "Ī": 231,
      "ī": 232,
      "Ĭ": 233,
      "ĭ": 234,
      "Į": 235,
      "į": 236,
      "İ": 237,
      "ı": 238,
      "Ĳ": 239,
      "ĳ": 240,
      "Ĵ": 241,
      "ĵ": 242,
      "Ķ": 243,
      "ķ": 244,
      "ĸ": 245,
      "Ĺ": 246,
      "ĺ": 247,
      "Ļ": 248,
      "ļ": 249,
      "Ľ": 250,
      "ľ": 251,
      "Ŀ": 252,
      "ŀ": 253,
      "Ł": 254,
      "ł": 255,
      "Ń": 256,
      "Ġa": 257,
      "in": 258,
      "Ġt": 259,
      "re": 260,
      "Ġo": 261,
      "er": 262,
      "on": 263,
      "he": 264,
      "ti": 265,
      "en": 266,
      "es": 267,
      "an": 268,
      "Ġthe": 269,
      "Ġc": 270,
      "ed": 271,
      "al": 272,
      "or": 273,
      "Ġan": 274,
      "at": 275,
      "Ġof": 276,
      "Ġin": 277,
      "Ġp": 278,
      "Ġs": 279,
      "Ġf": 280,
      "Ġand": 281,
      "tion": 282,
      "it": 283,
      "ing": 284,
      "Ġre": 285,
      "ar": 286,
      "ur": 287,
      "om": 288,
      "ent": 289,
      "is": 290,
      "Ġto": 291,
      "Ġw": 292,
      "Ġb": 293,
      "Ġm": 294,
      "Ġd": 295,
      "ic": 296,
      "ec": 297,
      "as": 298,
      "ro": 299,
      "ment": 300,
      "il": 301,
      "Ġe": 302,
      "ation": 303,
      "st": 304,
      "et": 305,
      "20": 306,
      "ve": 307,
      "ĠC": 308,
      "Ġl": 309,
      "un": 310,
      "Ġ20": 311,
      "ce": 312,
      "ul": 313,
      "Ġn": 314,
      "Ġas": 315,
      "omp": 316,
      "Ġour": 317,
      "ate": 318,
      "Ġth": 319,
      "ol": 320,
      "ct": 321,
      "ly": 322,
      "ĠA": 323,
      "Ġor": 324,
      "us": 325,
      "âĢ": 326,
      "le": 327,
      "Ġfor": 328,
      "Ġpro": 329,
      "id": 330,
      "ĠS": 331,
      "Ġcon": 332,
      "th": 333,
      "ab": 334,
      "qu": 335,
      "im": 336,
      "ers": 337,
      "Ġon": 338,
      "lo": 339,
      "Ġex": 340,
      "ĠT": 341,
      "ated": 342,
      "Ġ201": 343,
      "ch": 344,
      "Ġh": 345,
      "Ġinc": 346,
      "em": 347,
      "ot": 348,
      "ay": 349,
      "ci": 350,
      "Ġbe": 351,
      "li": 352,
      "red": 353,
      "Ġst": 354,
      "Ġ(": 355,
      "Ġ1": 356,
      "ĠI": 357,
      "ge": 358,
      "Ġsu": 359,
      "Ġwe": 360,
      "ity": 361,
      "ith": 362,
      "Ġis": 363,
      "ess": 364,
      "ompan": 365,
      "ect": 366,
      "ĠD": 367,
      "ments": 368,
      "ut": 369,
      "Ġwith": 370,
      "Ġ$": 371,
      "res": 372,
      "ĠF": 373,
      "se": 374,
      "Ġg": 375,
      "ain": 376,
      "ir": 377,
      "ĠP": 378,
      "per": 379,
      "Ġac": 380,
      "ompany": 381,
      "ties": 382,
      "Ġare": 383,
      "Ġde": 384,
      "ff": 385,
      "Ġthat": 386,
      "end": 387,
      "ri": 388,
      "Ġco": 389,
      "ts": 390,
      "tive": 391,
      "ber": 392,
      "00": 393,
      "Ġ3": 394,
      "Ġby": 395,
      "ue": 396,
      "ver": 397,
      "por": 398,
      "ud": 399,
      "Ġv": 400,
      "ra": 401,
      "Ġun": 402,
      "ance": 403,
      "ations": 404,
      "ther": 405,
      "able": 406,
      "Ġres": 407,
      "ition": 408,
      "ĠR": 409,
      "Ġint": 410,
      "oc": 411,
      "Ġad": 412,
      "ĠM": 413,
      "ĠE": 414,
      "du": 415,
      "est": 416,
      "oun": 417,
      "ran": 418,
      "ĠCompany": 419,
      "ig": 420,
      "su": 421,
      "ĠThe": 422,
      "if": 423,
      "ĠIn": 424,
      "omm": 425,
      "pp": 426,
      "cial": 427,
      "ĠO": 428,
      "os": 429,
      "ities": 430,
      "Ġper": 431,
      "inan": 432,
      "rom": 433,
      "Ġcomp": 434,
      "ist": 435,
      "od": 436,
      "Ġass": 437,
      "Ġnot": 438,
      "ha": 439,
      "Ġexp": 440,
      "age": 441,
      "Ġwh": 442,
      "and": 443,
      "ll": 444,
      "Ġcont": 445,
      "ock": 446,
      "orm": 447,
      "ember": 448,
      "ĠN": 449,
      "âĢĻ": 450,
      "its": 451,
      "ac": 452,
      "ase": 453,
      "Ġfrom": 454,
      "ye": 455,
      "Ġmay": 456,
      "qui": 457,
      "inancial": 458,
      "lud": 459,
      "Ġat": 460,
      "ren": 461,
      "ter": 462,
      "ĠB": 463,
      "der": 464,
      "ust": 465,
      "Ġr": 466,
      "Ġha": 467,
      "illi": 468,
      "Ġother": 469,
      "ion": 470,
      "ĠL": 471,
      "illion": 472,
      "ich": 473,
      "tions": 474,
      "Ġoper": 475,
      "Ġus": 476,
      "Ġapp": 477,
      "ure": 478,
      "ard": 479,
      "port": 480,
      "ome": 481,
      "tain": 482,
      "Ġwhich": 483,
      "ecember": 484,
      "Ġ31": 485,
      "iv": 486,
      "Ġinclud": 487,
      "Ġpr": 488,
      "ill": 489,
      "Ġmillion": 490,
      "ark": 491,
      "low": 492,
      "ens": 493,
      "Ġcomm": 494,
      "dition": 495,
      "ets": 496,
      "iz": 497,
      "ĠDecember": 498,
      "ax": 499,
      "ant": 500,
      "erv": 501,
      "ount": 502,
      "ary": 503,
      "Ġsha": 504,
      "ĠâĢ": 505,
      "year": 506,
      "uld": 507,
      "iness": 508,
      "Ġacc": 509,
      "Ġam": 510,
      "usiness": 511,
      "ates": 512,
      "Ġhave": 513,
      "ree": 514,
      "Ġsub": 515,
      "ĠW": 516,
      "Ġstock": 517,
      "um": 518,
      "duct": 519,
      "Ġfinancial": 520,
      "ors": 521,
      "ased": 522,
      "ility": 523,
      "Ġval": 524,
      "ies": 525,
      "form": 526,
      "Ġyear": 527,
      "Ġreg": 528,
      "ru": 529,
      "ally": 530,
      "Ġim": 531,
      "erm": 532,
      "ĠU": 533,
      "eg": 534,
      "ign": 535,
      "Ġ2": 536,
      "Ġrec": 537,
      "Ġfa": 538,
      "isc": 539,
      "ating": 540,
      "hi": 541,
      "ĠSt": 542,
      "ap": 543,
      "Ġresul": 544,
      "Ġinv": 545,
      "ore": 546,
      "Ġal": 547,
      "ash": 548,
      "Ġbusiness": 549,
      "Ġli": 550,
      "Ġtax": 551,
      "Ġmark": 552,
      "el": 553,
      "ven": 554,
      "Ġany": 555,
      "Ġpar": 556,
      "ef": 557,
      "Ġrequi": 558,
      "Ġag": 559,
      "ere": 560,
      "Ġcons": 561,
      "Ġch": 562,
      "Ġman": 563,
      "ice": 564,
      "Ġimp": 565,
      "erest": 566,
      "Ġproduct": 567,
      "Ġunder": 568,
      "Ġcost": 569,
      "old": 570,
      "og": 571,
      "Ġwill": 572,
      "ty": 573,
      "âĢĿ": 574,
      "Ġ202": 575,
      "Ġen": 576,
      "ted": 577,
      "Ġsuch": 578,
      "ow": 579,
      "ew": 580,
      "Ġprov": 581,
      "Ġrel": 582,
      "gh": 583,
      "ecur": 584,
      "ended": 585,
      "Ġits": 586,
      "The": 587,
      "Ġvalue": 588,
      "ire": 589,
      "lic": 590,
      "Ġserv": 591,
      "am": 592,
      "ad": 593,
      "Ġassets": 594,
      "oss": 595,
      "ater": 596,
      "ual": 597,
      "oan": 598,
      "urren": 599,
      "10": 600,
      "act": 601,
      "Ġwas": 602,
      "Ġle": 603,
      "ĠG": 604,
      "In": 605,
      "Ġeff": 606,
      "ĠJ": 607,
      "Ġstate": 608,
      "ertain": 609,
      "ices": 610,
      "Ġappro": 611,
      "fer": 612,
      "Ġcould": 613,
      "Ġincome": 614,
      "ific": 615,
      "cc": 616,
      "000": 617,
      "ective": 618,
      "Ġinterest": 619,
      "Ġpur": 620,
      "Ġcash": 621,
      "up": 622,
      "Ġnet": 623,
      "Ġpl": 624,
      "Ġab": 625,
      "Ġmarket": 626,
      "Ġpay": 627,
      "irect": 628,
      "Ġinvest": 629,
      "rans": 630,
      "iod": 631,
      "ep": 632,
      "Ġhe": 633,
      "ĠEx": 634,
      "Ġincre": 635,
      "ings": 636,
      "ord": 637,
      "ital": 638,
      "ges": 639,
      "ĠWe": 640,
      "rib": 641,
      "ces": 642,
      "Ġperiod": 643,
      "mp": 644,
      "ener": 645,
      "orpor": 646,
      "ents": 647,
      "ized": 648,
      "uring": 649,
      "Ġprovid": 650,
      "ĠH": 651,
      "Ġshares": 652,
      "Ġoperations": 653,
      "Ġaddition": 654,
      "ee": 655,
      "igh": 656,
      "Ġpre": 657,
      "reement": 658,
      "tim": 659,
      "ĠâĢľ": 660,
      "Ġsal": 661,
      "Ġresp": 662,
      "ial": 663,
      "Ġcommon": 664,
      "ject": 665,
      "ilities": 666,
      "Ġob": 667,
      "ory": 668,
      "ecurities": 669,
      "agement": 670,
      "tial": 671,
      "Ġincluding": 672,
      "Ġthese": 673,
      "ons": 674,
      "apital": 675,
      "Ġreport": 676,
      "tiv": 677,
      "Ġcl": 678,
      "cip": 679,
      "val": 680,
      "Ġhas": 681,
      "urrent": 682,
      "tic": 683,
      "our": 684,
      "ange": 685,
      "Ġregul": 686,
      "ous": 687,
      "isk": 688,
      "Ġloss": 689,
      "Ġtrans": 690,
      "ub": 691,
      "velo": 692,
      "Ġliab": 693,
      "velop": 694,
      "olid": 695,
      "Ġloan": 696,
      "ustom": 697,
      "vers": 698,
      "so": 699,
      "ĠInc": 700,
      "Ġcosts": 701,
      "ail": 702,
      "Ġ10": 703,
      "ke": 704,
      "ong": 705,
      "Ġtim": 706,
      "Ġthis": 707,
      "ical": 708,
      "Ġind": 709,
      "uture": 710,
      "ract": 711,
      "Ġqu": 712,
      "Ġdisc": 713,
      "ach": 714,
      "Ġissu": 715,
      "Ġended": 716,
      "Ġrelated": 717,
      "ine": 718,
      "ort": 719,
      "Ġop": 720,
      "Ġcertain": 721,
      "und": 722,
      "Ġterm": 723,
      "ited": 724,
      "Ġwere": 725,
      "ection": 726,
      "ense": 727,
      "Ġgener": 728,
      "Ġall": 729,
      "Ġshare": 730,
      "ative": 731,
      "Ġresult": 732,
      "ugh": 733,
      "Ġcustom": 734,
      "Ġover": 735,
      "Ġfuture": 736,
      "ected": 737,
      "olidated": 738,
      "Ġreven": 739,
      "redit": 740,
      "Ġfil": 741,
      "Ġdevelop": 742,
      "Ġproducts": 743,
      "ĠRe": 744,
      "rol": 745,
      "Ġstatements": 746,
      "Ġfair": 747,
      "ble": 748,
      "Ġout": 749,
      "Ġaff": 750,
      "ric": 751,
      "over": 752,
      "Ġ4": 753,
      "Ġref": 754,
      "op": 755,
      "the": 756,
      "Ġmater": 757,
      "ive": 758,
      "ass": 759,
      "ecu": 760,
      "Ġwhe": 761,
      "ounts": 762,
      "Ġes": 763,
      "Ġoff": 764,
      "formation": 765,
      "are": 766,
      "50": 767,
      "Ġif": 768,
      "ĠUn": 769,
      "ss": 770,
      "olders": 771,
      "eren": 772,
      "Ġrep": 773,
      "Ġsign": 774,
      "ollow": 775,
      "aw": 776,
      "Ġdec": 777,
      "Ġrisk": 778,
      "ced": 779,
      "Ġrequire": 780,
      "ures": 781,
      "ry": 782,
      "Ġup": 783,
      "row": 784,
      "Ġsp": 785,
      "ificant": 786,
      "ise": 787,
      "Ġoperating": 788,
      "ank": 789,
      "Ġyears": 790,
      "Ġtime": 791,
      "Ġdirect": 792,
      "quity": 793,
      "We": 794,
      "Ġcapital": 795,
      "Ġestim": 796,
      "Ġalso": 797,
      "12": 798,
      "enef": 799,
      "Ġme": 800,
      "Ġdet": 801,
      "ose": 802,
      "Ġresults": 803,
      "Ġtheir": 804,
      "Ġfollow": 805,
      "ĠAg": 806,
      "hip": 807,
      "Ġrece": 808,
      "Ġsubject": 809,
      "Ġinter": 810,
      "Ġit": 811,
      "Ġcurrent": 812,
      "ffic": 813,
      "enses": 814,
      "ately": 815,
      "Ġrate": 816,
      "15": 817,
      "Ġmanagement": 818,
      "Ġno": 819,
      "Ġbased": 820,
      "ward": 821,
      "lig": 822,
      "Ġcontract": 823,
      "mplo": 824,
      "ould": 825,
      "rough": 826,
      "ered": 827,
      "13": 828,
      "arch": 829,
      "sion": 830,
      "Ġservices": 831,
      "ĠâĢĶ": 832,
      "ounting": 833,
      "all": 834,
      "Ġsignificant": 835,
      "ction": 836,
      "ases": 837,
      "oll": 838,
      "Ġnon": 839,
      "pos": 840,
      "rant": 841,
      "verse": 842,
      "ferred": 843,
      "ination": 844,
      "wn": 845,
      "14": 846,
      "ogn": 847,
      "anges": 848,
      "Ġcontrol": 849,
      "ont": 850,
      "Ġ2014": 851,
      "Ġinformation": 852,
      "Ġ2016": 853,
      "Ġ8": 854,
      "Ġprice": 855,
      "ied": 856,
      "ĠAct": 857,
      "ech": 858,
      "Ġ2015": 859,
      "Ġdo": 860,
      "Ġamount": 861,
      "ell": 862,
      "19": 863,
      "Ġdue": 864,
      "Ġcondition": 865,
      "Ġ2013": 866,
      "Ġplan": 867,
      "âĢĿ)": 868,
      "bt": 869,
      "Ġperform": 870,
      "Ġthan": 871,
      "Ġrequired": 872,
      "Ġsales": 873,
      "Ġsecurities": 874,
      "Ġcan": 875,
      "of": 876,
      "Ġliabilities": 877,
      "ĠAgreement": 878,
      "ĠComm": 879,
      "olog": 880,
      "ensation": 881,
      "Ġproper": 882,
      "Ġ2017": 883,
      "Ġmaterial": 884,
      "quis": 885,
      "art": 886,
      "arg": 887,
      "ag": 888,
      "Ġthrough": 889,
      "ined": 890,
      "ily": 891,
      "Ġnew": 892,
      "16": 893,
      "ĠAs": 894,
      "chase": 895,
      "ork": 896,
      "ision": 897,
      "Ġadverse": 898,
      "ĠV": 899,
      "Ġbenef": 900,
      "ex": 901,
      "eve": 902,
      "IT": 903,
      "ublic": 904,
      "holders": 905,
      "ost": 906,
      "anding": 907,
      "Ġcredit": 908,
      "Ġadditional": 909,
      "Ġinto": 910,
      "rad": 911,
      "ĠNot": 912,
      "18": 913,
      "Ġ5": 914,
      "erg": 915,
      "Ġapplic": 916,
      "Ġdef": 917,
      "ence": 918,
      "tem": 919,
      "air": 920,
      "Ġ2018": 921,
      "17": 922,
      "echn": 923,
      "quisition": 924,
      "Ġcompany": 925,
      "Ġexpenses": 926,
      "ĠForm": 927,
      "resent": 928,
      "ast": 929,
      "tif": 930,
      "nal": 931,
      "tit": 932,
      "Ġlim": 933,
      "change": 934,
      "Ġactiv": 935,
      "Ġimpact": 936,
      "Ġpa": 937,
      "ivid": 938,
      "Ġthere": 939,
      "Ġeach": 940,
      "Ġreporting": 941,
      "ĠNo": 942,
      "vail": 943,
      "Ġincrease": 944,
      "Ġemplo": 945,
      "Ġbeen": 946,
      "Ġma": 947,
      "Ġcontin": 948,
      "verage": 949,
      "Ġdeterm": 950,
      "Ġmore": 951,
      "ues": 952,
      "urance": 953,
      "25": 954,
      "Ġ2020": 955,
      "hib": 956,
      "Ġrecogn": 957,
      "cess": 958,
      "ari": 959,
      "Ġlaw": 960,
      "Ġ2012": 961,
      "Ġduring": 962,
      "Ġpri": 963,
      "standing": 964,
      "Ġexpense": 965,
      "'s": 966,
      "incip": 967,
      "Ġdebt": 968,
      "atory": 969,
      "__": 970,
      "ectively": 971,
      "sid": 972,
      "Ġsh": 973,
      "vi": 974,
      "ĠEn": 975,
      "Ġ2019": 976,
      "Ġrevenue": 977,
      "Ġdate": 978,
      "Ġown": 979,
      "Ġrest": 980,
      "ceed": 981,
      "Ġdi": 982,
      "ible": 983,
      "xim": 984,
      "Ġdes": 985,
      "Ġprim": 986,
      "oard": 987,
      "ecutive": 988,
      "arn": 989,
      "istrib": 990,
      "Ġ2021": 991,
      "Ġ6": 992,
      "33": 993,
      "Ġrecord": 994,
      "eral": 995,
      "Ġmon": 996,
      "ĠFinancial": 997,
      "Ġfollowing": 998,
      "tal": 999,
      "arter": 1000,
      "Ġability": 1001,
      "ram": 1002,
      "Ġ200": 1003,
      "Ġconsolidated": 1004,
      "Ġpart": 1005,
      "Ġloans": 1006,
      "Ġfund": 1007,
      "iscal": 1008,
      "Ġoblig": 1009,
      "ĠPro": 1010,
      "sure": 1011,
      "Ġ30": 1012,
      "Ġ7": 1013,
      "Ġchanges": 1014,
      "cy": 1015,
      "nual": 1016,
      "Ġcustomers": 1017,
      "stan": 1018,
      "omb": 1019,
      "Ġwould": 1020,
      "aus": 1021,
      "erence": 1022,
      "Ġbas": 1023,
      "ution": 1024,
      "les": 1025,
      "34": 1026,
      "Ġissued": 1027,
      "otal": 1028,
      "ĠPl": 1029,
      ").": 1030,
      "Ġinvestment": 1031,
      "we": 1032,
      "ĠState": 1033,
      "Ġreceiv": 1034,
      "ĠStock": 1035,
      "Ġdis": 1036,
      "Ġeffect": 1037,
      "Ġins": 1038,
      "Ġtransac": 1039,
      "Ġfiled": 1040,
      "ability": 1041,
      "Ġapproxim": 1042,
      "Ġdevelopment": 1043,
      "alance": 1044,
      "ational": 1045,
      "Ġequity": 1046,
      "ia": 1047,
      "ĠOur": 1048,
      "Ġavail": 1049,
      "econ": 1050,
      "righ": 1051,
      "11": 1052,
      "arily": 1053,
      "just": 1054,
      "Ġev": 1055,
      "out": 1056,
      "umber": 1057,
      "yst": 1058,
      "Ġ9": 1059,
      "echnolog": 1060,
      "ved": 1061,
      "uth": 1062,
      "ential": 1063,
      "ĠAn": 1064,
      "ood": 1065,
      "ird": 1066,
      "cep": 1067,
      "ederal": 1068,
      "cing": 1069,
      "ata": 1070,
      "ership": 1071,
      "ace": 1072,
      "Ġacquisition": 1073,
      "Ġredu": 1074,
      "Ġj": 1075,
      "Ġrem": 1076,
      "lement": 1077,
      "ified": 1078,
      "overn": 1079,
      "ĠAcc": 1080,
      "24": 1081,
      "Ġrigh": 1082,
      "ees": 1083,
      "Ġfac": 1084,
      "hibit": 1085,
      "Ġtotal": 1086,
      "Ġupon": 1087,
      "Ġrequirements": 1088,
      "Ġapproximately": 1089,
      "Ġbasis": 1090,
      "Ġest": 1091,
      "Ġflow": 1092,
      "stru": 1093,
      "Ġdep": 1094,
      "ĠAm": 1095,
      "Ġequi": 1096,
      "rust": 1097,
      "tiz": 1098,
      "Ġvari": 1099,
      "Ġoutstanding": 1100,
      "utions": 1101,
      "Ġfiscal": 1102,
      "hed": 1103,
      "ile": 1104,
      "Ġdistrib": 1105,
      "Ġ19": 1106,
      "Ġactivities": 1107,
      "Ġone": 1108,
      "Ġmain": 1109,
      "ĠReg": 1110,
      "ercial": 1111,
      "ĠReport": 1112,
      "30": 1113,
      "ld": 1114,
      "ystem": 1115,
      "Ġconsid": 1116,
      "Ġregist": 1117,
      "EC": 1118,
      "26": 1119,
      "ns": 1120,
      "sum": 1121,
      "Ġwell": 1122,
      "Ġext": 1123,
      "ission": 1124,
      "Ġ2022": 1125,
      "Ġrates": 1126,
      "Ġuse": 1127,
      "ticip": 1128,
      "Ġprincip": 1129,
      "DA": 1130,
      "anu": 1131,
      "ĠAd": 1132,
      "Total": 1133,
      "Ġaccounting": 1134,
      "Ġincluded": 1135,
      "Ġemploye": 1136,
      "ĠTh": 1137,
      "Ġinclude": 1138,
      "lect": 1139,
      "orporated": 1140,
      "gram": 1141,
      "suant": 1142,
      "itt": 1143,
      "Ġprimarily": 1144,
      "fact": 1145,
      "27": 1146,
      "atur": 1147,
      "Ġcompensation": 1148,
      "Ġret": 1149,
      "âĢľ": 1150,
      "23": 1151,
      "Ġpublic": 1152,
      "Ġperformance": 1153,
      "Ġaffect": 1154,
      "to": 1155,
      "ause": 1156,
      "28": 1157,
      "Ġlosses": 1158,
      "ever": 1159,
      "40": 1160,
      "ult": 1161,
      "Ġini": 1162,
      "Ġavailable": 1163,
      "Ġprovide": 1164,
      "Ġthose": 1165,
      "Ġused": 1166,
      "ompanies": 1167,
      "Ġfore": 1168,
      "uthor": 1169,
      "29": 1170,
      "Ġbet": 1171,
      "ER": 1172,
      "Ġcoll": 1173,
      "ower": 1174,
      "sidi": 1175,
      "Ġreference": 1176,
      "Ġregulatory": 1177,
      "Ġthird": 1178,
      "Ġcar": 1179,
      "for": 1180,
      "dust": 1181,
      "als": 1182,
      "Ġatt": 1183,
      "Ġspec": 1184,
      "aim": 1185,
      "),": 1186,
      "ang": 1187,
      "Ġrespectively": 1188,
      "Ġhigh": 1189,
      "erc": 1190,
      "Ġagreement": 1191,
      "Ġent": 1192,
      "anuary": 1193,
      "Ġdirectors": 1194,
      "Ġproperty": 1195,
      "fter": 1196,
      "ES": 1197,
      "inical": 1198,
      "Ġfact": 1199,
      "Ġlease": 1200,
      "olic": 1201,
      "Ġ15": 1202,
      "NT": 1203,
      "ack": 1204,
      "eb": 1205,
      "inc": 1206,
      "ared": 1207,
      "vest": 1208,
      "ĠLL": 1209,
      "Ġallow": 1210,
      "Ġreal": 1211,
      "Ġearn": 1212,
      "Ġmet": 1213,
      "ĠPlan": 1214,
      "Ġbeli": 1215,
      "Ġtrad": 1216,
      "valu": 1217,
      "Ġar": 1218,
      "Ġasset": 1219,
      "Ġamounts": 1220,
      "pr": 1221,
      "ween": 1222,
      "ption": 1223,
      "Ġnumber": 1224,
      "Ġbec": 1225,
      "Ġmeas": 1226,
      "reements": 1227,
      "own": 1228,
      "andard": 1229,
      "vel": 1230,
      "Our": 1231,
      "Ġpers": 1232,
      "75": 1233,
      "ombination": 1234,
      "ortiz": 1235,
      "ason": 1236,
      "Ġaud": 1237,
      "Ġbetween": 1238,
      "rate": 1239,
      "ĠJanuary": 1240,
      "ĠBank": 1241,
      "Ġcommercial": 1242,
      "Ġtechnolog": 1243,
      "int": 1244,
      "Ġcompanies": 1245,
      "osition": 1246,
      "ior": 1247,
      "Ġrecorded": 1248,
      "Ġservice": 1249,
      "ite": 1250,
      "une": 1251,
      "Ġquarter": 1252,
      "Ġdecre": 1253,
      "Ġ(âĢľ": 1254,
      "Net": 1255,
      "AT": 1256,
      "ĠOffic": 1257,
      "Ġpurchase": 1258,
      "ĠThese": 1259,
      "Ġterms": 1260,
      "Ġlong": 1261,
      "Ġinvestments": 1262,
      "Ġgovern": 1263,
      "35": 1264,
      "Ġpot": 1265,
      "reg": 1266,
      "Ġsubsidi": 1267,
      "Ġprocess": 1268,
      "Ġgrow": 1269,
      "Ġmanu": 1270,
      "lass": 1271,
      "Ġclaim": 1272,
      "Ġmanufact": 1273,
      "Ġlaws": 1274,
      "orporation": 1275,
      "king": 1276,
      "gage": 1277,
      "Ġrestric": 1278,
      "Ġadjust": 1279,
      "Ġexpected": 1280,
      "ĠIf": 1281,
      "Ġpat": 1282,
      "Ġwithin": 1283,
      "term": 1284,
      "til": 1285,
      "Ġprior": 1286,
      "Ġenti": 1287,
      "isting": 1288,
      "Ġprogram": 1289,
      "Ġeffective": 1290,
      "Ġregulations": 1291,
      "Ġobligations": 1292,
      "Item": 1293,
      "Ġsystem": 1294,
      "Ġoffic": 1295,
      "Ġincreased": 1296,
      "Ġgenerally": 1297,
      "Ġwhen": 1298,
      "Ġsale": 1299,
      "ividend": 1300,
      "ix": 1301,
      "ON": 1302,
      "par": 1303,
      "alth": 1304,
      "Ġliability": 1305,
      "Ġrecognized": 1306,
      "ept": 1307,
      "oci": 1308,
      "io": 1309,
      "Ġevalu": 1310,
      "ĠMarch": 1311,
      "ĠLLC": 1312,
      "Ġoffer": 1313,
      "Ġapplicable": 1314,
      "onsolidated": 1315,
      "Ġacqui": 1316,
      "36": 1317,
      "ĠY": 1318,
      "Ġexper": 1319,
      "Ġcompe": 1320,
      "Ġra": 1321,
      "Ġpayments": 1322,
      "Ġ2011": 1323,
      "Ġmonth": 1324,
      "lis": 1325,
      "eptember": 1326,
      "ants": 1327,
      "min": 1328,
      "Ġdata": 1329,
      "Ġincur": 1330,
      "22": 1331,
      "let": 1332,
      "Ġindust": 1333,
      "Ġsa": 1334,
      "ight": 1335,
      "Ġassoci": 1336,
      "Ġ-": 1337,
      "Ġinternal": 1338,
      "Ġchange": 1339,
      "Ġobtain": 1340,
      "rants": 1341,
      "eriv": 1342,
      "Ġloc": 1343,
      "38": 1344,
      "Ġdated": 1345,
      "ĠStates": 1346,
      "ines": 1347,
      "Ġauthor": 1348,
      "ress": 1349,
      "ade": 1350,
      "Ġdiff": 1351,
      "endent": 1352,
      "Ġqual": 1353,
      "Ġset": 1354,
      "Ġconditions": 1355,
      "ii": 1356,
      "Ġprof": 1357,
      "Ġgu": 1358,
      "tially": 1359,
      "ĠSecurities": 1360,
      "Ġpaid": 1361,
      "Ġ12": 1362,
      ".,": 1363,
      "eed": 1364,
      "ame": 1365,
      "Ġfederal": 1366,
      "aries": 1367,
      "based": 1368,
      "orrow": 1369,
      "ĠK": 1370,
      "ĠExhibit": 1371,
      "Ġimpair": 1372,
      "minist": 1373,
      "ys": 1374,
      "Ġfir": 1375,
      "Ġsupp": 1376,
      "Ġprodu": 1377,
      "IN": 1378,
      "Ġrights": 1379,
      "Ġpursuant": 1380,
      "Ġadversely": 1381,
      "EM": 1382,
      "ĠJune": 1383,
      "ross": 1384,
      "Ġmaintain": 1385,
      "Ġdeferred": 1386,
      "ĠBoard": 1387,
      "Ġpresent": 1388,
      "ĠUnited": 1389,
      "inancing": 1390,
      "OR": 1391,
      "Ex": 1392,
      "Ġagreements": 1393,
      "39": 1394,
      "ear": 1395,
      "arge": 1396,
      "ove": 1397,
      "ĠOfficer": 1398,
      "60": 1399,
      "Ġapproval": 1400,
      "Ġrevenues": 1401,
      "37": 1402,
      "Ġsubstan": 1403,
      "ize": 1404,
      "range": 1405,
      "ili": 1406,
      "Ġless": 1407,
      "ĠSeptember": 1408,
      "49": 1409,
      "tig": 1410,
      "Ġwar": 1411,
      "ĠDirect": 1412,
      "ources": 1413,
      "Ġclinical": 1414,
      "Ġcarry": 1415,
      "Ġdisclo": 1416,
      "Ġdesign": 1417,
      "ĠExchange": 1418,
      "ĠMan": 1419,
      "liance": 1420,
      "Ġhad": 1421,
      "Ġfactors": 1422,
      "Ġlic": 1423,
      "Ġadv": 1424,
      "Ġcustomer": 1425,
      "Ġestimated": 1426,
      "tical": 1427,
      "ĠPart": 1428,
      "Ġproceed": 1429,
      "Ġmod": 1430,
      "ending": 1431,
      "wards": 1432,
      "ĠComp": 1433,
      "Ġtaxes": 1434,
      "ving": 1435,
      "Ġfees": 1436,
      "Ġ13": 1437,
      "Ġposition": 1438,
      "Ġ2023": 1439,
      "ration": 1440,
      "ĠNote": 1441,
      "Ġcontinue": 1442,
      "ays": 1443,
      "Ġflows": 1444,
      "ortgage": 1445,
      "fore": 1446,
      "Ġafter": 1447,
      "Ġheld": 1448,
      "Ġemployees": 1449,
      "pment": 1450,
      "tives": 1451,
      "econom": 1452,
      "ecurity": 1453,
      "uted": 1454,
      "Ġreason": 1455,
      "45": 1456,
      "SU": 1457,
      "cent": 1458,
      "Ġsell": 1459,
      "Ġpolic": 1460,
      "ccess": 1461,
      "ergy": 1462,
      "48": 1463,
      "Ġrisks": 1464,
      "hief": 1465,
      "gan": 1466,
      "view": 1467,
      "Ġlevel": 1468,
      "ful": 1469,
      "Ġassociated": 1470,
      "quid": 1471,
      "iden": 1472,
      "Ġprincipal": 1473,
      "urther": 1474,
      "Ġrespect": 1475,
      "Ġmake": 1476,
      "orporate": 1477,
      "Ġassess": 1478,
      "ization": 1479,
      "ND": 1480,
      "Ġcontracts": 1481,
      "Ġoptions": 1482,
      "urn": 1483,
      "AR": 1484,
      "one": 1485,
      "Ġ%": 1486,
      "ĠCon": 1487,
      "Ġprovision": 1488,
      "older": 1489,
      "enior": 1490,
      "Ġexperi": 1491,
      "21": 1492,
      "Ġaccord": 1493,
      "Ġcomplet": 1494,
      "Ġform": 1495,
      "Ġstandard": 1496,
      "ĠFor": 1497,
      "ak": 1498,
      "Ġpotential": 1499,
      "Ġdividend": 1500,
      "ĠCh": 1501,
      "ĠLoan": 1502,
      "tific": 1503,
      "Ġren": 1504,
      "Ġexerc": 1505,
      "Ġleg": 1506,
      "Ġconn": 1507,
      "hod": 1508,
      "Ġinitial": 1509,
      "Ġforeign": 1510,
      "Ġperson": 1511,
      "Inc": 1512,
      "Ġprovided": 1513,
      "rateg": 1514,
      "46": 1515,
      "Ġborrow": 1516,
      "ortf": 1517,
      "tis": 1518,
      "47": 1519,
      "Ġgrowth": 1520,
      "ciation": 1521,
      "Ġeconom": 1522,
      "Ġunc": 1523,
      "ĠStatements": 1524,
      "arm": 1525,
      "St": 1526,
      "Ġseg": 1527,
      "Ġbelieve": 1528,
      "Ġbalance": 1529,
      "Ġremain": 1530,
      "Other": 1531,
      "Ġannual": 1532,
      "Ġtransactions": 1533,
      "Ġvol": 1534,
      "Ġtri": 1535,
      "Ġbank": 1536,
      "Ġregard": 1537,
      "ning": 1538,
      "Ġmarkets": 1539,
      "Ġimpairment": 1540,
      "Ġmade": 1541,
      "Ġvalu": 1542,
      "Ġclaims": 1543,
      "ond": 1544,
      "ĠMr": 1545,
      "80": 1546,
      "Ġstockholders": 1547,
      "ablis": 1548,
      "ortfol": 1549,
      "ĠThis": 1550,
      "Ġbut": 1551,
      "Ġusing": 1552,
      "Ġestimates": 1553,
      "Ġearnings": 1554,
      "Ġlimited": 1555,
      "mental": 1556,
      "99": 1557,
      "Ġcombination": 1558,
      "Ġexpect": 1559,
      "Ġderiv": 1560,
      "As": 1561,
      "Ġcompared": 1562,
      "Ġamortiz": 1563,
      "ĠSha": 1564,
      "Ġtw": 1565,
      "ances": 1566,
      "Ġbenefit": 1567,
      "andid": 1568,
      "ebru": 1569,
      "ebruary": 1570,
      "Ġful": 1571,
      "31": 1572,
      "Ġocc": 1573,
      "ruct": 1574,
      "mit": 1575,
      "Ġperiods": 1576,
      "Ġiden": 1577,
      "ĠSEC": 1578,
      "Ġconsider": 1579,
      "sump": 1580,
      "ĠRegist": 1581,
      "AN": 1582,
      "Ġpartn": 1583,
      "pri": 1584,
      "Ġgas": 1585,
      "ck": 1586,
      "Ġwhether": 1587,
      "Ġmethod": 1588,
      "SC": 1589,
      "ober": 1590,
      "ĠNotes": 1591,
      "ulated": 1592,
      "Ġgain": 1593,
      "Ġclass": 1594,
      "Ġsuccess": 1595,
      "greg": 1596,
      "Ġamong": 1597,
      "Ġequipment": 1598,
      "70": 1599,
      "Ġcap": 1600,
      "Ġfail": 1601,
      "line": 1602,
      "Ġfin": 1603,
      "ule": 1604,
      "____": 1605,
      "Ġbelow": 1606,
      "Ġprices": 1607,
      "Ġcandid": 1608,
      "Ġinsurance": 1609,
      "ĠTrust": 1610,
      "ĠOper": 1611,
      "yp": 1612,
      "Ġaverage": 1613,
      "Ġestablis": 1614,
      "Ġgeneral": 1615,
      "roup": 1616,
      "Ġlimit": 1617,
      "ules": 1618,
      "ortfolio": 1619,
      "Ġpayment": 1620,
      "dic": 1621,
      "Ġsim": 1622,
      "ittee": 1623,
      "Ġconnection": 1624,
      "Ġthey": 1625,
      "Ġact": 1626,
      "Ġwork": 1627,
      "Ġbo": 1628,
      "uly": 1629,
      "Ġvarious": 1630,
      "led": 1631,
      "Ġcoun": 1632,
      "Ġprot": 1633,
      "65": 1634,
      "ependent": 1635,
      "ib": 1636,
      "ug": 1637,
      "Ġfinancing": 1638,
      "Ġexisting": 1639,
      "Ġmat": 1640,
      "ension": 1641,
      "Ġfunds": 1642,
      "Ġnotes": 1643,
      "Ġclo": 1644,
      "Ġadop": 1645,
      "Ġaccount": 1646,
      "Ġ)": 1647,
      "Ġneg": 1648,
      "ian": 1649,
      "Ġstrateg": 1650,
      "Ġmeet": 1651,
      "cept": 1652,
      "will": 1653,
      "Ġindustry": 1654,
      "ĠFebruary": 1655,
      "Ġsc": 1656,
      "ĠCont": 1657,
      "Ġred": 1658,
      "Ġgood": 1659,
      "Ġinf": 1660,
      "arket": 1661,
      "vir": 1662,
      "Ġdem": 1663,
      "Ġreview": 1664,
      "Ġinstru": 1665,
      "ĠServ": 1666,
      "ĠExecutive": 1667,
      "ĠSection": 1668,
      "Ġagain": 1669,
      "âĢ¢": 1670,
      "ident": 1671,
      "ctober": 1672,
      "ially": 1673,
      "Ġliquid": 1674,
      "AL": 1675,
      "Ġaccordance": 1676,
      "Ġpor": 1677,
      "Ġaccounts": 1678,
      "Ġcurrently": 1679,
      "Ġy": 1680,
      "tible": 1681,
      "rit": 1682,
      "66": 1683,
      "85": 1684,
      "Ġassump": 1685,
      "cedures": 1686,
      "ĠRes": 1687,
      "Ġhealth": 1688,
      "Ġmin": 1689,
      "Ġunits": 1690,
      "Ġconsum": 1691,
      "ĠInter": 1692,
      "On": 1693,
      "ĠPartn": 1694,
      "90": 1695,
      "Ġadminist": 1696,
      "Ġtechnology": 1697,
      "urchase": 1698,
      "gregate": 1699,
      "icing": 1700,
      "ph": 1701,
      "ilar": 1702,
      "ically": 1703,
      "ters": 1704,
      "Ġagainst": 1705,
      "Ġtre": 1706,
      "cies": 1707,
      "ide": 1708,
      "roll": 1709,
      "Ġneed": 1710,
      "Ġparties": 1711,
      "Ġbenefits": 1712,
      "Ġsubsidiaries": 1713,
      "Ġaudit": 1714,
      "ient": 1715,
      "ĠOn": 1716,
      "ĠChief": 1717,
      "ote": 1718,
      "ED": 1719,
      "hens": 1720,
      "ety": 1721,
      "pril": 1722,
      "Ġdetermined": 1723,
      "ĠClass": 1724,
      "rehens": 1725,
      "Ġthree": 1726,
      ",âĢĿ": 1727,
      "rehensive": 1728,
      "viron": 1729,
      "ĠMay": 1730,
      "Ġ0": 1731,
      "Ġacquired": 1732,
      "ĠAl": 1733,
      "Ġpayable": 1734,
      "Ġreceived": 1735,
      "ĠSu": 1736,
      "Ġend": 1737,
      "Ġsol": 1738,
      "Ġtable": 1739,
      "44": 1740,
      "Ġplans": 1741,
      "AS": 1742,
      "Pro": 1743,
      "loss": 1744,
      "atural": 1745,
      "Ġexecutive": 1746,
      "pport": 1747,
      "sp": 1748,
      "ulation": 1749,
      "ĠCorporation": 1750,
      "Ġexchange": 1751,
      "rac": 1752,
      "Ġpurch": 1753,
      "95": 1754,
      "ĠAccounting": 1755,
      "Ġeconomic": 1756,
      "Ġofficers": 1757,
      "Ġregarding": 1758,
      "Ġindic": 1759,
      "ĠOctober": 1760,
      "oint": 1761,
      "gin": 1762,
      "sed": 1763,
      "ĠâĢĵ": 1764,
      "irc": 1765,
      "loc": 1766,
      "Ġassumptions": 1767,
      "ands": 1768,
      "Ġcontinu": 1769,
      "Ġdecrease": 1770,
      "Ġfacilities": 1771,
      "Ġtransaction": 1772,
      "quent": 1773,
      "ĠInd": 1774,
      "ĠQ": 1775,
      "ised": 1776,
      "Ġcontain": 1777,
      "77": 1778,
      "Un": 1779,
      "mber": 1780,
      "terest": 1781,
      "Ġable": 1782,
      "Ġpercent": 1783,
      "cl": 1784,
      "Ġmarketing": 1785,
      "Ġaggregate": 1786,
      "ports": 1787,
      "Ġportfolio": 1788,
      "Ġincludes": 1789,
      "ute": 1790,
      "ENT": 1791,
      "Ġdepos": 1792,
      "Ġportion": 1793,
      "88": 1794,
      "rug": 1795,
      "ĠCredit": 1796,
      "ded": 1797,
      "angible": 1798,
      "32": 1799,
      "Ġcompeti": 1800,
      "Ġdefined": 1801,
      "ION": 1802,
      "ĠAnnual": 1803,
      "Ġcompliance": 1804,
      "clud": 1805,
      "Ġproject": 1806,
      "Ġsome": 1807,
      "ĠApril": 1808,
      "ular": 1809,
      "ighted": 1810,
      "ugust": 1811,
      "Ġtarg": 1812,
      "Ġtyp": 1813,
      "ale": 1814,
      "ages": 1815,
      "Ġph": 1816,
      "Ġmonths": 1817,
      "abor": 1818,
      "ring": 1819,
      "ware": 1820,
      "Ġuncertain": 1821,
      "rued": 1822,
      "55": 1823,
      "crib": 1824,
      "ĠCO": 1825,
      "Am": 1826,
      "Ġshe": 1827,
      "ecess": 1828,
      "Ġsupport": 1829,
      "Ġincurred": 1830,
      "Ġsee": 1831,
      "Ġsimilar": 1832,
      "Ġparty": 1833,
      "holder": 1834,
      "Ġtwo": 1835,
      "Ġidentif": 1836,
      "ĠJuly": 1837,
      "ip": 1838,
      "Ġpriv": 1839,
      "Ġcal": 1840,
      "entive": 1841,
      "Ġel": 1842,
      "Ġregistrant": 1843,
      "Ġonly": 1844,
      "Ġ\"": 1845,
      "not": 1846,
      "Ġsystems": 1847,
      "Ġfirst": 1848,
      "ĠConsolidated": 1849,
      "ĠFDA": 1850,
      "Ġrepresent": 1851,
      "Ġoption": 1852,
      "Ġu": 1853,
      "eries": 1854,
      "Ġparticip": 1855,
      "ler": 1856,
      "Ġprocedures": 1857,
      "Ġexperience": 1858,
      "ecured": 1859,
      "tili": 1860,
      "Ġhere": 1861,
      "Ġconduct": 1862,
      "Ġcarrying": 1863,
      "Ġdistribution": 1864,
      "ĠManagement": 1865,
      "Ġentered": 1866,
      "set": 1867,
      "eric": 1868,
      "Ġevents": 1869,
      "rative": 1870,
      "Ġimpro": 1871,
      "Acc": 1872,
      "ĠAND": 1873,
      "ĠSp": 1874,
      "ev": 1875,
      "Ġfacility": 1876,
      "Ġinvol": 1877,
      "man": 1878,
      "67": 1879,
      "kn": 1880,
      "ĠNove": 1881,
      "Ġelect": 1882,
      "ĠNovember": 1883,
      "Ġissuance": 1884,
      "qual": 1885,
      "put": 1886,
      "Ġdoes": 1887,
      "68": 1888,
      "ĠRE": 1889,
      "party": 1890,
      "Ġproperties": 1891,
      "lob": 1892,
      "Ġcandidates": 1893,
      "Ġdividends": 1894,
      "ou": 1895,
      "Ġsecurity": 1896,
      "lu": 1897,
      "Ġabove": 1898,
      "ertific": 1899,
      "ness": 1900,
      "Ġtest": 1901,
      "ince": 1902,
      "her": 1903,
      "Ġdel": 1904,
      "Ġinstruments": 1905,
      "IC": 1906,
      "ob": 1907,
      "pro": 1908,
      "owever": 1909,
      "ency": 1910,
      "ĠAugust": 1911,
      "Ġhist": 1912,
      "ĠBusiness": 1913,
      "Ġestate": 1914,
      "urrency": 1915,
      "69": 1916,
      "ivers": 1917,
      "Ġarrange": 1918,
      "Ġrese": 1919,
      "ification": 1920,
      "ife": 1921,
      "Ġvaluation": 1922,
      "Ġincorporated": 1923,
      "Ġsett": 1924,
      "ĠDirectors": 1925,
      "Ġallowance": 1926,
      "Ġconsist": 1927,
      "erve": 1928,
      "Ġindependent": 1929,
      "Ġsegment": 1930,
      "Ġboth": 1931,
      "Ġdeli": 1932,
      "Ġnatural": 1933,
      "Ġlike": 1934,
      "Ġdifferen": 1935,
      "Ġoccur": 1936,
      "ĠII": 1937,
      "oing": 1938,
      "ĠNew": 1939,
      "Ġenviron": 1940,
      "ĠOF": 1941,
      "Ġamended": 1942,
      "cer": 1943,
      "Ġanal": 1944,
      "less": 1945,
      "ables": 1946,
      "imum": 1947,
      "Ġprovides": 1948,
      "nel": 1949,
      "aid": 1950,
      "resident": 1951,
      "Ġwhere": 1952,
      "Ġ11": 1953,
      "ixed": 1954,
      "Ġdiscus": 1955,
      "ranted": 1956,
      "Ġequival": 1957,
      "Ġorder": 1958,
      "rel": 1959,
      "edi": 1960,
      "Ġmaterially": 1961,
      "ple": 1962,
      "Ġsold": 1963,
      "Ġreported": 1964,
      "Ġpatent": 1965,
      "inated": 1966,
      "reciation": 1967,
      "Ġpolicies": 1968,
      "Ġstandards": 1969,
      "Ġguid": 1970,
      "05": 1971,
      "encies": 1972,
      "atives": 1973,
      "Ġleases": 1974,
      "ationship": 1975,
      "Ġaffili": 1976,
      "Ġproduction": 1977,
      "Ġawards": 1978,
      "tigation": 1979,
      "vent": 1980,
      "poses": 1981,
      "Ġboard": 1982,
      "Ġmeasure": 1983,
      "Ġcompon": 1984,
      "ds": 1985,
      "wise": 1986,
      "Ġproceeds": 1987,
      "98": 1988,
      "Ġvest": 1989,
      "Ġcontrols": 1990,
      "Ġann": 1991,
      "vertible": 1992,
      "Ġnecess": 1993,
      "97": 1994,
      "Ġreasonable": 1995,
      "ously": 1996,
      "Ġhold": 1997,
      "Ġresearch": 1998,
      "Ġdrug": 1999,
      "Ġapproved": 2000,
      "Ġevent": 2001,
      "Ġrecover": 2002,
      "Ġlegal": 2003,
      "Ġrestricted": 2004,
      "Ġprofit": 2005,
      "Ġ2010": 2006,
      "Re": 2007,
      "Ġfurther": 2008,
      "Ġtarget": 2009,
      "ĠCommon": 2010,
      "ries": 2011,
      "endment": 2012,
      "ĠDe": 2013,
      "Ġotherwise": 2014,
      "Comm": 2015,
      "tility": 2016,
      "econd": 2017,
      "Ad": 2018,
      "Ġpurposes": 2019,
      "arant": 2020,
      "Ġ14": 2021,
      "pl": 2022,
      "Ġlower": 2023,
      "Ġexercise": 2024,
      "ĠPr": 2025,
      "Ġchar": 2026,
      "lobal": 2027,
      "ribut": 2028,
      "stances": 2029,
      "emb": 2030,
      "ake": 2031,
      "Cash": 2032,
      "ten": 2033,
      "Ġcorporate": 2034,
      "Ġgovernment": 2035,
      "Ġforward": 2036,
      "ĠInvest": 2037,
      "ĠEquity": 2038,
      "Ġpati": 2039,
      "Ġfollows": 2040,
      "sures": 2041,
      "ĠItem": 2042,
      "urse": 2043,
      "Ġnegative": 2044,
      "Ġhigher": 2045,
      "Ġbegin": 2046,
      "jor": 2047,
      "ĠTax": 2048,
      "Ġbeing": 2049,
      "udg": 2050,
      "Ġindivid": 2051,
      "iel": 2052,
      "Ġwarrants": 2053,
      "cribed": 2054,
      "Ġoil": 2055,
      "Ġspecific": 2056,
      "serv": 2057,
      "Ġro": 2058,
      "ins": 2059,
      "ĠCapital": 2060,
      "ĠAss": 2061,
      "ĠEnergy": 2062,
      "Ġoffset": 2063,
      "Ġdemand": 2064,
      "ering": 2065,
      "Ġmortgage": 2066,
      "Ġche": 2067,
      "Ġpres": 2068,
      "efer": 2069,
      "Ġimplement": 2070,
      "Ġaffected": 2071,
      "mitted": 2072,
      "Ġhed": 2073,
      "Ġmanufacturing": 2074,
      "Ġgrant": 2075,
      "chi": 2076,
      "AP": 2077,
      "Ġ&": 2078,
      "Ġshareholders": 2079,
      "alized": 2080,
      "Ġsubstantial": 2081,
      "Ġrespons": 2082,
      "Ġbefore": 2083,
      "lying": 2084,
      "ough": 2085,
      "Ġstat": 2086,
      "Ġreduce": 2087,
      "ctions": 2088,
      "Ġmust": 2089,
      "78": 2090,
      "Ġcommit": 2091,
      "For": 2092,
      "Ġassurance": 2093,
      "celer": 2094,
      "ĠIncome": 2095,
      "Ġcirc": 2096,
      "national": 2097,
      "ysis": 2098,
      "Ġreceive": 2099,
      "cont": 2100,
      "Ġresulting": 2101,
      "Ġalloc": 2102,
      "sing": 2103,
      "Ġreflect": 2104,
      "Ġthous": 2105,
      "Ġcomple": 2106,
      "Ġrequires": 2107,
      "Ġcalc": 2108,
      "sequent": 2109,
      "Ġord": 2110,
      "UR": 2111,
      "ify": 2112,
      "Ġinstit": 2113,
      "Ġcause": 2114,
      "Ġsum": 2115,
      "Ġprograms": 2116,
      "umulated": 2117,
      "Ġadministrative": 2118,
      "42": 2119,
      "Ġabout": 2120,
      "Ġutili": 2121,
      "Ġsuccessful": 2122,
      "Ġextent": 2123,
      "Ġprovisions": 2124,
      "ĠHold": 2125,
      "Ġresources": 2126,
      "iss": 2127,
      "Ġbro": 2128,
      "ope": 2129,
      "asing": 2130,
      "ither": 2131,
      "ĠAc": 2132,
      "Ġmajor": 2133,
      "Ġbecause": 2134,
      "evel": 2135,
      "ĠPre": 2136,
      "Ġachi": 2137,
      "Ġtrust": 2138,
      "Ġoffering": 2139,
      "fficient": 2140,
      "Ġgranted": 2141,
      "ptions": 2142,
      "ĠAmeric": 2143,
      "Ġem": 2144,
      "Ġmost": 2145,
      "acy": 2146,
      "Ġhistor": 2147,
      "Ġamortization": 2148,
      "Ġunable": 2149,
      "âĢĿ),": 2150,
      "Ġbusinesses": 2151,
      "Ġstatement": 2152,
      "Ġdiscount": 2153,
      "venue": 2154,
      "Ġposs": 2155,
      "OL": 2156,
      "Ġmanufacture": 2157,
      "ĠCommission": 2158,
      "ticular": 2159,
      "Ġwho": 2160,
      "Ġcurrency": 2161,
      "Ġgre": 2162,
      "ĠDisc": 2163,
      "Ġexam": 2164,
      "500": 2165,
      "Ġmed": 2166,
      "Ġdil": 2167,
      "ured": 2168,
      "itures": 2169,
      "Ġrelating": 2170,
      "Ġuntil": 2171,
      "av": 2172,
      "Ġbillion": 2173,
      "Ġrev": 2174,
      "Ġcannot": 2175,
      "%,": 2176,
      "Ġcomprehensive": 2177,
      "ĠCompensation": 2178,
      "oft": 2179,
      "Ġentity": 2180,
      "Ġcircum": 2181,
      "ĠOther": 2182,
      "Ġrules": 2183,
      "Ġanticip": 2184,
      "Ġreports": 2185,
      "ium": 2186,
      "Ġbu": 2187,
      "by": 2188,
      "Ġparticular": 2189,
      "portun": 2190,
      "inal": 2191,
      "Ġmatur": 2192,
      "Ġherein": 2193,
      "onsor": 2194,
      "Ġsame": 2195,
      "ĠPresident": 2196,
      "Ġprevi": 2197,
      "ĠStatement": 2198,
      "Ġkn": 2199,
      "pt": 2200,
      "Ġconf": 2201,
      "âĢĶ": 2202,
      "Ġdisclosure": 2203,
      "ĠCommittee": 2204,
      "Ġtrading": 2205,
      "Ġ16": 2206,
      "Ġrelationship": 2207,
      "ining": 2208,
      "Ġinterests": 2209,
      "ding": 2210,
      "Ġreserv": 2211,
      "inion": 2212,
      "tire": 2213,
      "Ġattribut": 2214,
      "Ġtreat": 2215,
      "Ġdays": 2216,
      "Ġrele": 2217,
      "ĠThere": 2218,
      "Ġaccess": 2219,
      "inary": 2220,
      "ĠRel": 2221,
      "Ġopportun": 2222,
      "Ġorig": 2223,
      "Ġexpend": 2224,
      "Ġstud": 2225,
      "ĠMed": 2226,
      "very": 2227,
      "Ġmodel": 2228,
      "Ġnecessary": 2229,
      "ĠFund": 2230,
      "ĠRest": 2231,
      "Ġindividual": 2232,
      "41": 2233,
      "ĠOperations": 2234,
      "Ġowned": 2235,
      "lation": 2236,
      "Ġeng": 2237,
      "Ġreturn": 2238,
      "Ġso": 2239,
      "Ġwithout": 2240,
      "Ġreceivable": 2241,
      "Ġequivalents": 2242,
      "ellect": 2243,
      "Ch": 2244,
      "ellectual": 2245,
      "Ġlife": 2246,
      "work": 2247,
      "Ġremaining": 2248,
      "Ġdescribed": 2249,
      "Ġcount": 2250,
      "Ġsaf": 2251,
      "equ": 2252,
      "ĠAt": 2253,
      "yment": 2254,
      "ĠTrans": 2255,
      "oftware": 2256,
      "oking": 2257,
      "Ġcontrib": 2258,
      "Ġsever": 2259,
      "ey": 2260,
      "Ġaccrued": 2261,
      "Ġunit": 2262,
      "96": 2263,
      "CO": 2264,
      "ulti": 2265,
      "uris": 2266,
      "Ġconsideration": 2267,
      "Ġacquisitions": 2268,
      "Ġsuppli": 2269,
      "Ġfixed": 2270,
      "Ġunre": 2271,
      "ollar": 2272,
      "43": 2273,
      "Ġcircumstances": 2274,
      "urch": 2275,
      "orn": 2276,
      "Ġgoodwill": 2277,
      "omes": 2278,
      "ĠServices": 2279,
      "IS": 2280,
      "..": 2281,
      "ĠVal": 2282,
      "Ġ18": 2283,
      "ĠRegistrant": 2284,
      "cri": 2285,
      "Ġke": 2286,
      "ĠFac": 2287,
      "Ġinteg": 2288,
      "Ġderivative": 2289,
      "gy": 2290,
      "Ġpost": 2291,
      "Ġfull": 2292,
      "Ġbeginning": 2293,
      "):": 2294,
      "Ġwhol": 2295,
      "ators": 2296,
      "58": 2297,
      "ature": 2298,
      "Ġprac": 2299,
      "âĢĿ).": 2300,
      "Ġutiliz": 2301,
      "Ġinvent": 2302,
      "incorporated": 2303,
      "Ġorgan": 2304,
      "emption": 2305,
      "Ġactual": 2306,
      "urisdic": 2307,
      "Ġshort": 2308,
      "Ġintangible": 2309,
      "mall": 2310,
      "eferred": 2311,
      "Ġlikely": 2312,
      "rent": 2313,
      "Ġgross": 2314,
      "ITEM": 2315,
      "Ġtrials": 2316,
      "Ġright": 2317,
      "sue": 2318,
      "Ġlevels": 2319,
      "eneral": 2320,
      "Ġfour": 2321,
      "Ġholders": 2322,
      "related": 2323,
      "Ġlicense": 2324,
      "Ġownership": 2325,
      "Ġprom": 2326,
      "tics": 2327,
      "tirement": 2328,
      "Ġbran": 2329,
      "Ġguidance": 2330,
      "ĠPublic": 2331,
      "ĠEnter": 2332,
      "Ġretain": 2333,
      "unic": 2334,
      "Ġdetermine": 2335,
      "Ġmany": 2336,
      "Ġimprove": 2337,
      "ging": 2338,
      "Ġeither": 2339,
      "Ġentities": 2340,
      "ĠCurrent": 2341,
      "ually": 2342,
      "ructure": 2343,
      "ĠPh": 2344,
      "Ġpen": 2345,
      "con": 2346,
      "idential": 2347,
      "Ġlead": 2348,
      "aged": 2349,
      "force": 2350,
      "Ġattributable": 2351,
      "Ġvalues": 2352,
      "Ġconsidered": 2353,
      "celerated": 2354,
      "Ġprivate": 2355,
      "Ġjudg": 2356,
      "abilities": 2357,
      "Ġsince": 2358,
      "Ġexceed": 2359,
      "ĠLi": 2360,
      "Ġdepend": 2361,
      "Ġpower": 2362,
      "de": 2363,
      "state": 2364,
      "ateral": 2365,
      "Ġitem": 2366,
      "76": 2367,
      "Ġmarg": 2368,
      "ocu": 2369,
      "enture": 2370,
      "Ġ28": 2371,
      "Ġestablished": 2372,
      "vis": 2373,
      "Ġarrangements": 2374,
      "Ġintellectual": 2375,
      "Ġbecome": 2376,
      "Ġsumm": 2377,
      "ably": 2378,
      "Ġsignificantly": 2379,
      "Ġsufficient": 2380,
      "Ġte": 2381,
      "Ġdiffic": 2382,
      "ans": 2383,
      "Ġthousands": 2384,
      "Ġcompleted": 2385,
      "puts": 2386,
      "ĠST": 2387,
      "Ġ25": 2388,
      "erger": 2389,
      "Ġmemb": 2390,
      "ĠHe": 2391,
      "CI": 2392,
      "olving": 2393,
      "imb": 2394,
      "Ġsenior": 2395,
      "ĠRule": 2396,
      "going": 2397,
      "Ġguarant": 2398,
      "Ġequal": 2399,
      "ĠShares": 2400,
      "Ġlarge": 2401,
      "Ġexcess": 2402,
      "Ġjurisdic": 2403,
      "Ġdispos": 2404,
      "Ġear": 2405,
      "Interest": 2406,
      "ists": 2407,
      "ĠSeries": 2408,
      "Ġadequ": 2409,
      "ĠNet": 2410,
      "ok": 2411,
      "Ġcompetitive": 2412,
      "Ġobligation": 2413,
      "ĠPartnership": 2414,
      "struction": 2415,
      "Ġestimate": 2416,
      "Ġmulti": 2417,
      "Ġcomplete": 2418,
      "Ġlocal": 2419,
      "Ġappropri": 2420,
      "etary": 2421,
      "Ġbase": 2422,
      "tern": 2423,
      "Ġcomply": 2424,
      "Ġvolum": 2425,
      "ired": 2426,
      "Ġvi": 2427,
      "orts": 2428,
      "Ġshould": 2429,
      "ession": 2430,
      "Income": 2431,
      "alties": 2432,
      "Ġgains": 2433,
      "Ġregistered": 2434,
      "aging": 2435,
      "orth": 2436,
      "version": 2437,
      "itive": 2438,
      "Ġactions": 2439,
      "Ġforth": 2440,
      "Ġpreferred": 2441,
      "Ġexpenditures": 2442,
      "06": 2443,
      "includ": 2444,
      "ral": 2445,
      "Ġliquidity": 2446,
      "ĠUnder": 2447,
      "Ġprep": 2448,
      "Ġadjustments": 2449,
      "Ġsubsidiary": 2450,
      "Ġfee": 2451,
      "Ġdam": 2452,
      "ĠSub": 2453,
      "79": 2454,
      "Ġsoftware": 2455,
      "Ġcheck": 2456,
      "Ġthen": 2457,
      "AAP": 2458,
      "Ġbre": 2459,
      "Ġgreater": 2460,
      "ĠSee": 2461,
      "ield": 2462,
      "ĠAddition": 2463,
      "Ġcor": 2464,
      "unction": 2465,
      "ier": 2466,
      "Ġpresented": 2467,
      "ibility": 2468,
      "uc": 2469,
      "ecti": 2470,
      "100": 2471,
      "ĠASU": 2472,
      "ury": 2473,
      "Ġkey": 2474,
      "Non": 2475,
      "Ġcompetit": 2476,
      ")(": 2477,
      "app": 2478,
      "epar": 2479,
      "ĠHoldings": 2480,
      "ĠShare": 2481,
      "ĠAC": 2482,
      "ĠSenior": 2483,
      "Ġsatis": 2484,
      "Ġpersonnel": 2485,
      "ĠAr": 2486,
      "Ġemployee": 2487,
      "08": 2488,
      "aff": 2489,
      "veness": 2490,
      "side": 2491,
      "ID": 2492,
      "ctu": 2493,
      "Ġsupply": 2494,
      "Ġhistorical": 2495,
      "looking": 2496,
      "Ġquality": 2497,
      "clus": 2498,
      "ocus": 2499,
      "Ġassessment": 2500,
      "ĠGroup": 2501,
      "ator": 2502,
      "Ġpatents": 2503,
      "ĠAny": 2504,
      "ĠQu": 2505,
      "ĠFacility": 2506,
      "ompanying": 2507,
      "ecre": 2508,
      "ING": 2509,
      "atform": 2510,
      "Ġse": 2511,
      "PA": 2512,
      "ingly": 2513,
      "Ġcompar": 2514,
      "Ġdecl": 2515,
      "Ġoperate": 2516,
      "Ġflu": 2517,
      "Ġprem": 2518,
      "ects": 2519,
      "Ġlitigation": 2520,
      "perating": 2521,
      "EMENT": 2522,
      "riter": 2523,
      "Ġfailure": 2524,
      "ner": 2525,
      "Balance": 2526,
      "Ġpricing": 2527,
      "Ġthem": 2528,
      "Ġrequ": 2529,
      "Ġrati": 2530,
      "tice": 2531,
      "hes": 2532,
      "rs": 2533,
      "Ġreserves": 2534,
      "Ġcre": 2535,
      "Ġincreases": 2536,
      "ron": 2537,
      "Ġapplications": 2538,
      "Ġpreviously": 2539,
      "with": 2540,
      "Ġenter": 2541,
      "Ġdistributions": 2542,
      "though": 2543,
      "raph": 2544,
      "Ġrecent": 2545,
      "ound": 2546,
      "Ġretail": 2547,
      "ĠIN": 2548,
      "Ġwr": 2549,
      "emed": 2550,
      "Ġcharges": 2551,
      "ectiveness": 2552,
      "ections": 2553,
      "Ġreimb": 2554,
      "Ġmatters": 2555,
      "ĠHowever": 2556,
      "Ġefforts": 2557,
      "care": 2558,
      "Ġimm": 2559,
      "Ġcompetitors": 2560,
      "ĠMarket": 2561,
      "Ġopinion": 2562,
      "Ġmaterials": 2563,
      "Ġgroup": 2564,
      "Ġcontractual": 2565,
      "exp": 2566,
      "Ġtrade": 2567,
      "inu": 2568,
      "Ġvola": 2569,
      "Ġdev": 2570,
      "Ġpositions": 2571,
      "Stock": 2572,
      "Ġcase": 2573,
      "Ġsel": 2574,
      "uel": 2575,
      "Ġ100": 2576,
      "Ġsecond": 2577,
      "Ġfirm": 2578,
      "Ġten": 2579,
      "RE": 2580,
      "Ġactivity": 2581,
      "Ġplace": 2582,
      "Ġpatients": 2583,
      "Ġplus": 2584,
      "ising": 2585,
      "ĠPri": 2586,
      "Ġdirector": 2587,
      "Ġcollateral": 2588,
      "Ġdecision": 2589,
      "ĠEur": 2590,
      "Ġaccompanying": 2591,
      "Ġinvestors": 2592,
      "Ġcharge": 2593,
      "ĠControl": 2594,
      "Ġ17": 2595,
      "alf": 2596,
      "Ġtra": 2597,
      "Ġappropriate": 2598,
      "Ġofficer": 2599,
      "acity": 2600,
      "dress": 2601,
      "ĠCo": 2602,
      "ayment": 2603,
      "other": 2604,
      "Ġfive": 2605,
      "Ġinventory": 2606,
      "Ġfocus": 2607,
      "ensed": 2608,
      "ĠLe": 2609,
      "Ġpred": 2610,
      "Ġprosp": 2611,
      "Ġconsult": 2612,
      "Ġreduced": 2613,
      "Ġseek": 2614,
      "ics": 2615,
      "Ġpolicy": 2616,
      "ĠPer": 2617,
      "Ġsatisf": 2618,
      "Ġclosing": 2619,
      "Ġinputs": 2620,
      "ĠNational": 2621,
      "ĠEntergy": 2622,
      "Ġpossible": 2623,
      "ĠTerm": 2624,
      "Ġsubstantially": 2625,
      "Ġassum": 2626,
      "Comp": 2627,
      "Ġtreatment": 2628,
      "erap": 2629,
      "Ġcli": 2630,
      "ĠCash": 2631,
      "rain": 2632,
      "________": 2633,
      "ssu": 2634,
      "ley": 2635,
      "Ġpercentage": 2636,
      "Ġadopted": 2637,
      "56": 2638,
      "Ġsubsequent": 2639,
      "cription": 2640,
      "ention": 2641,
      "IES": 2642,
      "acc": 2643,
      "Ġexpo": 2644,
      "Ġapplication": 2645,
      "riteria": 2646,
      "Company": 2647,
      "ĠFederal": 2648,
      "ĠDuring": 2649,
      "Ġminimum": 2650,
      "Ġrestrictions": 2651,
      "Ġ50": 2652,
      "Ġweighted": 2653,
      "01": 2654,
      "Ġsepar": 2655,
      "ults": 2656,
      "Ġsafety": 2657,
      "Ġenvironmental": 2658,
      "Ġmembers": 2659,
      "ĠCan": 2660,
      "Ġachieve": 2661,
      "Ġaction": 2662,
      "Ġcompet": 2663,
      "Ġenergy": 2664,
      "Ġdirectly": 2665,
      "xy": 2666,
      "Ġfluctu": 2667,
      "izes": 2668,
      "Ġconcer": 2669,
      "itor": 2670,
      "lear": 2671,
      "Ġrelationships": 2672,
      "âĺ": 2673,
      "Ġdecreased": 2674,
      "Ġprevent": 2675,
      "Ġcoverage": 2676,
      "Ġreduction": 2677,
      "Ġ29": 2678,
      "Ġ21": 2679,
      "Ġredemption": 2680,
      "orp": 2681,
      "ĠDirector": 2682,
      "ĠRelated": 2683,
      "ource": 2684,
      "Ġaffiliates": 2685,
      "ĠRec": 2686,
      "icial": 2687,
      "Ġconvertible": 2688,
      "incipal": 2689,
      "Ġeffectiveness": 2690,
      "Ġ27": 2691,
      "ĠOff": 2692,
      "oting": 2693,
      "ĠIncentive": 2694,
      "57": 2695,
      "Ġplatform": 2696,
      "Ġlocated": 2697,
      "Ġfe": 2698,
      "tenance": 2699,
      "vered": 2700,
      "ici": 2701,
      "Ġtrial": 2702,
      "ĠExp": 2703,
      "Ġ1934": 2704,
      "rolling": 2705,
      "Ġserved": 2706,
      "comp": 2707,
      "lied": 2708,
      "Ġquarterly": 2709,
      "Ġhis": 2710,
      "ursuant": 2711,
      "Ġconting": 2712,
      "Ġpropos": 2713,
      "ores": 2714,
      "Ġ24": 2715,
      "Ġglobal": 2716,
      "Ġdeposits": 2717,
      "ton": 2718,
      "OT": 2719,
      "Ġconversion": 2720,
      "Ġcapacity": 2721,
      "orable": 2722,
      "Ġborrowings": 2723,
      "Ġsheet": 2724,
      "oin": 2725,
      "Note": 2726,
      "59": 2727,
      "Ġordinary": 2728,
      "Ġpast": 2729,
      "irst": 2730,
      "Ġnote": 2731,
      "Ġtechnologies": 2732,
      "ina": 2733,
      "Ġbuil": 2734,
      "Ġauthorized": 2735,
      "Ġnetwork": 2736,
      "ĠAssets": 2737,
      "Ġconsumer": 2738,
      "ov": 2739,
      "ĠASC": 2740,
      "Ġtiming": 2741,
      "pre": 2742,
      "ĠValue": 2743,
      "Ġunderlying": 2744,
      "Ġcountries": 2745,
      "Ġexclud": 2746,
      "09": 2747,
      "Ġmaturity": 2748,
      "Ġacquire": 2749,
      "hen": 2750,
      "Ġrede": 2751,
      "Ġcomponents": 2752,
      "Ġharm": 2753,
      "Ġestablish": 2754,
      "Ġfile": 2755,
      "Ġdesigned": 2756,
      "Ġcriteria": 2757,
      "Ġsettlement": 2758,
      "mission": 2759,
      "perty": 2760,
      "ales": 2761,
      "Ġspecified": 2762,
      "orld": 2763,
      "Ġsw": 2764,
      "off": 2765,
      "Ġseveral": 2766,
      "servable": 2767,
      "enced": 2768,
      "ext": 2769,
      "EN": 2770,
      "Ġoutside": 2771,
      "December": 2772,
      "ĠMortgage": 2773,
      "Ġpurchased": 2774,
      "vision": 2775,
      "Ġexcept": 2776,
      "including": 2777,
      "Ġpremium": 2778,
      "Ġprimary": 2779,
      "Ġdid": 2780,
      "ĠUS": 2781,
      "Ġcomb": 2782,
      "ĠAsso": 2783,
      "Ġadoption": 2784,
      "Ġfiler": 2785,
      "Ġcy": 2786,
      "Ġfav": 2787,
      "Ġissue": 2788,
      "ĠPreferred": 2789,
      "Ġdefa": 2790,
      "Ġcare": 2791,
      "IB": 2792,
      "ĠAdditionally": 2793,
      "ories": 2794,
      "Ġdri": 2795,
      "Ġspecial": 2796,
      "Ġtake": 2797,
      "vant": 2798,
      "ĠWh": 2799,
      "ather": 2800,
      "Ġdelay": 2801,
      "ĠRisk": 2802,
      "Ġeffects": 2803,
      "Ġclassified": 2804,
      "Ġmeasures": 2805,
      "alty": 2806,
      "ET": 2807,
      "Ġstrategy": 2808,
      "Ġactive": 2809,
      "Ġanalysis": 2810,
      "Loss": 2811,
      "Ġsolutions": 2812,
      "ĠEnded": 2813,
      "Ġsmall": 2814,
      "ool": 2815,
      "Ġaccept": 2816,
      "ĠData": 2817,
      "ĠYear": 2818,
      "izations": 2819,
      "fe": 2820,
      "Operating": 2821,
      "Ġauthorities": 2822,
      "001": 2823,
      "Ġthings": 2824,
      "iring": 2825,
      "ĠOperating": 2826,
      "Man": 2827,
      "Ġconstruction": 2828,
      "ict": 2829,
      "86": 2830,
      "Ġinst": 2831,
      "Ġprotection": 2832,
      "Ġrepurchase": 2833,
      "Ġiniti": 2834,
      "Ġ2009": 2835,
      "If": 2836,
      "ada": 2837,
      "ĠRegulation": 2838,
      "Form": 2839,
      "Ġ2024": 2840,
      "Ġentit": 2841,
      "Ġtaxable": 2842,
      "Ġjoint": 2843,
      "Ġevaluation": 2844,
      "Ġintend": 2845,
      "tices": 2846,
      "Ġreimburse": 2847,
      "ĠYork": 2848,
      "ART": 2849,
      "arb": 2850,
      "ĠAmerica": 2851,
      "Ġprinciples": 2852,
      "Ġdecline": 2853,
      "ATION": 2854,
      "Ġdifferent": 2855,
      "ĠEurope": 2856,
      "Ġitems": 2857,
      "RO": 2858,
      "Ġdiscussion": 2859,
      "aceu": 2860,
      "armaceu": 2861,
      "net": 2862,
      "Ġfully": 2863,
      "Ġworking": 2864,
      "ĠAll": 2865,
      "Ġdisru": 2866,
      "Deferred": 2867,
      "Ġpenalties": 2868,
      "Ġsur": 2869,
      "ish": 2870,
      "inate": 2871,
      "rated": 2872,
      "ĠDep": 2873,
      "Ġmaintenance": 2874,
      "Ġsecured": 2875,
      "ĠAdvis": 2876,
      "ives": 2877,
      "Ġdepreciation": 2878,
      "ĠInternal": 2879,
      "Ġpension": 2880,
      "Ġtransfer": 2881,
      "ĠCod": 2882,
      "ĠShe": 2883,
      "Ġadjusted": 2884,
      "Ġtimely": 2885,
      "Ġopportunities": 2886,
      "ĠFurther": 2887,
      "prietary": 2888,
      "ged": 2889,
      "CA": 2890,
      "Ġadjustment": 2891,
      "Ġidentify": 2892,
      "Ġdeposit": 2893,
      "ĠCal": 2894,
      "Ġaut": 2895,
      "emic": 2896,
      "Ġcommittee": 2897,
      "Ġrenew": 2898,
      "inued": 2899,
      "Ġaccumulated": 2900,
      "VID": 2901,
      "Ġpartners": 2902,
      "Ġenforce": 2903,
      "ĠOr": 2904,
      "Ġrealized": 2905,
      "Ġlimitations": 2906,
      "ingle": 2907,
      "Ġsched": 2908,
      "Ġtermination": 2909,
      "Ġcollabor": 2910,
      "LO": 2911,
      "ertificate": 2912,
      "action": 2913,
      "Cont": 2914,
      "Ġfinance": 2915,
      "bs": 2916,
      "resents": 2917,
      "eves": 2918,
      "vertis": 2919,
      "Ġaward": 2920,
      "Ġcoven": 2921,
      "Ġday": 2922,
      "Ġtechn": 2923,
      "Ġded": 2924,
      "Ġrecognition": 2925,
      "ting": 2926,
      "hold": 2927,
      "ĠWar": 2928,
      "Ġreli": 2929,
      "Ġleast": 2930,
      "lor": 2931,
      "Ġfunding": 2932,
      "Ġdollar": 2933,
      "reed": 2934,
      "Ġmargin": 2935,
      "Th": 2936,
      "101": 2937,
      "Ġratio": 2938,
      "Ġcommitments": 2939,
      "Ġcent": 2940,
      "urns": 2941,
      "yn": 2942,
      "Ġcr": 2943,
      "Ġmanage": 2944,
      "Ġ22": 2945,
      "round": 2946,
      "thers": 2947,
      "Ġselling": 2948,
      "Ġsources": 2949,
      "Ġ26": 2950,
      "Ġcompletion": 2951,
      "Consolidated": 2952,
      "Ġmember": 2953,
      "Ġneeds": 2954,
      "Ġdeemed": 2955,
      "Ġaddress": 2956,
      "Sha": 2957,
      "Ġoverall": 2958,
      "89": 2959,
      "Ġamortized": 2960,
      "udit": 2961,
      "Ġvolatility": 2962,
      "87": 2963,
      "Ġhealthcare": 2964,
      "Ġinstitutions": 2965,
      "ĠApp": 2966,
      "Ġmajority": 2967,
      "Ġmedical": 2968,
      "Ġinternational": 2969,
      "Ġ(\"": 2970,
      "Ġpartially": 2971,
      "Year": 2972,
      "ĠMedic": 2973,
      "ateg": 2974,
      "osed": 2975,
      "Ġforec": 2976,
      "Ġproprietary": 2977,
      "opic": 2978,
      "Ġwhile": 2979,
      "Ġexposure": 2980,
      "ebted": 2981,
      "ĠSuch": 2982,
      "retion": 2983,
      "ĠAmendment": 2984,
      "07": 2985,
      "ĠUnits": 2986,
      "dicate": 2987,
      "ĠAccord": 2988,
      "ception": 2989,
      "ebtedness": 2990,
      "ind": 2991,
      "Ġinves": 2992,
      "Ġadvis": 2993,
      "ĠTo": 2994,
      "Ġongoing": 2995,
      "oted": 2996,
      "Ġstrategic": 2997,
      "hic": 2998,
      "ves": 2999,
      "alances": 3000,
      "back": 3001,
      "Ġagencies": 3002,
      "ĠOwn": 3003,
      "Ġhighly": 3004,
      "Ġtherap": 3005,
      "Ġenh": 3006,
      "ritical": 3007,
      "Ġdifficult": 3008,
      "ĠCombination": 3009,
      "Ġadequate": 3010,
      "ĠSupp": 3011,
      "Ġprofession": 3012,
      "ĠGeneral": 3013,
      "read": 3014,
      "cepted": 3015,
      "Ġsingle": 3016,
      "ĠMe": 3017,
      "Ġaltern": 3018,
      "te": 3019,
      "ĠInvestment": 3020,
      "Ġbi": 3021,
      "land": 3022,
      "Ġexample": 3023,
      "err": 3024,
      "Ġtesting": 3025,
      "Ġproviders": 3026,
      "ĠVice": 3027,
      "Ġreasonably": 3028,
      "Ġrespective": 3029,
      "Ġevaluating": 3030,
      "Ġtypically": 3031,
      "idence": 3032,
      "Ġswap": 3033,
      "Ġfuel": 3034,
      "ASB": 3035,
      "During": 3036,
      "aster": 3037,
      "âĹ": 3038,
      "emp": 3039,
      "AC": 3040,
      "ocument": 3041,
      "Ġexclus": 3042,
      "issions": 3043,
      "emn": 3044,
      "ĠRevenue": 3045,
      "Ġagreed": 3046,
      "ĠPar": 3047,
      "rec": 3048,
      "Ġprotect": 3049,
      "ensive": 3050,
      "Ġdown": 3051,
      "ĠInterest": 3052,
      "IP": 3053,
      "Ġpartner": 3054,
      "Ġmis": 3055,
      "Â®": 3056,
      "ĠInformation": 3057,
      "Ġunderw": 3058,
      "iven": 3059,
      "Ġ23": 3060,
      "Ġline": 3061,
      "Ġanticipated": 3062,
      "Ġoffice": 3063,
      "ĠQuarter": 3064,
      "pose": 3065,
      "ĠSponsor": 3066,
      ".âĢĿ": 3067,
      "Ġindebtedness": 3068,
      "iii": 3069,
      "Ġexpand": 3070,
      "Ġbelieves": 3071,
      "ĠAssociation": 3072,
      "ched": 3073,
      "erging": 3074,
      "Ġrange": 3075,
      "itten": 3076,
      "Risk": 3077,
      "ĠRestated": 3078,
      "Indicate": 3079,
      "Ġproceedings": 3080,
      "ĠDisclo": 3081,
      "appro": 3082,
      "IV": 3083,
      "Ġrelative": 3084,
      "Ġnegatively": 3085,
      "Ġteam": 3086,
      "Ġmeasurement": 3087,
      "En": 3088,
      "Ġvolume": 3089,
      "ayments": 3090,
      "Ġregion": 3091,
      "Ġincentive": 3092,
      "half": 3093,
      "ipel": 3094,
      "ĠPurchase": 3095,
      "Ġaccounted": 3096,
      "Ġothers": 3097,
      "ourt": 3098,
      "ĠIII": 3099,
      "Ġgenerate": 3100,
      "Ġaccepted": 3101,
      "ITIES": 3102,
      "irm": 3103,
      "isted": 3104,
      "Ġproviding": 3105,
      "Ġentitled": 3106,
      "Ġsuccessfully": 3107,
      "ultim": 3108,
      "PART": 3109,
      "Pr": 3110,
      "Ġcontinued": 3111,
      "Ġlow": 3112,
      "Ġobj": 3113,
      "Ġincreasing": 3114,
      "rial": 3115,
      "Ġcontinuing": 3116,
      "allen": 3117,
      "Ġstatut": 3118,
      "vertising": 3119,
      "200": 3120,
      "ĠIns": 3121,
      "ricted": 3122,
      "Ġpartnership": 3123,
      "Ġopen": 3124,
      "Ġdefault": 3125,
      "Ġresponsible": 3126,
      "imited": 3127,
      "Ġsummar": 3128,
      "Ġge": 3129,
      "Ġrepl": 3130,
      "Ġamend": 3131,
      "ĠCOVID": 3132,
      "Ġimport": 3133,
      "Ġve": 3134,
      "asury": 3135,
      "Ġregulation": 3136,
      "BS": 3137,
      "ĠAccordingly": 3138,
      "Ġsuppliers": 3139,
      "Ġmeasured": 3140,
      "ker": 3141,
      "ĠLevel": 3142,
      "inations": 3143,
      "see": 3144,
      "urt": 3145,
      "ĠX": 3146,
      "Level": 3147,
      "ograph": 3148,
      "velopment": 3149,
      "ĠDel": 3150,
      "Ġprojects": 3151,
      "oti": 3152,
      "rast": 3153,
      "Pre": 3154,
      "Ġcover": 3155,
      "Ġund": 3156,
      "Ġcomponent": 3157,
      "Ġnature": 3158,
      "ager": 3159,
      "Ġ2008": 3160,
      "Ġdiscussed": 3161,
      "ĠAccount": 3162,
      "Ġdiffer": 3163,
      "paid": 3164,
      "Ġultim": 3165,
      "ises": 3166,
      "Ġtren": 3167,
      "Ġlegis": 3168,
      "ĠCourt": 3169,
      "resp": 3170,
      "ignificant": 3171,
      "Ġâĺ": 3172,
      "ffective": 3173,
      "Ġdefin": 3174,
      "Ġdelivery": 3175,
      "Ġmonitor": 3176,
      "Con": 3177,
      "odity": 3178,
      "ĠMat": 3179,
      "ĠFile": 3180,
      "Ġpractices": 3181,
      "Ġplant": 3182,
      "cash": 3183,
      "Ġsubs": 3184,
      "Ġviol": 3185,
      "Ġjudgment": 3186,
      "ognized": 3187,
      "Ġrecognize": 3188,
      "Ġcontained": 3189,
      "--": 3190,
      "Ġelectric": 3191,
      "âĹı": 3192,
      "Ġrelevant": 3193,
      "herent": 3194,
      "iled": 3195,
      "Ġuncertainties": 3196,
      "MP": 3197,
      "Ġvoting": 3198,
      "An": 3199,
      "be": 3200,
      "Ġcateg": 3201,
      "Ġgenerated": 3202,
      "Ġlabor": 3203,
      "Ġreturns": 3204,
      "Ġcompetition": 3205,
      "Invest": 3206,
      "Ġemployment": 3207,
      "Ġfinal": 3208,
      "ĠCent": 3209,
      "ditional": 3210,
      "Ġidentified": 3211,
      "Ġfiling": 3212,
      "EP": 3213,
      "Ġphys": 3214,
      "ĠBenef": 3215,
      "Ġmil": 3216,
      "Management": 3217,
      "Ġcovenants": 3218,
      "Ġvesting": 3219,
      "Ġareas": 3220,
      "Ġworld": 3221,
      "Ġjurisdictions": 3222,
      "Ġmanner": 3223,
      "Ġelig": 3224,
      "Ġresulted": 3225,
      "Ġcaus": 3226,
      "Ġmax": 3227,
      "Ġtherefore": 3228,
      "date": 3229,
      "utation": 3230,
      "Ġsole": 3231,
      "Ġlarg": 3232,
      "Ġaudits": 3233,
      "hair": 3234,
      "current": 3235,
      "Ġprob": 3236,
      "Al": 3237,
      "Ġchallen": 3238,
      "ences": 3239,
      "Ġavailability": 3240,
      "Ġpersons": 3241,
      "Ġwebs": 3242,
      "Ġlend": 3243,
      "Ġbehalf": 3244,
      "Ġvehic": 3245,
      "Res": 3246,
      "Ġreceivables": 3247,
      "Ġaccelerated": 3248,
      "Ġfra": 3249,
      "justed": 3250,
      "aware": 3251,
      "Ġservicing": 3252,
      "Ġtransport": 3253,
      "ulative": 3254,
      "\")": 3255,
      "ERS": 3256,
      "Ġvariable": 3257,
      "Ġholding": 3258,
      "ĠNon": 3259,
      "Ġcounter": 3260,
      "ĠEmplo": 3261,
      "Ġtransition": 3262,
      "Ġprepar": 3263,
      "Ġdependent": 3264,
      "ĠGAAP": 3265,
      "Ġlonger": 3266,
      "Ġdeveloped": 3267,
      "Ġsegments": 3268,
      "Ġdiluted": 3269,
      "Common": 3270,
      "iforn": 3271,
      "US": 3272,
      "Ġknow": 3273,
      "ifornia": 3274,
      "ĠSTAT": 3275,
      "Ġbalances": 3276,
      "ĠCode": 3277,
      "Ġdisclosures": 3278,
      "Ġcommunic": 3279,
      "lived": 3280,
      "Weighted": 3281,
      "ructuring": 3282,
      "ecause": 3283,
      "Ġinherent": 3284,
      "ouse": 3285,
      "Ġredeem": 3286,
      "CE": 3287,
      "Ġprofitability": 3288,
      "Ġclients": 3289,
      "At": 3290,
      "ling": 3291,
      "Ġimmedi": 3292,
      "Rec": 3293,
      "anced": 3294,
      "porary": 3295,
      "Ġrecovery": 3296,
      "Ġoperation": 3297,
      "Ġknown": 3298,
      "Ġinvesting": 3299,
      "formance": 3300,
      "wh": 3301,
      "CH": 3302,
      "Ġqualified": 3303,
      "aken": 3304,
      "Ġautom": 3305,
      "ites": 3306,
      "Ġrating": 3307,
      "Ġregistration": 3308,
      "Ġcontingent": 3309,
      "Ġproposed": 3310,
      "%.": 3311,
      "orage": 3312,
      "market": 3313,
      "aired": 3314,
      "Ġstates": 3315,
      "eu": 3316,
      "Ġcases": 3317,
      "entially": 3318,
      "Ġtem": 3319,
      "Ġpermitted": 3320,
      "ĠSystem": 3321,
      "oreign": 3322,
      "Ġearly": 3323,
      "Ġearned": 3324,
      "Ġstockholder": 3325,
      "Ġvariety": 3326,
      "Ġoutc": 3327,
      "Ġnam": 3328,
      "yee": 3329,
      "Ġlast": 3330,
      "State": 3331,
      "Ġdifferences": 3332,
      "ĠHealth": 3333,
      "Ġapply": 3334,
      "BIT": 3335,
      "Ġapproach": 3336,
      "ĠGovern": 3337,
      "Ġcomplex": 3338,
      "otion": 3339,
      "way": 3340,
      "Ġbroad": 3341,
      "Ġevaluate": 3342,
      "Ġimpacted": 3343,
      "Ġwritten": 3344,
      "Ġanti": 3345,
      "ĠCost": 3346,
      "HE": 3347,
      "ĠNorth": 3348,
      "rade": 3349,
      "ĠInt": 3350,
      "che": 3351,
      "urchases": 3352,
      "tax": 3353,
      "Ġdetail": 3354,
      "Ġmight": 3355,
      "Ġreimbursement": 3356,
      "time": 3357,
      "controlling": 3358,
      "Ġ($": 3359,
      "Ġprocesses": 3360,
      "Ġroy": 3361,
      "eful": 3362,
      "co": 3363,
      "EMENTS": 3364,
      "Ġexpress": 3365,
      "echnology": 3366,
      "Ġmanufacturers": 3367,
      "rastructure": 3368,
      "BR": 3369,
      "anes": 3370,
      "Ġrefl": 3371,
      "Ġbanking": 3372,
      "Ġland": 3373,
      "ĠCalifornia": 3374,
      "Ġmultiple": 3375,
      "rict": 3376,
      "Ġrepresents": 3377,
      "iversity": 3378,
      "Ġmaking": 3379,
      "Ġlet": 3380,
      "Ġconver": 3381,
      "250": 3382,
      "inance": 3383,
      "Ġstudies": 3384,
      "Ġcalculated": 3385,
      "Ġhowever": 3386,
      "ĠFASB": 3387,
      "ĠPa": 3388,
      "ĠCertain": 3389,
      "ĠStandard": 3390,
      "entures": 3391,
      "Ġintended": 3392,
      "Ġconducted": 3393,
      "Ġeven": 3394,
      "ĠREIT": 3395,
      "ft": 3396,
      "Ġ2007": 3397,
      "ĠAmended": 3398,
      "Ġcompete": 3399,
      "Ġpersonal": 3400,
      "invest": 3401,
      "Ġderivatives": 3402,
      "Ġunless": 3403,
      "Ġfluctuations": 3404,
      "Ġissues": 3405,
      "Ġoperational": 3406,
      "Ġuns": 3407,
      "illing": 3408,
      "ĠIP": 3409,
      "Ġuseful": 3410,
      "Ġenvironment": 3411,
      "exas": 3412,
      "Ġunrealized": 3413,
      "use": 3414,
      "Ġfavorable": 3415,
      "Ġmer": 3416,
      "actions": 3417,
      "actors": 3418,
      "aring": 3419,
      "Not": 3420,
      "me": 3421,
      "ĠAcquisition": 3422,
      "asure": 3423,
      "armaceutical": 3424,
      "lows": 3425,
      "Ġyou": 3426,
      "Ġdeg": 3427,
      "ĠBalance": 3428,
      "ĠWhile": 3429,
      "Ġalle": 3430,
      "Ġconsumm": 3431,
      "....": 3432,
      "Ġback": 3433,
      "Fair": 3434,
      "BITDA": 3435,
      "hibits": 3436,
      "Ġqualify": 3437,
      "ĠAdminist": 3438,
      "Ġpurchases": 3439,
      "Reg": 3440,
      "Ġdiscont": 3441,
      "GE": 3442,
      "ane": 3443,
      "INAN": 3444,
      "ink": 3445,
      "igital": 3446,
      "Ġdeliver": 3447,
      "Ġdetermination": 3448,
      "Ġcompr": 3449,
      "ĠMerger": 3450,
      "Ġallocated": 3451,
      "Ġwarrant": 3452,
      "ĠEX": 3453,
      "Ġwholly": 3454,
      "ranch": 3455,
      "Equity": 3456,
      "earch": 3457,
      "efin": 3458,
      "Ġindicated": 3459,
      "ests": 3460,
      "Ġindemn": 3461,
      "Ġperformed": 3462,
      "ĠIssu": 3463,
      "td": 3464,
      "Exp": 3465,
      "Ġpredict": 3466,
      "interest": 3467,
      "ternal": 3468,
      "itiz": 3469,
      "Current": 3470,
      "POR": 3471,
      "Ġreserve": 3472,
      "Ġeligible": 3473,
      "Ġinvolve": 3474,
      "Ġrely": 3475,
      "MM": 3476,
      "Ġpand": 3477,
      "Financial": 3478,
      "PP": 3479,
      "Ġdistribut": 3480,
      "ANT": 3481,
      "Ġreflected": 3482,
      "ubt": 3483,
      "Ġstatus": 3484,
      "Ġunderwrit": 3485,
      "Ac": 3486,
      "Ġeffectively": 3487,
      "iqu": 3488,
      "Ġnext": 3489,
      "Ġface": 3490,
      "Ġfourth": 3491,
      "Ġshall": 3492,
      "ology": 3493,
      "Ġvary": 3494,
      "Ġelim": 3495,
      "ĠProduct": 3496,
      "IBOR": 3497,
      "OC": 3498,
      "ĠAlthough": 3499,
      "Ġadvertising": 3500,
      "Ġensure": 3501,
      "Ġgoods": 3502,
      "ĠTexas": 3503,
      "Ġcred": 3504,
      "acement": 3505,
      "ĠLtd": 3506,
      "Ġarea": 3507,
      "Ġbest": 3508,
      "Ġassumed": 3509,
      "rid": 3510,
      "ortization": 3511,
      "ework": 3512,
      "onth": 3513,
      "Ġexec": 3514,
      "umulative": 3515,
      "Ġcovered": 3516,
      "here": 3517,
      "emark": 3518,
      "arged": 3519,
      "File": 3520,
      "Ġcritical": 3521,
      "ramework": 3522,
      "Ġinstitution": 3523,
      "There": 3524,
      "Ġpotentially": 3525,
      "ick": 3526,
      "Ġshareholder": 3527,
      "ĠChina": 3528,
      "ĠAnal": 3529,
      "Ġofferings": 3530,
      "sel": 3531,
      "Ġbond": 3532,
      "Ġfunction": 3533,
      "Ġpreparation": 3534,
      "Ġbrand": 3535,
      "Ġconsists": 3536,
      "Ġdiscretion": 3537,
      "TC": 3538,
      "ĠLimited": 3539,
      "ĠTre": 3540,
      "wide": 3541,
      "QU": 3542,
      "Ġdetermining": 3543,
      "ĠFactors": 3544,
      "ĠDelaware": 3545,
      "Ġobtained": 3546,
      "Ġacross": 3547,
      "52": 3548,
      "Ġhedge": 3549,
      "Ġresidential": 3550,
      "Ġcomparable": 3551,
      "Ġrent": 3552,
      "icer": 3553,
      "Ġ40": 3554,
      "ĠPower": 3555,
      "Ġtypes": 3556,
      "ĠCar": 3557,
      "sured": 3558,
      "ene": 3559,
      "Ġalternative": 3560,
      "Ġcell": 3561,
      "organ": 3562,
      "Ġrevolving": 3563,
      "ertification": 3564,
      "hairman": 3565,
      "Ġconsistent": 3566,
      "illed": 3567,
      "ĠCorporate": 3568,
      "Ġwebsite": 3569,
      "Ġraise": 3570,
      "See": 3571,
      "Ġindirect": 3572,
      "Ġ90": 3573,
      "CIAL": 3574,
      "omestic": 3575,
      "Li": 3576,
      "Ġgovernmental": 3577,
      "Ġdise": 3578,
      "Ġdamages": 3579,
      "Ġimprovements": 3580,
      "Ġexpire": 3581,
      "Ġread": 3582,
      "owned": 3583,
      "Ġquan": 3584,
      "Ġchang": 3585,
      "Ġcarri": 3586,
      "Ġuses": 3587,
      "Ġpe": 3588,
      "Ġenact": 3589,
      "Ġnum": 3590,
      "Ġdisposition": 3591,
      "more": 3592,
      "ĠEBITDA": 3593,
      "INANCIAL": 3594,
      "lemental": 3595,
      "Ġexperienced": 3596,
      "Ġstorage": 3597,
      "vate": 3598,
      "ĠSh": 3599,
      "Ġmonthly": 3600,
      "Ġcourse": 3601,
      "dra": 3602,
      "oodwill": 3603,
      "ĠResults": 3604,
      "Ġnegoti": 3605,
      "uman": 3606,
      "Ġpipel": 3607,
      "Ġcarryfor": 3608,
      "Ġvend": 3609,
      "rupt": 3610,
      "Ġcandidate": 3611,
      "Ġpandemic": 3612,
      "RC": 3613,
      "ĠReporting": 3614,
      "sha": 3615,
      "ether": 3616,
      "Ġsponsor": 3617,
      "Ġprocessing": 3618,
      "Ġrequest": 3619,
      "AB": 3620,
      "ah": 3621,
      "onse": 3622,
      "ĠIt": 3623,
      "Ass": 3624,
      "Ġfre": 3625,
      "51": 3626,
      "Ġdeveloping": 3627,
      "sh": 3628,
      "ifications": 3629,
      "Ġname": 3630,
      "Ġfraud": 3631,
      "ĠProgram": 3632,
      "Ġsheets": 3633,
      "Ġoriginal": 3634,
      "ĠZ": 3635,
      "ĠCorp": 3636,
      "Ġpending": 3637,
      "ĠCl": 3638,
      "Ġstatutory": 3639,
      "SE": 3640,
      "Dep": 3641,
      "Ġextended": 3642,
      "Ġimpaired": 3643,
      "Ġunf": 3644,
      "Ġsubmitted": 3645,
      "Incorporated": 3646,
      "Bas": 3647,
      "obile": 3648,
      "Ġseparate": 3649,
      "osp": 3650,
      "Ġnotice": 3651,
      "ĠFair": 3652,
      "Ġdates": 3653,
      "arnings": 3654,
      "ĠPartners": 3655,
      "âĢĳ": 3656,
      "Ġserve": 3657,
      "Ġquoted": 3658,
      "izing": 3659,
      "Ġprofessional": 3660,
      "Ġyield": 3661,
      "clinical": 3662,
      "53": 3663,
      "Ġcapitalized": 3664,
      "acter": 3665,
      "ĠWarrants": 3666,
      "Ġinfring": 3667,
      "stain": 3668,
      "Ġcontributions": 3669,
      "Ġsus": 3670,
      "ĠInternational": 3671,
      "abel": 3672,
      "Ġcommun": 3673,
      "Ġeffic": 3674,
      "Ġlisted": 3675,
      "Ġinfrastructure": 3676,
      "Ġspace": 3677,
      "comm": 3678,
      "ĠGlobal": 3679,
      "IR": 3680,
      "ĠUp": 3681,
      "Ġcall": 3682,
      "Ġgo": 3683,
      "ism": 3684,
      "icit": 3685,
      "Ġmaximum": 3686,
      "Ġcommodity": 3687,
      "Ġmeeting": 3688,
      "Ġsatisfy": 3689,
      "ude": 3690,
      "Ġconclud": 3691,
      "Ġ2002": 3692,
      "Ġsuper": 3693,
      "itle": 3694,
      "Ġnorm": 3695,
      "Ġaccur": 3696,
      "Ġdelays": 3697,
      "Ġretirement": 3698,
      "ĠAnalysis": 3699,
      "insurance": 3700,
      "Ġemploy": 3701,
      "ĠRate": 3702,
      "Ġinvestig": 3703,
      "Ġdivers": 3704,
      "Ġinstall": 3705,
      "ĠContract": 3706,
      "ceeds": 3707,
      "Ġdr": 3708,
      "Ġpurpose": 3709,
      "Ġrental": 3710,
      "Ġinterim": 3711,
      "Ġresol": 3712,
      "ĠMid": 3713,
      "istrict": 3714,
      "Ġbanks": 3715,
      "Ġwater": 3716,
      "Ox": 3717,
      "Cost": 3718,
      "Ġwa": 3719,
      "Changes": 3720,
      "54": 3721,
      "error": 3722,
      "300": 3723,
      "Ġadvant": 3724,
      "Ġgiven": 3725,
      "ĠBased": 3726,
      "Ġlicenses": 3727,
      "ĠSo": 3728,
      "Securities": 3729,
      "Ġparticipants": 3730,
      "Ġuncertainty": 3731,
      "ensing": 3732,
      "ĠBl": 3733,
      "Ġelected": 3734,
      "Ġexpectations": 3735,
      "Ġsustain": 3736,
      "Ġinvolved": 3737,
      "ĠCondition": 3738,
      "Ġtrends": 3739,
      "itative": 3740,
      "ĠPhase": 3741,
      "lements": 3742,
      "ĠPrior": 3743,
      "Ġindividuals": 3744,
      "Ġreputation": 3745,
      "Ġcombined": 3746,
      "Ġpatient": 3747,
      "Ġcharged": 3748,
      "that": 3749,
      "Ġtransportation": 3750,
      "Ġran": 3751,
      "Ġaccru": 3752,
      "Ġcommercialization": 3753,
      "itial": 3754,
      "after": 3755,
      "gth": 3756,
      "ansion": 3757,
      "ĠAB": 3758,
      "Ġanticipate": 3759,
      "ulatory": 3760,
      "Ġnational": 3761,
      "Ġformer": 3762,
      "Ġattract": 3763,
      "Ġweak": 3764,
      "ĠLoans": 3765,
      "Ġ333": 3766,
      "Ġauthority": 3767,
      "ITY": 3768,
      "Ġarising": 3769,
      "Ġvote": 3770,
      "Ġtaken": 3771,
      "Ġamendments": 3772,
      "aking": 3773,
      "Ġuna": 3774,
      "Ġ2006": 3775,
      "isable": 3776,
      "igned": 3777,
      "Emplo": 3778,
      "Ġinterpre": 3779,
      "ĠMatters": 3780,
      "Ġcourt": 3781,
      "rodu": 3782,
      "arbanes": 3783,
      "Ġelectron": 3784,
      "istics": 3785,
      "average": 3786,
      "Ġdegree": 3787,
      "which": 3788,
      "agn": 3789,
      "emplo": 3790,
      "Ġentire": 3791,
      "ussion": 3792,
      "Ġrecon": 3793,
      "Ġsource": 3794,
      "Accounts": 3795,
      "ĠRegistration": 3796,
      "Ġconsolid": 3797,
      "Exhibit": 3798,
      "BRL": 3799,
      "sol": 3800,
      "ician": 3801,
      "Ġhand": 3802,
      "erous": 3803,
      "Ġevidence": 3804,
      "Capital": 3805,
      "82": 3806,
      "ĠLoss": 3807,
      "ĠCol": 3808,
      "under": 3809,
      "Ġgeograph": 3810,
      "Ġholder": 3811,
      "yl": 3812,
      "uthorized": 3813,
      "ĠFINANCIAL": 3814,
      "Ġden": 3815,
      "ime": 3816,
      "ĠInsurance": 3817,
      "EO": 3818,
      "ĠFirst": 3819,
      "Ġjudgments": 3820,
      "ĠWest": 3821,
      "respond": 3822,
      "ĠDate": 3823,
      "artment": 3824,
      "ĠLIBOR": 3825,
      "ĠGas": 3826,
      "ST": 3827,
      "oper": 3828,
      "Ġlines": 3829,
      "ĠStockholders": 3830,
      "Ġreclass": 3831,
      "argo": 3832,
      "nov": 3833,
      "iration": 3834,
      "Ġperm": 3835,
      "reat": 3836,
      "Oxley": 3837,
      "Int": 3838,
      "ĠDevelopment": 3839,
      "ectives": 3840,
      "Ġperiodic": 3841,
      "ĠCons": 3842,
      "ĠStandards": 3843,
      "ease": 3844,
      "Ġthereto": 3845,
      "Ġarrangement": 3846,
      "ĠTO": 3847,
      "Direct": 3848,
      "ĠPursuant": 3849,
      "onus": 3850,
      "Ġbreach": 3851,
      "Ġdamage": 3852,
      "Ġhead": 3853,
      "Ġstructure": 3854,
      "Ġunrec": 3855,
      "raight": 3856,
      "TION": 3857,
      "Ġresponse": 3858,
      "gress": 3859,
      "iana": 3860,
      "com": 3861,
      "Ġstrategies": 3862,
      "lain": 3863,
      "ned": 3864,
      "Ġcomput": 3865,
      "400": 3866,
      "tivity": 3867,
      "versight": 3868,
      "Ġsix": 3869,
      "yond": 3870,
      "Ġhome": 3871,
      "02": 3872,
      "ĠSarbanes": 3873,
      "ived": 3874,
      "CC": 3875,
      "Ġenhance": 3876,
      "oints": 3877,
      "ĠIndex": 3878,
      "Ġterminated": 3879,
      "ĠSol": 3880,
      "Ġengine": 3881,
      "elve": 3882,
      "Ġdeal": 3883,
      "Ġsection": 3884,
      "ĠChanges": 3885,
      "Ġdecisions": 3886,
      "Ġfree": 3887,
      "Ġstudy": 3888,
      "Ġtechnical": 3889,
      "Ġlives": 3890,
      "active": 3891,
      "Ġjurisdiction": 3892,
      "ĠOP": 3893,
      "lp": 3894,
      "Ġaudited": 3895,
      "af": 3896,
      "Ġbeyond": 3897,
      "Less": 3898,
      "ĠConvertible": 3899,
      "TED": 3900,
      "Ġhow": 3901,
      "SUs": 3902,
      "Ġproxy": 3903,
      "Ġdiscontinued": 3904,
      "arters": 3905,
      "IL": 3906,
      "Ġtemporary": 3907,
      "Ġimmediately": 3908,
      "ĠPolic": 3909,
      "NOT": 3910,
      "ĠTotal": 3911,
      "ĠDebt": 3912,
      "house": 3913,
      "annel": 3914,
      "ington": 3915,
      "Ġdepends": 3916,
      "tary": 3917,
      "den": 3918,
      "Ġprobable": 3919,
      "Ġprojected": 3920,
      "ĠUnit": 3921,
      "ĠYes": 3922,
      "Ġcorporation": 3923,
      "Ġcalcul": 3924,
      "Ġresponsibility": 3925,
      "Ġunrecognized": 3926,
      "ream": 3927,
      "De": 3928,
      "ĠSales": 3929,
      "Ġopportunity": 3930,
      "All": 3931,
      "Ġpreced": 3932,
      "Ġprospects": 3933,
      "Co": 3934,
      "Ġcorrespond": 3935,
      "Ġleverage": 3936,
      "ights": 3937,
      "Ġdesignated": 3938,
      "Ġcaused": 3939,
      "Ġevaluated": 3940,
      "ivil": 3941,
      "Ġcontains": 3942,
      "ĠGu": 3943,
      "Ġmerger": 3944,
      "Ġmaintaining": 3945,
      "ME": 3946,
      "Ġamendment": 3947,
      "tivities": 3948,
      "Ġborrowing": 3949,
      "Ġreconc": 3950,
      "amp": 3951,
      "Ġlegislation": 3952,
      "61": 3953,
      "62": 3954,
      "ĠSpec": 3955,
      "SO": 3956,
      "Ġannoun": 3957,
      "Ġoften": 3958,
      "tification": 3959,
      "Ġstraight": 3960,
      "Ġagent": 3961,
      "Ġrefer": 3962,
      "Ġparticularly": 3963,
      "Ġexpansion": 3964,
      "64": 3965,
      "Ġdriven": 3966,
      "lease": 3967,
      "Ġbeneficial": 3968,
      "Ġbroker": 3969,
      "ĠAudit": 3970,
      "stim": 3971,
      "Rest": 3972,
      "ĠCanada": 3973,
      "lls": 3974,
      "ĠEuropean": 3975,
      "Ġgeneration": 3976,
      "Ġperforming": 3977,
      "Ġtype": 3978,
      "oy": 3979,
      "Ġcharacter": 3980,
      "Ġdevices": 3981,
      "Ġmatter": 3982,
      "Ġunsecured": 3983,
      "63": 3984,
      "quare": 3985,
      "ĠDiscussion": 3986,
      "Ġhelp": 3987,
      "atic": 3988,
      "vested": 3989,
      "Property": 3990,
      "Ġcredits": 3991,
      "Ġ001": 3992,
      "rolled": 3993,
      "perties": 3994,
      "Ġengage": 3995,
      "Ġconflic": 3996,
      "Loan": 3997,
      "Ġimplementation": 3998,
      "ĠSTATEMENTS": 3999,
      "oli": 4000,
      "Ġreferred": 4001,
      "Ġrestated": 4002,
      "elines": 4003,
      "Principal": 4004,
      "Ġobjectives": 4005,
      "Ġinj": 4006,
      "ĠIndust": 4007,
      "Ġliquidation": 4008,
      "Ġstated": 4009,
      "venues": 4010,
      "GAAP": 4011,
      "Ġclear": 4012,
      "ĠOfficers": 4013,
      "Ġapplied": 4014,
      "Tax": 4015,
      "IE": 4016,
      "Ġexclusive": 4017,
      "ĠUniversity": 4018,
      "Ġterminate": 4019,
      "ĠQuarterly": 4020,
      "Ġdisclosed": 4021,
      "Ġsusp": 4022,
      "lex": 4023,
      "Ġsecur": 4024,
      "Ġweakness": 4025,
      "Ġ60": 4026,
      "tition": 4027,
      "Ġtrademark": 4028,
      "Ġcomprised": 4029,
      "Ġoutcome": 4030,
      "Ġextend": 4031,
      "Ġsigned": 4032,
      "Ġdomestic": 4033,
      "Accrued": 4034,
      "Ġreceip": 4035,
      "MS": 4036,
      "Ġmaturities": 4037,
      "Ġexternal": 4038,
      "Ġmilest": 4039,
      "ished": 4040,
      "Ġimportant": 4041,
      "Ġborrower": 4042,
      "Accumulated": 4043,
      "Ġtog": 4044,
      "atures": 4045,
      "issory": 4046,
      "ati": 4047,
      "Ġorders": 4048,
      "Ġtogether": 4049,
      "Ġrestructuring": 4050,
      "Ġapprovals": 4051,
      "ino": 4052,
      "Ġcarryforwards": 4053,
      "Term": 4054,
      "Ġmean": 4055,
      "Ġmoney": 4056,
      "aws": 4057,
      "Ġadvance": 4058,
      "Ġoccurred": 4059,
      "Ġconcent": 4060,
      "Ġfound": 4061,
      "Ġflo": 4062,
      "ĠTaxes": 4063,
      "Ġnumerous": 4064,
      "ĠRep": 4065,
      "Ġobtaining": 4066,
      "Ġintrodu": 4067,
      "Ġachie": 4068,
      "Ġcumulative": 4069,
      "ath": 4070,
      "URITIES": 4071,
      "Ġemerging": 4072,
      "els": 4073,
      "Ġpool": 4074,
      "92": 4075,
      "RS": 4076,
      "Shares": 4077,
      "Ġdedu": 4078,
      "Ġpharmaceutical": 4079,
      "retirement": 4080,
      "Ġmillions": 4081,
      "Foreign": 4082,
      "ĠSched": 4083,
      "utive": 4084,
      "Change": 4085,
      "Ġderived": 4086,
      "IG": 4087,
      "unctions": 4088,
      "Ġpass": 4089,
      "OB": 4090,
      "urring": 4091,
      "Ġobservable": 4092,
      "ĠEach": 4093,
      "Gross": 4094,
      "Ġlawsu": 4095,
      "Ġlicensed": 4096,
      "Ġpresents": 4097,
      "Ġventure": 4098,
      "bers": 4099,
      "UNT": 4100,
      "pid": 4101,
      "150": 4102,
      "Ġrequirement": 4103,
      "Ġengaged": 4104,
      "Ġlocations": 4105,
      "Ġwarran": 4106,
      "Ġdeclared": 4107,
      "ĠFees": 4108,
      "utstanding": 4109,
      "ĠImp": 4110,
      "Ġdigital": 4111,
      "Ġdoubt": 4112,
      "RA": 4113,
      "Ġconform": 4114,
      "ocuments": 4115,
      "Ġanother": 4116,
      "Ġvested": 4117,
      "reet": 4118,
      "Ġpresentation": 4119,
      "ie": 4120,
      "Ġ2005": 4121,
      "ĠOption": 4122,
      "Ġcivil": 4123,
      "Ġallocation": 4124,
      "oles": 4125,
      "Ġtwelve": 4126,
      "used": 4127,
      "Under": 4128,
      "Ġlimits": 4129,
      "ordinated": 4130,
      "ONS": 4131,
      "Ġmethods": 4132,
      "iver": 4133,
      "Ġenforcement": 4134,
      "Ġconsisted": 4135,
      "ĠDistrict": 4136,
      "egment": 4137,
      ".)": 4138,
      "ĠFlows": 4139,
      "sale": 4140,
      "Ġtraded": 4141,
      "ĠSheets": 4142,
      "Ġsite": 4143,
      "Ġinitiatives": 4144,
      "ĠMedicare": 4145,
      "aches": 4146,
      "Ġcard": 4147,
      "Ġclose": 4148,
      "Ġregular": 4149,
      "aur": 4150,
      "Ġmi": 4151,
      "sub": 4152,
      "ored": 4153,
      "Ġannually": 4154,
      "94": 4155,
      "Ġhedging": 4156,
      "Ġnormal": 4157,
      "Market": 4158,
      "aterial": 4159,
      "Ġpreceding": 4160,
      "Ġending": 4161,
      "ĠTransactions": 4162,
      "Ag": 4163,
      "Ġrecords": 4164,
      "Ġstores": 4165,
      "Ġoffices": 4166,
      "ĠOffering": 4167,
      "Long": 4168,
      "ouis": 4169,
      "Ġscope": 4170,
      "rong": 4171,
      "ruptcy": 4172,
      "Ġexpiration": 4173,
      "Ġfranch": 4174,
      "Ġsens": 4175,
      "month": 4176,
      "Ġinflu": 4177,
      "ublis": 4178,
      "ĠEqui": 4179,
      "Ġunderwriting": 4180,
      "Â·": 4181,
      "Ġadvances": 4182,
      "than": 4183,
      "lementary": 4184,
      "urchased": 4185,
      "IVE": 4186,
      "olitical": 4187,
      "Ġhaving": 4188,
      "93": 4189,
      "umm": 4190,
      "ledge": 4191,
      "Ġreflects": 4192,
      "Ġexecu": 4193,
      "Ġnor": 4194,
      "ison": 4195,
      "74": 4196,
      "FOR": 4197,
      "ww": 4198,
      "**": 4199,
      "stock": 4200,
      "ĠPrivate": 4201,
      "Ġorganization": 4202,
      "Ġremedi": 4203,
      "Ġbuild": 4204,
      "Ġconcluded": 4205,
      "anc": 4206,
      "Ġlenders": 4207,
      "ĠâĺĲ": 4208,
      "Ġtotaled": 4209,
      "Ġearli": 4210,
      "600": 4211,
      "ills": 4212,
      "ĠExt": 4213,
      "Ġsummarizes": 4214,
      "ĠRev": 4215,
      "Number": 4216,
      "NOTE": 4217,
      "72": 4218,
      "ery": 4219,
      "archy": 4220,
      "enefit": 4221,
      "ĠAmerican": 4222,
      "ĠLong": 4223,
      "Ġenacted": 4224,
      "utures": 4225,
      "Ġextensive": 4226,
      "Based": 4227,
      "Ġpublicly": 4228,
      "Ġinability": 4229,
      "IDA": 4230,
      "Ġsets": 4231,
      "Ġtrain": 4232,
      "Ġenc": 4233,
      "Ġexercised": 4234,
      "Ġcapabilities": 4235,
      "Ġcollect": 4236,
      "Ġdifficul": 4237,
      "ern": 4238,
      "Ġmanaged": 4239,
      "Ġ33": 4240,
      "125": 4241,
      "iluted": 4242,
      "83": 4243,
      "may": 4244,
      "thern": 4245,
      "ĠLic": 4246,
      "ĠTHE": 4247,
      "ĠLP": 4248,
      "aced": 4249,
      "ĠPrincipal": 4250,
      "Ġpermit": 4251,
      "ierarchy": 4252,
      "Ġorganizations": 4253,
      "Proceeds": 4254,
      "eal": 4255,
      "None": 4256,
      "Revenue": 4257,
      "Sub": 4258,
      "Ġnamed": 4259,
      "ĠWith": 4260,
      "73": 4261,
      "erences": 4262,
      "ones": 4263,
      "ĠIV": 4264,
      "Ġguarantee": 4265,
      "Ġconsulting": 4266,
      "iciency": 4267,
      "84": 4268,
      "COUNT": 4269,
      "Executive": 4270,
      "ender": 4271,
      "Ġtimes": 4272,
      "Ġvolumes": 4273,
      "Ġinterpret": 4274,
      "Ġtransmission": 4275,
      "iture": 4276,
      "Ġcontent": 4277,
      "Pl": 4278,
      "Ġexceeds": 4279,
      "titative": 4280,
      "Ġgrants": 4281,
      "Ġdifference": 4282,
      "rading": 4283,
      "Ġmodified": 4284,
      "Ġsummary": 4285,
      "from": 4286,
      "Ġbonds": 4287,
      "Ġpremiums": 4288,
      "PORT": 4289,
      "Ġseason": 4290,
      "ĠPrice": 4291,
      "General": 4292,
      "Ġindustrial": 4293,
      "Ġpoint": 4294,
      "changes": 4295,
      "Ġdiscounted": 4296,
      "ĠFargo": 4297,
      "Ġdrugs": 4298,
      "Ġ35": 4299,
      "Ġcreate": 4300,
      "oh": 4301,
      "ĠTopic": 4302,
      "ĠFrom": 4303,
      "rop": 4304,
      "ĠLLP": 4305,
      "ERC": 4306,
      "Ġthroughout": 4307,
      "HL": 4308,
      "prise": 4309,
      "any": 4310,
      "Ġsav": 4311,
      "ĠEQU": 4312,
      "71": 4313,
      "Ġdevelopments": 4314,
      "ONSOL": 4315,
      "ĠNY": 4316,
      "ym": 4317,
      "onst": 4318,
      "ĠLouis": 4319,
      "pping": 4320,
      "ospital": 4321,
      "Ġgoing": 4322,
      "uled": 4323,
      "Ġgoverning": 4324,
      "Ġconfidential": 4325,
      "Ġsavings": 4326,
      "Ġswaps": 4327,
      "ĠResources": 4328,
      "750": 4329,
      "Ġyet": 4330,
      "Ġutilize": 4331,
      "financial": 4332,
      "Ġcommercialize": 4333,
      "da": 4334,
      "efinite": 4335,
      "ĠOne": 4336,
      "Amortization": 4337,
      "Ġadvantage": 4338,
      "erson": 4339,
      "struments": 4340,
      "Ġhierarchy": 4341,
      "91": 4342,
      "Ġcop": 4343,
      "Ġchannel": 4344,
      "eiv": 4345,
      "ĠElect": 4346,
      "ĠInvestments": 4347,
      "800": 4348,
      "Ġroyalty": 4349,
      "Ġassist": 4350,
      "Ġindicate": 4351,
      "Ġmisstate": 4352,
      "ĠSouth": 4353,
      "Ġissuer": 4354,
      "company": 4355,
      "ffer": 4356,
      "Ġinvestor": 4357,
      "81": 4358,
      "Ġtele": 4359,
      "ĠSecurity": 4360,
      "ivision": 4361,
      "UL": 4362,
      "ĠProducts": 4363,
      "Ġacceptable": 4364,
      "Ġsites": 4365,
      "Ġsmaller": 4366,
      "Ġdevice": 4367,
      "Ġrecomm": 4368,
      "observable": 4369,
      "Ġlending": 4370,
      "Ġdefend": 4371,
      "ĠBecause": 4372,
      "Ġallows": 4373,
      "ĠComprehensive": 4374,
      "Ġvalued": 4375,
      "Ġpos": 4376,
      "Ġrecently": 4377,
      "Average": 4378,
      "ĠProxy": 4379,
      "att": 4380,
      "Ġrevised": 4381,
      "Ġcommissions": 4382,
      "urrence": 4383,
      "Issu": 4384,
      "Ġprivacy": 4385,
      "Ġstore": 4386,
      "Ġcollection": 4387,
      "MA": 4388,
      "Ġbook": 4389,
      "ĠACCOUNT": 4390,
      "Business": 4391,
      "Ġproduce": 4392,
      "Ġprepared": 4393,
      "ONSOLIDA": 4394,
      "Ġpublis": 4395,
      "Ġsk": 4396,
      "ĠDr": 4397,
      "Ġexercisable": 4398,
      "Ġexcluding": 4399,
      "ĠOb": 4400,
      "Ġimpose": 4401,
      "ĠDisclosures": 4402,
      "Ġtransferred": 4403,
      "Ġvendors": 4404,
      "tise": 4405,
      "ĠProperty": 4406,
      "ĠAff": 4407,
      "Pursuant": 4408,
      "SEC": 4409,
      "Ġbasic": 4410,
      "Su": 4411,
      "Ġconsumers": 4412,
      "epend": 4413,
      "Ġindustries": 4414,
      "ĠChairman": 4415,
      "sequ": 4416,
      "Ġextension": 4417,
      "Ġlargest": 4418,
      "Ġsize": 4419,
      "acks": 4420,
      "Ġdisposal": 4421,
      "Ġdisease": 4422,
      "filed": 4423,
      "Ġla": 4424,
      "ĠActivities": 4425,
      "Imp": 4426,
      "Ġstrong": 4427,
      "Ġcance": 4428,
      "rease": 4429,
      "titute": 4430,
      "uation": 4431,
      "ĠOver": 4432,
      "raft": 4433,
      "ISC": 4434,
      "Ġphysician": 4435,
      "Ġforfe": 4436,
      "ĠQual": 4437,
      "ĠPlans": 4438,
      "ars": 4439,
      "ĠReserve": 4440,
      "Ġagency": 4441,
      "Ġpipeline": 4442,
      "lim": 4443,
      "iving": 4444,
      "ĠIs": 4445,
      "Certain": 4446,
      "Ġknowledge": 4447,
      "ĠLiabilities": 4448,
      "Ġconcern": 4449,
      "Rep": 4450,
      "Depreciation": 4451,
      "ĠCertificate": 4452,
      "coll": 4453,
      "Ġbuy": 4454,
      "Ġpoints": 4455,
      "Ġhuman": 4456,
      "Ġinfringe": 4457,
      "Ġanaly": 4458,
      "FO": 4459,
      "ett": 4460,
      "ollowing": 4461,
      "PS": 4462,
      "Ġdemonst": 4463,
      "Ġcorresponding": 4464,
      "Ġbecame": 4465,
      "Ġfam": 4466,
      "accelerated": 4467,
      "ĠWells": 4468,
      "Ġnear": 4469,
      "amily": 4470,
      "ĠGovernance": 4471,
      "Ġrepresented": 4472,
      "Val": 4473,
      "Ġinnov": 4474,
      "zard": 4475,
      "Ġtests": 4476,
      "United": 4477,
      "Ġplacement": 4478,
      "ĠFurthermore": 4479,
      "Ġpositive": 4480,
      "omy": 4481,
      "Ġinvested": 4482,
      "Ġmargins": 4483,
      "Ġasser": 4484,
      "ffs": 4485,
      "ĠFD": 4486,
      "ĠOrgan": 4487,
      "where": 4488,
      "itable": 4489,
      "Ġdepending": 4490,
      "Ġbuilding": 4491,
      "Ġnom": 4492,
      "parties": 4493,
      "To": 4494,
      "Ġrequiring": 4495,
      "ains": 4496,
      "Ġowner": 4497,
      "Ġturn": 4498,
      "FIC": 4499,
      "CHAN": 4500,
      "OLD": 4501,
      "ions": 4502,
      "Ġregulated": 4503,
      ",\"": 4504,
      "overed": 4505,
      "Ġbonus": 4506,
      "sumer": 4507,
      "ms": 4508,
      "ality": 4509,
      "ĠInitial": 4510,
      "ĠService": 4511,
      "Ġpack": 4512,
      "Ġdocument": 4513,
      "Ġstaff": 4514,
      "ĠDocument": 4515,
      "ONSOLIDATED": 4516,
      "ĠIndependent": 4517,
      "Ġretro": 4518,
      "Ġcommitment": 4519,
      "Ġconsequ": 4520,
      "Ind": 4521,
      "ĠDes": 4522,
      "First": 4523,
      "Ġraw": 4524,
      "ico": 4525,
      "Ġparticipation": 4526,
      "Ġdocuments": 4527,
      "Ġdist": 4528,
      "affili": 4529,
      "oot": 4530,
      "expense": 4531,
      "ĠYears": 4532,
      "ĠRegistered": 4533,
      "ummary": 4534,
      "Ġcalculation": 4535,
      "ĠAlso": 4536,
      "Ġdeter": 4537,
      "ĠStreet": 4538,
      "Ġproj": 4539,
      "Basic": 4540,
      "daq": 4541,
      "Ġfunded": 4542,
      "asdaq": 4543,
      "ependence": 4544,
      "egal": 4545,
      "Ġmonitoring": 4546,
      "eff": 4547,
      "Ġmeaning": 4548,
      "Ġhy": 4549,
      "Ġmodels": 4550,
      "Ġevery": 4551,
      "Ġstren": 4552,
      "ĠCustom": 4553,
      "ĠSignificant": 4554,
      "________________": 4555,
      "Ġowners": 4556,
      "overy": 4557,
      "Ġcore": 4558,
      "Ġ34": 4559,
      "Ġfocused": 4560,
      "pec": 4561,
      "Ġlicensing": 4562,
      "ATED": 4563,
      "ĠAb": 4564,
      "Ġallowances": 4565,
      "Ġwhat": 4566,
      "Ġmerch": 4567,
      "tities": 4568,
      "Ġfurn": 4569,
      "ĠWhen": 4570,
      "place": 4571,
      "Ġwide": 4572,
      "Ġattem": 4573,
      "Ġdiscounts": 4574,
      "Ġannounced": 4575,
      "GL": 4576,
      "Ġconsultants": 4577,
      "ecure": 4578,
      "ĠDisclosure": 4579,
      "mical": 4580,
      "ĠCenter": 4581,
      "uclear": 4582,
      "Ġultimate": 4583,
      "ĠFinance": 4584,
      "ĠDis": 4585,
      "ecrease": 4586,
      "ĠACT": 4587,
      "orter": 4588,
      "SS": 4589,
      "ider": 4590,
      "ĠIPO": 4591,
      "inating": 4592,
      "ĠCity": 4593,
      "Ġdistributors": 4594,
      "ĠDeferred": 4595,
      "Ġexplor": 4596,
      "ĠFiscal": 4597,
      "airment": 4598,
      "ĠPartner": 4599,
      "Ġtotaling": 4600,
      "Report": 4601,
      "700": 4602,
      "ĠCOMM": 4603,
      "Ġimplemented": 4604,
      "ĠBlack": 4605,
      "lowance": 4606,
      "uil": 4607,
      "ĠTreasury": 4608,
      "Ġletters": 4609,
      "vailable": 4610,
      "losure": 4611,
      "Ġguidelines": 4612,
      "Ġdrilling": 4613,
      "ĠMore": 4614,
      "ĠBo": 4615,
      "Dividend": 4616,
      "ENTS": 4617,
      "Ġreviews": 4618,
      "Ġultimately": 4619,
      "Qu": 4620,
      "Ġdeb": 4621,
      "Exerc": 4622,
      "ĠDistrib": 4623,
      "Ġmeans": 4624,
      "ĠExtension": 4625,
      "âĢĿ,": 4626,
      "Ġvehicles": 4627,
      "Ġcrude": 4628,
      "rank": 4629,
      "2013": 4630,
      "CAOB": 4631,
      "Ġforecas": 4632,
      "Ġalong": 4633,
      "ĠLease": 4634,
      "Ġcomplain": 4635,
      "itments": 4636,
      "Ġexist": 4637,
      "Ġassure": 4638,
      "Ġconverted": 4639,
      "Ġdefinition": 4640,
      "Ġinception": 4641,
      "Ġspending": 4642,
      "Ġwrite": 4643,
      "lies": 4644,
      "ĠNumber": 4645,
      "Ġspread": 4646,
      "oph": 4647,
      ");": 4648,
      "Ġair": 4649,
      "Ġcontinues": 4650,
      "ĠLouisiana": 4651,
      "Ġlater": 4652,
      "ASH": 4653,
      "Ġwhole": 4654,
      "ĠManager": 4655,
      "Ġaffiliate": 4656,
      "iscount": 4657,
      "ĠTechnology": 4658,
      "Ġpursue": 4659,
      "UT": 4660,
      "mark": 4661,
      "Ġfunctions": 4662,
      "vention": 4663,
      "EX": 4664,
      "junction": 4665,
      "Ġutility": 4666,
      "ĠIND": 4667,
      "ĠAdjusted": 4668,
      "earing": 4669,
      "Ġunpaid": 4670,
      "Ġmitig": 4671,
      "ĠCosts": 4672,
      "Ġleased": 4673,
      "OCK": 4674,
      "Ġwithdra": 4675,
      "Ġship": 4676,
      "PL": 4677,
      "income": 4678,
      "Ġshow": 4679,
      "portion": 4680,
      "Ġmand": 4681,
      "Ġrule": 4682,
      "ĠIndenture": 4683,
      "ols": 4684,
      "Ġsalary": 4685,
      "ounder": 4686,
      "AG": 4687,
      "ĠRights": 4688,
      "ĠAsset": 4689,
      "Ġpref": 4690,
      "Ġsquare": 4691,
      "Ġrepresenting": 4692,
      "Per": 4693,
      "04": 4694,
      "ĠDepartment": 4695,
      "Trans": 4696,
      "Ġcarried": 4697,
      "Share": 4698,
      "ĠStockholder": 4699,
      "Ġrapid": 4700,
      "Ġsti": 4701,
      "Ġcountry": 4702,
      "Ġimpacts": 4703,
      "endar": 4704,
      "Ġaffecting": 4705,
      "Ġsecre": 4706,
      "Ġlack": 4707,
      "ainti": 4708,
      "Ġbankruptcy": 4709,
      "Ġhedges": 4710,
      "CHANGE": 4711,
      "ĠRestricted": 4712,
      "reen": 4713,
      "Ġed": 4714,
      "Ġearlier": 4715,
      "Investment": 4716,
      "ĠPark": 4717,
      "SA": 4718,
      "Ġemissions": 4719,
      "Ġstep": 4720,
      "Ġworldwide": 4721,
      "ĠTrustee": 4722,
      "az": 4723,
      "ĠReal": 4724,
      "cements": 4725,
      "Ġvalid": 4726,
      "ached": 4727,
      "ĠOwnership": 4728,
      "aily": 4729,
      "Ġshown": 4730,
      "Goodwill": 4731,
      "Serv": 4732,
      "ERT": 4733,
      "Ġrepayment": 4734,
      "Ġremo": 4735,
      "onomy": 4736,
      "Ġprofits": 4737,
      "Ġfines": 4738,
      "ĠMaster": 4739,
      "day": 4740,
      "thics": 4741,
      "TR": 4742,
      "Ġconjunction": 4743,
      "Ġrepay": 4744,
      "ĠShareholders": 4745,
      "ĠInstruments": 4746,
      "Ġowns": 4747,
      "Ġlose": 4748,
      "Bank": 4749,
      "ĠGener": 4750,
      "Ġneeded": 4751,
      "Ġshorter": 4752,
      "Ġmix": 4753,
      "Ġleading": 4754,
      "Ġprojections": 4755,
      "ĠDue": 4756,
      "Ġdollars": 4757,
      "Ġvehicle": 4758,
      "Ġseries": 4759,
      "ille": 4760,
      "Ġmaintained": 4761,
      "Ġinstrument": 4762,
      "qualified": 4763,
      "Ġconst": 4764,
      "Ġconcerning": 4765,
      "adian": 4766,
      "Ġpermits": 4767,
      "Ġcenters": 4768,
      "ural": 4769,
      "Ġk": 4770,
      "ortized": 4771,
      "Ġconsiders": 4772,
      "uration": 4773,
      "Ġassessing": 4774,
      "agnos": 4775,
      "120": 4776,
      "dom": 4777,
      "Ġpreclinical": 4778,
      "Ġsecure": 4779,
      "Ġexpects": 4780,
      "Ġnoncontrolling": 4781,
      "Ġasp": 4782,
      "ĠEQUITY": 4783,
      "Ġonline": 4784,
      "Ġparticipate": 4785,
      "HOLD": 4786,
      "tity": 4787,
      "Ġcontribution": 4788,
      "No": 4789,
      "Ġelection": 4790,
      "Ġview": 4791,
      "lean": 4792,
      "Ġcrim": 4793,
      "Ġreductions": 4794,
      "Ġprospective": 4795,
      "Ġmobile": 4796,
      "Ġ2004": 4797,
      "ĠEXCHANGE": 4798,
      "au": 4799,
      "Ġvir": 4800,
      "Ġequivalent": 4801,
      "Ġcomputed": 4802,
      "Ġdivid": 4803,
      "ĠPerformance": 4804,
      "Ġcalendar": 4805,
      "Ġdisruptions": 4806,
      "ulations": 4807,
      "Notes": 4808,
      "Ġmanaging": 4809,
      "ĠPat": 4810,
      "ĠTherefore": 4811,
      "ann": 4812,
      "iliation": 4813,
      "Ġscheduled": 4814,
      "Ġindefinite": 4815,
      "Ġdelivered": 4816,
      "Ġseeking": 4817,
      "Ġprovider": 4818,
      "This": 4819,
      "Ġsubsequently": 4820,
      "ĠFirm": 4821,
      "AV": 4822,
      "Ġplanned": 4823,
      "echan": 4824,
      "ĠTransaction": 4825,
      "Ġrestaur": 4826,
      "Ġannum": 4827,
      "ĠCount": 4828,
      "Ġrespond": 4829,
      "Ġminim": 4830,
      "ĠDISC": 4831,
      "Ġgeographic": 4832,
      "ustod": 4833,
      "bersecurity": 4834,
      "ression": 4835,
      "Ġ405": 4836,
      "ĠDu": 4837,
      "Ġutilized": 4838,
      "Ġreinsurance": 4839,
      "ticles": 4840,
      "investment": 4841,
      "Ġrecoverable": 4842,
      "ĠRet": 4843,
      "ĠPeriod": 4844,
      "arial": 4845,
      "Ġbegan": 4846,
      "Ġsubmit": 4847,
      "Ġhot": 4848,
      "ATIONS": 4849,
      "Ġtranslation": 4850,
      "Chief": 4851,
      "free": 4852,
      "ĠBas": 4853,
      "Ġpolitical": 4854,
      "fers": 4855,
      "122": 4856,
      "New": 4857,
      "ĠREL": 4858,
      "Ġreviewed": 4859,
      "ilit": 4860,
      "Ġwholes": 4861,
      "Ġwells": 4862,
      "Ġtreated": 4863,
      "ĠExpenses": 4864,
      "ĠAgreements": 4865,
      "arning": 4866,
      "Ġz": 4867,
      "Ġdetermines": 4868,
      "umb": 4869,
      "Ġinvolving": 4870,
      "ĠProt": 4871,
      "realized": 4872,
      "Ġweather": 4873,
      "Ġhazard": 4874,
      "Ġconsequences": 4875,
      "ĠEstate": 4876,
      "ĠMex": 4877,
      "Outstanding": 4878,
      "emptions": 4879,
      "Ġcho": 4880,
      "known": 4881,
      "such": 4882,
      "Ġborrowers": 4883,
      "Ġinflation": 4884,
      "Ġproble": 4885,
      "ĠBanc": 4886,
      "Ġplanning": 4887,
      "Ġupdate": 4888,
      "tified": 4889,
      "eting": 4890,
      "DC": 4891,
      "erivative": 4892,
      "Ġcriminal": 4893,
      "ĠSch": 4894,
      "ĠNasdaq": 4895,
      "ĠMar": 4896,
      "ligations": 4897,
      "son": 4898,
      "Ġsect": 4899,
      "uish": 4900,
      "Ġenable": 4901,
      "Ġattrac": 4902,
      "forming": 4903,
      "Ġclient": 4904,
      "ero": 4905,
      "ĠMs": 4906,
      "Ġcyc": 4907,
      "Ġoffered": 4908,
      "quired": 4909,
      "afety": 4910,
      "Ġengineering": 4911,
      "ĠProperties": 4912,
      "ĠSECURITIES": 4913,
      "Ġlabel": 4914,
      "Ġcategory": 4915,
      "avorable": 4916,
      "Ġcharter": 4917,
      "cif": 4918,
      "Ġrelate": 4919,
      "Ġexpertise": 4920,
      "Ġrecognizes": 4921,
      "ĠPen": 4922,
      "Ġinterru": 4923,
      "ek": 4924,
      "Ġserves": 4925,
      "FORM": 4926,
      "Ġfind": 4927,
      "Ġoperated": 4928,
      "kes": 4929,
      "Ġconsisting": 4930,
      "Ġcertificate": 4931,
      "ames": 4932,
      "Ġratings": 4933,
      "Ġclassification": 4934,
      "ĠOR": 4935,
      "Ġusers": 4936,
      "Ġfeatures": 4937,
      "ĠTaxonomy": 4938,
      "Ġexposed": 4939,
      "ĠSpecial": 4940,
      "Ġregional": 4941,
      "Ġunauthorized": 4942,
      "ĠMeasure": 4943,
      "eri": 4944,
      "Ġ/": 4945,
      "Ġelse": 4946,
      "Ġhospital": 4947,
      "Ġtechniqu": 4948,
      "Ġselected": 4949,
      "ĠMark": 4950,
      "----": 4951,
      "evada": 4952,
      "imp": 4953,
      "backed": 4954,
      "Ġthreat": 4955,
      "Ġmo": 4956,
      "ĠSecured": 4957,
      "ĠFDIC": 4958,
      "ailure": 4959,
      "Ġlimitation": 4960,
      "Ġlarger": 4961,
      "Ġaffiliated": 4962,
      "Ġcollaboration": 4963,
      "Ġdeterior": 4964,
      "Ġprevious": 4965,
      "Ġdefer": 4966,
      "ĠBro": 4967,
      "anufact": 4968,
      "etition": 4969,
      "ENS": 4970,
      "Ġacceptance": 4971,
      "encing": 4972,
      "Ġcommunity": 4973,
      "etro": 4974,
      "Certification": 4975,
      "ĠEstim": 4976,
      "ulf": 4977,
      "asons": 4978,
      "ĠBe": 4979,
      "quire": 4980,
      "Ġsupplies": 4981,
      "Ġprogress": 4982,
      "110": 4983,
      "cien": 4984,
      "Ġincorporation": 4985,
      "ridge": 4986,
      "iting": 4987,
      "ĠVIE": 4988,
      "Ġestablishing": 4989,
      "Ġdefinitive": 4990,
      "%)": 4991,
      "Ġconsent": 4992,
      "Ġarise": 4993,
      "ĠSTOCK": 4994,
      "ĠLicense": 4995,
      "ĠReceiv": 4996,
      "Amendment": 4997,
      "spec": 4998,
      "Ġlaun": 4999,
      "anticip": 5000,
      "ĠCommercial": 5001,
      "900": 5002,
      "Des": 5003,
      "base": 5004,
      "Ġcoal": 5005,
      "ĠPUR": 5006,
      "ĠPRO": 5007,
      "ĠÂ": 5008,
      "inn": 5009,
      "business": 5010,
      "ĠFERC": 5011,
      "Ġbrands": 5012,
      "Name": 5013,
      "Corporate": 5014,
      "quidity": 5015,
      "Ġelsewhere": 5016,
      "iable": 5017,
      "Ġchallenges": 5018,
      "ĠUnion": 5019,
      "ĠSolutions": 5020,
      "Ġwhose": 5021,
      "Ġupd": 5022,
      "benefit": 5023,
      "ĠAward": 5024,
      "ousing": 5025,
      "ancy": 5026,
      "ires": 5027,
      "unded": 5028,
      "airs": 5029,
      "Ġframework": 5030,
      "03": 5031,
      "Ġrestrict": 5032,
      "Ġimposed": 5033,
      "Ġtenant": 5034,
      "Ġadvanced": 5035,
      "urrencies": 5036,
      "Ġregulators": 5037,
      "Ġtravel": 5038,
      "Ġcode": 5039,
      "aining": 5040,
      "ĠOffice": 5041,
      "losses": 5042,
      "lock": 5043,
      "elling": 5044,
      "ĠPolicies": 5045,
      "shares": 5046,
      "Ġtrademarks": 5047,
      "RES": 5048,
      "Ġexpensed": 5049,
      "Ġindirectly": 5050,
      "Ġgenerating": 5051,
      "ger": 5052,
      "have": 5053,
      "Ġdu": 5054,
      "Ġretained": 5055,
      "Ġoccurs": 5056,
      "Ġfranchise": 5057,
      "Ġtraining": 5058,
      "March": 5059,
      "Ġfood": 5060,
      "NA": 5061,
      "ĠSubsidi": 5062,
      "Ġattention": 5063,
      "Ġreliability": 5064,
      "Ġabs": 5065,
      "Ġtargets": 5066,
      "ĠSupplementary": 5067,
      "Pri": 5068,
      "Ġrealize": 5069,
      "Ġsecuritiz": 5070,
      "Ġconformity": 5071,
      "Ġtrustee": 5072,
      "Ġyour": 5073,
      "Ġchanging": 5074,
      "ĠLife": 5075,
      "Ġcancer": 5076,
      "Ġconsolidation": 5077,
      "Ġpop": 5078,
      "ludes": 5079,
      "Ġdaily": 5080,
      "Ġrespects": 5081,
      "Acquisition": 5082,
      "ollars": 5083,
      "Ġsettled": 5084,
      "Compensation": 5085,
      "Ġgoals": 5086,
      "ĠEPA": 5087,
      "Ġexploration": 5088,
      "Ġhistory": 5089,
      "Ġsan": 5090,
      "ĠSince": 5091,
      "Topic": 5092,
      "TS": 5093,
      "Ġtherapeu": 5094,
      "cost": 5095,
      "Ġne": 5096,
      "Regist": 5097,
      "Ġschedule": 5098,
      "ĠRed": 5099,
      "hood": 5100,
      "Federal": 5101,
      "oresee": 5102,
      "ceptions": 5103,
      "Ġcounterparties": 5104,
      "ental": 5105,
      "Ġprincipally": 5106,
      "XBRL": 5107,
      "Ġwithdraw": 5108,
      "Ġadvisory": 5109,
      "maller": 5110,
      "MB": 5111,
      "Ġincremental": 5112,
      "vironmental": 5113,
      "issu": 5114,
      "Ġintegral": 5115,
      "ĠPortfolio": 5116,
      "ibles": 5117,
      "onoun": 5118,
      "Ġfeet": 5119,
      "Ġremediation": 5120,
      "LL": 5121,
      "These": 5122,
      "102": 5123,
      "ĠProcedures": 5124,
      "ĠMiss": 5125,
      "Ġreclassified": 5126,
      "Ġeconomy": 5127,
      "idents": 5128,
      "Ġpromotion": 5129,
      "Ġaspects": 5130,
      "unications": 5131,
      "Ġcostly": 5132,
      "........": 5133,
      "Ġmanager": 5134,
      "ĠAN": 5135,
      "iciencies": 5136,
      "Ġintegr": 5137,
      "Ġstruct": 5138,
      "ansas": 5139,
      "Ġattractive": 5140,
      "Ġoccup": 5141,
      "bank": 5142,
      "Ġthousand": 5143,
      "Ġinitially": 5144,
      "Ġidentical": 5145,
      "Ġlight": 5146,
      "Ġher": 5147,
      "ĠCounty": 5148,
      "Ġmechan": 5149,
      "Ġalthough": 5150,
      "dered": 5151,
      "ĠLink": 5152,
      "\"),": 5153,
      "Ġlocation": 5154,
      "angibles": 5155,
      "Ġundert": 5156,
      "CONSOLIDATED": 5157,
      "egrated": 5158,
      "ĠFHL": 5159,
      "Ġindemnification": 5160,
      "Ġduties": 5161,
      "lands": 5162,
      "bo": 5163,
      "echnologies": 5164,
      "Ġoccurrence": 5165,
      "Ġrelease": 5166,
      "Ġtenants": 5167,
      "Ġexamination": 5168,
      "ida": 5169,
      "Ġinsp": 5170,
      "Ġexists": 5171,
      "ĠVir": 5172,
      "Ġactu": 5173,
      "Addition": 5174,
      "Sales": 5175,
      "ĠSan": 5176,
      "Ġerror": 5177,
      "105": 5178,
      "Research": 5179,
      "ĠMoreover": 5180,
      "capital": 5181,
      "ĠUpon": 5182,
      "Ġlawsuits": 5183,
      "104": 5184,
      "Ġbetter": 5185,
      "Ġshi": 5186,
      "UC": 5187,
      "Ġforesee": 5188,
      "ĠBeneficial": 5189,
      "van": 5190,
      "ĠAdvisor": 5191,
      "ĠRevolving": 5192,
      "Ġindex": 5193,
      "Ġreasons": 5194,
      "Ġphysical": 5195,
      "Contract": 5196,
      "Ġintegration": 5197,
      "Ġinvolves": 5198,
      "Ġforms": 5199,
      "Ġnow": 5200,
      "DAQ": 5201,
      "Ġoperates": 5202,
      "Amended": 5203,
      "Ġissuing": 5204,
      "Ġ+": 5205,
      "reshold": 5206,
      "Ġassessments": 5207,
      "Ġinsured": 5208,
      "Ġthereof": 5209,
      "ximately": 5210,
      "ASDAQ": 5211,
      "yees": 5212,
      "ĠRSUs": 5213,
      "ĠCEO": 5214,
      "ĠElectric": 5215,
      "Ġadministration": 5216,
      "Ġpaying": 5217,
      "Restricted": 5218,
      "Ġagents": 5219,
      "Ġcurrencies": 5220,
      "Ġenterprise": 5221,
      "eterm": 5222,
      "ligh": 5223,
      "ĠHome": 5224,
      "Ġreducing": 5225,
      "Ġsyn": 5226,
      "ĠIssuer": 5227,
      "Ġfamily": 5228,
      "adequ": 5229,
      "âĢł": 5230,
      "ĠREPORT": 5231,
      "Ġmort": 5232,
      "ĠCOMP": 5233,
      "Ġmarketable": 5234,
      "Ġchain": 5235,
      "def": 5236,
      "ĠCA": 5237,
      "Risks": 5238,
      "Ġclosed": 5239,
      "Expected": 5240,
      "ANS": 5241,
      "ĠSU": 5242,
      "Ġparts": 5243,
      "certain": 5244,
      "ĠCompanies": 5245,
      "usion": 5246,
      "Ġfilings": 5247,
      "product": 5248,
      "ead": 5249,
      "Ġsuffer": 5250,
      "Ġduration": 5251,
      "ĠES": 5252,
      "ashington": 5253,
      "Ġdistribute": 5254,
      "ĠSheet": 5255,
      "107": 5256,
      "Ġdecreases": 5257,
      "TM": 5258,
      "odd": 5259,
      "Ġdisruption": 5260,
      "ĠSafety": 5261,
      "Ġelectricity": 5262,
      "Ġwholesale": 5263,
      "Ġmineral": 5264,
      "ĠMedicaid": 5265,
      "Additional": 5266,
      "erce": 5267,
      "Assets": 5268,
      "Ġcharacteristics": 5269,
      "Ġassessed": 5270,
      "ott": 5271,
      "lorida": 5272,
      "TOR": 5273,
      "Ġdoubtful": 5274,
      "ĠCanadian": 5275,
      "Ġbar": 5276,
      "Ġnetworks": 5277,
      "Ġsolely": 5278,
      "Ġgovernance": 5279,
      "ominated": 5280,
      "ĠParticip": 5281,
      "like": 5282,
      "ĠExpense": 5283,
      "quiring": 5284,
      "ITION": 5285,
      "Wh": 5286,
      "Ġforeseeable": 5287,
      "ĠFunds": 5288,
      "Ġcybersecurity": 5289,
      "cluding": 5290,
      "Ġbreaches": 5291,
      "ĠNevada": 5292,
      "Ġfoot": 5293,
      "Ġpostretirement": 5294,
      "ĠGe": 5295,
      "estation": 5296,
      "Ġcommence": 5297,
      "103": 5298,
      "tile": 5299,
      "inning": 5300,
      "Second": 5301,
      "Ġfairly": 5302,
      "Ġcomplaint": 5303,
      "outhern": 5304,
      "Ġexting": 5305,
      "Ġefficacy": 5306,
      "Ġbl": 5307,
      "ĠIncorporation": 5308,
      "549": 5309,
      "Invent": 5310,
      "Credit": 5311,
      "Ġmid": 5312,
      "ĠACCOUNTING": 5313,
      "ĠProtection": 5314,
      "Ġmitigate": 5315,
      "ĠFramework": 5316,
      "Ġexcluded": 5317,
      "Ġresolution": 5318,
      "down": 5319,
      "Ġstage": 5320,
      "350": 5321,
      "Ġproduc": 5322,
      "cientific": 5323,
      "Ġletter": 5324,
      "ĠNDA": 5325,
      "Ġoptim": 5326,
      "Ġjo": 5327,
      "Off": 5328,
      "375": 5329,
      "Ġlo": 5330,
      "Ġqualitative": 5331,
      "Ġself": 5332,
      "Ġobligated": 5333,
      "ront": 5334,
      "Ġ2025": 5335,
      "Provision": 5336,
      "ircraft": 5337,
      "Ġinfringement": 5338,
      "Frank": 5339,
      "ona": 5340,
      "Ġrevers": 5341,
      "Part": 5342,
      "Ġfutures": 5343,
      "Ġflex": 5344,
      "108": 5345,
      "Ġunderstanding": 5346,
      "Ġsubordinated": 5347,
      "Ġmedia": 5348,
      "Ġplants": 5349,
      "Ġsocial": 5350,
      "ĠLinkbase": 5351,
      "iced": 5352,
      "ĠRef": 5353,
      "Ġforegoing": 5354,
      "Ġguarantees": 5355,
      "Ġreplacement": 5356,
      "Ġrecurring": 5357,
      "Ġcells": 5358,
      "Ġ80": 5359,
      "Ġthereafter": 5360,
      "ĠMc": 5361,
      "Ġventures": 5362,
      "Ġguaranteed": 5363,
      "phone": 5364,
      "Ġchanged": 5365,
      "Ġplaced": 5366,
      "ma": 5367,
      "ĠKing": 5368,
      "115": 5369,
      "405": 5370,
      "ields": 5371,
      "Ġreceipt": 5372,
      "Ġdism": 5373,
      "Ġrecommend": 5374,
      "ford": 5375,
      "ĠEquipment": 5376,
      "Ġsummarized": 5377,
      "ĠCoun": 5378,
      "offs": 5379,
      "yer": 5380,
      "Ġfavor": 5381,
      "Ġmanufacturer": 5382,
      "Ġperiodically": 5383,
      "Ġfrequent": 5384,
      "Ġredeemable": 5385,
      "Ġcounterparty": 5386,
      "Ġduly": 5387,
      "ETS": 5388,
      "Ġtherapy": 5389,
      "ĠContracts": 5390,
      "ĠDef": 5391,
      "Ġmove": 5392,
      "effective": 5393,
      "ength": 5394,
      "Ġfinan": 5395,
      "Ġemb": 5396,
      "Ġvers": 5397,
      "uts": 5398,
      "Ġdilutive": 5399,
      "Ġexpensive": 5400,
      "ĠSystems": 5401,
      "ĠSome": 5402,
      "Ġcategories": 5403,
      "Ġcustomary": 5404,
      "\").": 5405,
      "Ġmedic": 5406,
      "ĠDuke": 5407,
      "Class": 5408,
      "Ġholds": 5409,
      "333": 5410,
      "manent": 5411,
      "Ġdiagnos": 5412,
      "lihood": 5413,
      "ĠInternet": 5414,
      "ĠSecre": 5415,
      "Ġbecomes": 5416,
      "Ġstill": 5417,
      "ested": 5418,
      "114": 5419,
      "amortized": 5420,
      "Ġtreasury": 5421,
      "itholders": 5422,
      "Ġtechniques": 5423,
      "ationships": 5424,
      "Ġwarranty": 5425,
      "ĠHolding": 5426,
      "Issuance": 5427,
      "Ġseparately": 5428,
      "ASC": 5429,
      "ĠAdministration": 5430,
      "Ġfew": 5431,
      "Ġsafe": 5432,
      "Ġexecute": 5433,
      "Ġdifficulties": 5434,
      "lif": 5435,
      "Ġdelin": 5436,
      "Ġachieved": 5437,
      "Ġaccurately": 5438,
      "ĠREG": 5439,
      "Ġreplace": 5440,
      "ĠUtility": 5441,
      "Ġoffers": 5442,
      "Ġconsummation": 5443,
      "Ġchief": 5444,
      "Ġintegrated": 5445,
      "Ġcommitted": 5446,
      "ĠINC": 5447,
      "ĠCF": 5448,
      "Ġreportable": 5449,
      "Ġthreshold": 5450,
      "performing": 5451,
      "omic": 5452,
      "Ġpractice": 5453,
      "Ġrenewal": 5454,
      "Ġefficient": 5455,
      "112": 5456,
      "Ġinfluence": 5457,
      "Ġproceeding": 5458,
      "vo": 5459,
      "Ġcommercially": 5460,
      "Ġincen": 5461,
      "ustodian": 5462,
      "Ġpromissory": 5463,
      "uci": 5464,
      "ĠOPER": 5465,
      "collectively": 5466,
      "Gain": 5467,
      "Ġdeficit": 5468,
      "ASU": 5469,
      "Ġmut": 5470,
      "ĠPacif": 5471,
      "ique": 5472,
      "Ġlikelihood": 5473,
      "109": 5474,
      "aming": 5475,
      "Sh": 5476,
      "Ġrefund": 5477,
      "ios": 5478,
      "Ġefficiency": 5479,
      "ĠFinancing": 5480,
      "ĠEU": 5481,
      "ertificates": 5482,
      "justments": 5483,
      "Ġspecifically": 5484,
      "ĠSw": 5485,
      "PM": 5486,
      "ticals": 5487,
      "imilar": 5488,
      "Ġalleged": 5489,
      "Ġeduc": 5490,
      "ceedings": 5491,
      "ĠRules": 5492,
      "Ġcyber": 5493,
      "Ġcomputer": 5494,
      "lit": 5495,
      "Ġunobservable": 5496,
      "Cons": 5497,
      "onouncements": 5498,
      "rig": 5499,
      "Ġdistributed": 5500,
      "reme": 5501,
      "Director": 5502,
      "Ġpermanent": 5503,
      "II": 5504,
      "ĠMedical": 5505,
      "nab": 5506,
      "Date": 5507,
      "Ġrather": 5508,
      "Ġcenter": 5509,
      "Amount": 5510,
      "Ġconflicts": 5511,
      "ĠCare": 5512,
      "Ġcat": 5513,
      "Ġtables": 5514,
      "Ġforce": 5515,
      "agers": 5516,
      "ny": 5517,
      "has": 5518,
      "Sch": 5519,
      "Ġratios": 5520,
      "tify": 5521,
      "106": 5522,
      "ĠMexico": 5523,
      "Ġthereby": 5524,
      "Ġhazardous": 5525,
      "Ġcontributed": 5526,
      "Ret": 5527,
      "Ġnuclear": 5528,
      "ĠMeeting": 5529,
      "ump": 5530,
      "aci": 5531,
      "aims": 5532,
      "Ġcontrolled": 5533,
      "head": 5534,
      "ĠFOR": 5535,
      "Ġlisting": 5536,
      "Ġstand": 5537,
      "ĠâĺĴ": 5538,
      "Ġapprove": 5539,
      "ognition": 5540,
      "sequently": 5541,
      "rought": 5542,
      "Because": 5543,
      "Ġtraditional": 5544,
      "Ġcease": 5545,
      "Ġremed": 5546,
      "Ġhistorically": 5547,
      "ople": 5548,
      "Ġproblems": 5549,
      "LA": 5550,
      "Ġintern": 5551,
      "ĠColl": 5552,
      "ches": 5553,
      "log": 5554,
      "ĠIncorporated": 5555,
      "Loans": 5556,
      "BA": 5557,
      "Ġmakes": 5558,
      "akes": 5559,
      "Ġplainti": 5560,
      "Ġviolation": 5561,
      "ĠTechnologies": 5562,
      "Ġver": 5563,
      "Ġextinguish": 5564,
      "Ġprohib": 5565,
      "accru": 5566,
      "AF": 5567,
      "ĠPlacement": 5568,
      "ĠLaw": 5569,
      "Ġtechnological": 5570,
      "Ġunfavorable": 5571,
      "iduci": 5572,
      "ĠChange": 5573,
      "resentation": 5574,
      "ĠFlorida": 5575,
      "PR": 5576,
      "rect": 5577,
      "Ġpurchas": 5578,
      "contract": 5579,
      "Ġsanctions": 5580,
      "Ġequ": 5581,
      "Ġrelates": 5582,
      "ĠAwards": 5583,
      "LE": 5584,
      "111": 5585,
      "130": 5586,
      "ĠNetwork": 5587,
      "Ġparticipant": 5588,
      "140": 5589,
      "icially": 5590,
      "Ġway": 5591,
      "Ġpayors": 5592,
      "ercent": 5593,
      "Ġcancell": 5594,
      "Purchase": 5595,
      "Ġidentifiable": 5596,
      "erivatives": 5597,
      "Ġretrosp": 5598,
      "imate": 5599,
      "Commercial": 5600,
      "ĠEng": 5601,
      "ĠProject": 5602,
      "ANCE": 5603,
      "Ġproduced": 5604,
      "113": 5605,
      "ĠSummary": 5606,
      "ĠTR": 5607,
      "123": 5608,
      "ĠAust": 5609,
      "bearing": 5610,
      "ĠIT": 5611,
      "Ġrelatively": 5612,
      "Ġauthorization": 5613,
      "Ġ2003": 5614,
      "owns": 5615,
      "Ġmisstatement": 5616,
      "Ġinsure": 5617,
      "Ġmilestone": 5618,
      "Ġimprovement": 5619,
      "Over": 5620,
      "117": 5621,
      "Ġexceptions": 5622,
      "Ġweek": 5623,
      "Ġroyalties": 5624,
      "Ġaround": 5625,
      "ĠOp": 5626,
      "June": 5627,
      "ifies": 5628,
      "vid": 5629,
      "175": 5630,
      "Ġcommunications": 5631,
      "September": 5632,
      "ĠRELATED": 5633,
      "Ġbring": 5634,
      "Americ": 5635,
      "Ġobjective": 5636,
      "Ġcollected": 5637,
      "Ġmining": 5638,
      "eginning": 5639,
      "Ġachievement": 5640,
      "ience": 5641,
      "Ġreconciliation": 5642,
      "uty": 5643,
      "116": 5644,
      "Senior": 5645,
      "Ġcovering": 5646,
      "des": 5647,
      "Ġexhibit": 5648,
      "Ġcreated": 5649,
      "rue": 5650,
      "icro": 5651,
      "Ġimproved": 5652,
      "Ġviolations": 5653,
      "ĠCom": 5654,
      "ological": 5655,
      "Ġranging": 5656,
      "Ġoversight": 5657,
      "trans": 5658,
      "Ġadded": 5659,
      "ointed": 5660,
      "Ġwhom": 5661,
      "Earnings": 5662,
      "Ġreverse": 5663,
      "2021": 5664,
      "estim": 5665,
      "ody": 5666,
      "ĠEmployee": 5667,
      "adequate": 5668,
      "Ġ75": 5669,
      "ĠSegment": 5670,
      "Ġactuarial": 5671,
      "ĠCompliance": 5672,
      "Ġfulf": 5673,
      "Ġmeasurements": 5674,
      "Diluted": 5675,
      "inally": 5676,
      "ohn": 5677,
      "Ġcontractors": 5678,
      "rations": 5679,
      "Ġnoted": 5680,
      "Ġlegisl": 5681,
      "ox": 5682,
      "Ġrendered": 5683,
      "Ġscale": 5684,
      "IGN": 5685,
      "Ġimplementing": 5686,
      "ĠResearch": 5687,
      "iduciary": 5688,
      "ĠTier": 5689,
      "ĠOptions": 5690,
      "Ġphysicians": 5691,
      "hap": 5692,
      "Ġremains": 5693,
      "TI": 5694,
      "ĠSecond": 5695,
      "Ġstart": 5696,
      "COME": 5697,
      "uctible": 5698,
      "Ġautomatic": 5699,
      "Ġcloud": 5700,
      "121": 5701,
      "Ġgroups": 5702,
      "aturity": 5703,
      "Commission": 5704,
      ".âĢĻ": 5705,
      "Ġesc": 5706,
      "ĠPRC": 5707,
      "balance": 5708,
      "Ġhard": 5709,
      "UAL": 5710,
      "atis": 5711,
      "ĠCD": 5712,
      "Ġpartnerships": 5713,
      "Ġpaper": 5714,
      "value": 5715,
      "ville": 5716,
      "period": 5717,
      "fully": 5718,
      "Le": 5719,
      "Ġassigned": 5720,
      "ĠPCAOB": 5721,
      "Ġclasses": 5722,
      "LOSU": 5723,
      "625": 5724,
      "Ġaircraft": 5725,
      "iscounted": 5726,
      "Ġmotion": 5727,
      "ĠGuarant": 5728,
      "127": 5729,
      "Ġpriority": 5730,
      "Ġparticipating": 5731,
      "Ġreleased": 5732,
      "Ġcopy": 5733,
      "Ġvolun": 5734,
      "ĠProceedings": 5735,
      "SR": 5736,
      "Ġproportion": 5737,
      "oses": 5738,
      "Ġattempt": 5739,
      "ĠOversight": 5740,
      "share": 5741,
      "Ġanalyst": 5742,
      "Ph": 5743,
      "Ġmaintains": 5744,
      "Ġidentifying": 5745,
      "ĠPay": 5746,
      "rator": 5747,
      "otive": 5748,
      "Ġgene": 5749,
      "ĠSTOCKHOLD": 5750,
      "ĠSchedules": 5751,
      "alse": 5752,
      "deal": 5753,
      "ĠAverage": 5754,
      "Ġ120": 5755,
      "Ġsustained": 5756,
      "Effective": 5757,
      "onduct": 5758,
      "ĠServicing": 5759,
      "edded": 5760,
      "ĠConsumer": 5761,
      "ĠSecretary": 5762,
      "Ġplatforms": 5763,
      "armaceuticals": 5764,
      "Dividends": 5765,
      "oming": 5766,
      "Ġlender": 5767,
      "Ġmonetary": 5768,
      "ĠRo": 5769,
      "alls": 5770,
      "ĠServicer": 5771,
      "Ġprofessionals": 5772,
      "oma": 5773,
      "119": 5774,
      "Ġmodification": 5775,
      "through": 5776,
      "ĠWater": 5777,
      "agreements": 5778,
      "Ġfacts": 5779,
      "ĠAppro": 5780,
      "Ġacceler": 5781,
      "118": 5782,
      "Ġincentives": 5783,
      "160": 5784,
      "Ġsubscription": 5785,
      "Supp": 5786,
      "Lease": 5787,
      "Mr": 5788,
      "Ġprohibit": 5789,
      "Ġexpressed": 5790,
      "organization": 5791,
      "Debt": 5792,
      "ĠCustomers": 5793,
      "War": 5794,
      "Ġfiles": 5795,
      "odities": 5796,
      "Ġsecrets": 5797,
      "non": 5798,
      "Rel": 5799,
      "dle": 5800,
      "ĠClo": 5801,
      "Ġexecuted": 5802,
      "Scholes": 5803,
      "Ġgive": 5804,
      "Ġcompens": 5805,
      "Ġproved": 5806,
      "Ġreb": 5807,
      "Ġ606": 5808,
      "Ġadopt": 5809,
      "ĠAsia": 5810,
      "ader": 5811,
      "Ġindications": 5812,
      "Recent": 5813,
      "Ġbrought": 5814,
      "Increase": 5815,
      "Ġtargeted": 5816,
      "Ġbid": 5817,
      "ĠRegulatory": 5818,
      "Ġtop": 5819,
      "ĠDistribution": 5820,
      "FS": 5821,
      "DE": 5822,
      "ĠDepos": 5823,
      "Ġelectronic": 5824,
      "135": 5825,
      "stream": 5826,
      "ĠBancorp": 5827,
      "tilities": 5828,
      "ĠPN": 5829,
      "inding": 5830,
      "Ġtherapeutic": 5831,
      "2014": 5832,
      "Ġregularly": 5833,
      "accrual": 5834,
      "2015": 5835,
      "hio": 5836,
      "ĠThose": 5837,
      "ave": 5838,
      "Ġtender": 5839,
      "Ġlength": 5840,
      "Ġquarters": 5841,
      "Ġsatisfied": 5842,
      "ĠProf": 5843,
      "loy": 5844,
      "Ġdetect": 5845,
      "180": 5846,
      "Ġmethodology": 5847,
      "Ġ32": 5848,
      "Ġissuances": 5849,
      "Ġanalyz": 5850,
      "Ġx": 5851,
      "Mortgage": 5852,
      "Ġacquiring": 5853,
      "udited": 5854,
      "ĠEthics": 5855,
      "Ġtangible": 5856,
      "Ġincl": 5857,
      "laws": 5858,
      "Ġsit": 5859,
      "Ġ99": 5860,
      "ĠSel": 5861,
      "ĠDodd": 5862,
      "Ġpurchasing": 5863,
      "Ġbear": 5864,
      "Ġretention": 5865,
      "Ġcommunities": 5866,
      "Ġappointed": 5867,
      "Comprehensive": 5868,
      "Ġfiduciary": 5869,
      "ounter": 5870,
      "ĠNASDAQ": 5871,
      "pay": 5872,
      "Preferred": 5873,
      "Ġnames": 5874,
      "Ġ500": 5875,
      "ĠLosses": 5876,
      "Description": 5877,
      "DR": 5878,
      "Ġfluctuate": 5879,
      "ĠDrug": 5880,
      "Ġprepayment": 5881,
      "ARY": 5882,
      "Ġextinguishment": 5883,
      "nabis": 5884,
      "stance": 5885,
      "Ġvac": 5886,
      "ĠSup": 5887,
      "ymb": 5888,
      "Ġchemical": 5889,
      "Ġspons": 5890,
      "Ġstrength": 5891,
      "urg": 5892,
      "2020": 5893,
      "875": 5894,
      "ĠControls": 5895,
      "Ġfield": 5896,
      "Third": 5897,
      "ĠDISCLOSU": 5898,
      "ĠAdministrative": 5899,
      "ĠSECTION": 5900,
      "Ġage": 5901,
      "126": 5902,
      "Ġ45": 5903,
      "SION": 5904,
      "Ġ36": 5905,
      "ĠGold": 5906,
      "ĠAdditional": 5907,
      "regist": 5908,
      "etter": 5909,
      "Ġrepurchased": 5910,
      "Audit": 5911,
      "Ġdra": 5912,
      "ĠSupplemental": 5913,
      "Ġadequately": 5914,
      "Ġprepaid": 5915,
      "ĠRelationships": 5916,
      "Ġrepaid": 5917,
      "UM": 5918,
      "Ġ[": 5919,
      "LI": 5920,
      "Ġprevail": 5921,
      "Ġrepurchases": 5922,
      "App": 5923,
      "URES": 5924,
      "Ġchannels": 5925,
      "Ġow": 5926,
      "Ġexport": 5927,
      "ĠUSA": 5928,
      "Ġtherapies": 5929,
      "128": 5930,
      "ĠConting": 5931,
      "ĠMany": 5932,
      "olum": 5933,
      "Ġvess": 5934,
      "Ġfacilit": 5935,
      "Ġlargely": 5936,
      "ĠTrading": 5937,
      "ĠKingdom": 5938,
      "ĠEast": 5939,
      "ĠEmployment": 5940,
      "ulg": 5941,
      "ota": 5942,
      "ĠEstimates": 5943,
      "mart": 5944,
      "ĠObligations": 5945,
      "Title": 5946,
      "Ġannivers": 5947,
      "rowth": 5948,
      "ĠActual": 5949,
      "ceived": 5950,
      "PC": 5951,
      "ĠRetirement": 5952,
      "Ġsupplier": 5953,
      "iti": 5954,
      "Ġnecessarily": 5955,
      "Ġput": 5956,
      "ogistics": 5957,
      "Ġweaknesses": 5958,
      "Ġtransfers": 5959,
      "Ġthus": 5960,
      "ild": 5961,
      "132": 5962,
      "Ġce": 5963,
      "quency": 5964,
      "evere": 5965,
      "Ġexecution": 5966,
      "SUANT": 5967,
      "ened": 5968,
      "Ġinvestigations": 5969,
      "2022": 5970,
      "Ġtherein": 5971,
      "arry": 5972,
      "Ġmechanism": 5973,
      "Distrib": 5974,
      "ideo": 5975,
      "ĠAgent": 5976,
      "ĠAir": 5977,
      "Ġpublished": 5978,
      "Allowance": 5979,
      "ivity": 5980,
      "Ġdeclines": 5981,
      "ench": 5982,
      "Ġuser": 5983,
      "145": 5984,
      "Ġreach": 5985,
      "Ġgrowing": 5986,
      "Ġdisclose": 5987,
      "Ġappreciation": 5988,
      "Ġslow": 5989,
      "ĠEven": 5990,
      "ĠStaff": 5991,
      "139": 5992,
      "ĠWarrant": 5993,
      "Ġassign": 5994,
      "131": 5995,
      "Ġquantitative": 5996,
      "Ġclimate": 5997,
      "ĠMet": 5998,
      "ĠLeases": 5999,
      "Ġrecru": 6000,
      "Ġdesignation": 6001,
      "ĠSouthern": 6002,
      "Ġissuable": 6003,
      "Ġposted": 6004,
      "Ġservicer": 6005,
      "Ġtrusts": 6006,
      "Ġtaking": 6007,
      "Ġdilig": 6008,
      "ĠMa": 6009,
      "EL": 6010,
      "Ġhour": 6011,
      "compliance": 6012,
      "Ġconcerns": 6013,
      "ĠPURSUANT": 6014,
      "Ġ70": 6015,
      "136": 6016,
      "Ġcommenced": 6017,
      "HER": 6018,
      "unicip": 6019,
      "Ġinadequate": 6020,
      "Ġunique": 6021,
      "Ġelectronically": 6022,
      "mn": 6023,
      "Act": 6024,
      "âĦ": 6025,
      "Ġfactor": 6026,
      "Ġpled": 6027,
      "Ġunconsolidated": 6028,
      "face": 6029,
      "âĦ¢": 6030,
      "Ġsensitive": 6031,
      "Ġeffort": 6032,
      "Ġsupervision": 6033,
      "Ġinvestigation": 6034,
      "Inter": 6035,
      "Ġbudg": 6036,
      "ĠPrime": 6037,
      "plan": 6038,
      "expected": 6039,
      "2016": 6040,
      "ĠFood": 6041,
      "ĠEarnings": 6042,
      "ĠOwners": 6043,
      "2018": 6044,
      "Ġeliminated": 6045,
      "129": 6046,
      "acities": 6047,
      "133": 6048,
      "aren": 6049,
      "iling": 6050,
      "Fiscal": 6051,
      "empt": 6052,
      "Ġcontingencies": 6053,
      "rand": 6054,
      "eel": 6055,
      "Ġoperators": 6056,
      "Ġwaste": 6057,
      "137": 6058,
      "138": 6059,
      "Ġgold": 6060,
      "Ġapplies": 6061,
      "124": 6062,
      "ĠStrateg": 6063,
      "otential": 6064,
      "Options": 6065,
      "ĠJap": 6066,
      "disc": 6067,
      "Asset": 6068,
      "Ġseverance": 6069,
      "ĠForeign": 6070,
      "Ġformed": 6071,
      "ĠBi": 6072,
      "eter": 6073,
      "ĠTherap": 6074,
      "Ġwithhold": 6075,
      "Ġinstances": 6076,
      "ĠFHLB": 6077,
      "ĠRevenues": 6078,
      "ĠDi": 6079,
      "itting": 6080,
      "Ġallowed": 6081,
      "Ġdetails": 6082,
      "Ġaccordingly": 6083,
      "reci": 6084,
      "Ġunitholders": 6085,
      "170": 6086,
      "ĠBorrow": 6087,
      "ĠBenefit": 6088,
      "450": 6089,
      "tly": 6090,
      "Ġaccrual": 6091,
      "Ġutilizing": 6092,
      "Ġsubmission": 6093,
      "ĠNGL": 6094,
      "Ġacts": 6095,
      "CM": 6096,
      "ustomer": 6097,
      "Ġpursu": 6098,
      "ĠIndependence": 6099,
      "unity": 6100,
      "âĢĵ": 6101,
      "Ġawarded": 6102,
      "licable": 6103,
      "225": 6104,
      "Ġexpanded": 6105,
      "Ġshif": 6106,
      "Liabilities": 6107,
      "Ġtitle": 6108,
      "ĠGovernment": 6109,
      "ibilities": 6110,
      "DS": 6111,
      "Ġindividually": 6112,
      "134": 6113,
      "Ġseri": 6114,
      "ĠChe": 6115,
      "Ġbilled": 6116,
      "Ġlesser": 6117,
      "Ġleasing": 6118,
      "ylvan": 6119,
      "Due": 6120,
      "ĠOrganizations": 6121,
      "Ġorigination": 6122,
      "Ġcontrolling": 6123,
      "ado": 6124,
      "valuation": 6125,
      "Ġterror": 6126,
      "Ġcollaborators": 6127,
      "Ġliable": 6128,
      "Ġseven": 6129,
      "Ġdenominated": 6130,
      "ref": 6131,
      "ylvania": 6132,
      "ĠBra": 6133,
      "146": 6134,
      "service": 6135,
      "utes": 6136,
      "taining": 6137,
      "putes": 6138,
      "Ġinventories": 6139,
      "gener": 6140,
      "oney": 6141,
      "WS": 6142,
      "Ġrelief": 6143,
      "aces": 6144,
      "errit": 6145,
      "anufacturing": 6146,
      "ifying": 6147,
      "143": 6148,
      "Ġformul": 6149,
      "ĠON": 6150,
      "ĠXBRL": 6151,
      "nsylvania": 6152,
      "orne": 6153,
      "dro": 6154,
      "Ġquantities": 6155,
      "ĠOhio": 6156,
      "232": 6157,
      "Prepaid": 6158,
      "ords": 6159,
      "Ġheadqu": 6160,
      "Ġ2000": 6161,
      "Ġattestation": 6162,
      "cons": 6163,
      "Ġsevere": 6164,
      "cast": 6165,
      "ĠGulf": 6166,
      "Ġappra": 6167,
      "Unrealized": 6168,
      "ĠLT": 6169,
      "155": 6170,
      "ĠSc": 6171,
      "Ġsatisfaction": 6172,
      "employee": 6173,
      "cell": 6174,
      "ana": 6175,
      "Ġmetric": 6176,
      "Ġcapacities": 6177,
      "vert": 6178,
      "ricing": 6179,
      "ĠBase": 6180,
      "Ġevaluates": 6181,
      "ĠEffective": 6182,
      "decrease": 6183,
      "rive": 6184,
      "Ġserving": 6185,
      "144": 6186,
      "Ġbeneficially": 6187,
      "ete": 6188,
      "west": 6189,
      "Ġcross": 6190,
      "Ġsuitable": 6191,
      "240": 6192,
      "Ġutilization": 6193,
      "Ġharmed": 6194,
      "Ġcombinations": 6195,
      "ĠPurchases": 6196,
      "Ġhandling": 6197,
      "elec": 6198,
      "Ġsector": 6199,
      "141": 6200,
      "phan": 6201,
      "ittees": 6202,
      "Ġconvert": 6203,
      "Ġmaster": 6204,
      "field": 6205,
      "Ġselect": 6206,
      "Ġchoose": 6207,
      "Red": 6208,
      "operating": 6209,
      "Ġstream": 6210,
      "ĠMarkets": 6211,
      "ĠGoodwill": 6212,
      "166": 6213,
      "Ġrecovered": 6214,
      "Ġreform": 6215,
      "empl": 6216,
      "ĠAmount": 6217,
      "CR": 6218,
      "Ġparent": 6219,
      "165": 6220,
      "ĠOil": 6221,
      "istic": 6222,
      "Ġground": 6223,
      "Def": 6224,
      "Ġregardless": 6225,
      "Ġmatch": 6226,
      "Ġmilestones": 6227,
      "Includes": 6228,
      "January": 6229,
      "147": 6230,
      "Ġnever": 6231,
      "Ġhalf": 6232,
      "Ġanalysts": 6233,
      "ĠNYSE": 6234,
      "Ġmerchand": 6235,
      "Ġemployed": 6236,
      "ĠAdviser": 6237,
      "142": 6238,
      "Employee": 6239,
      "2012": 6240,
      "Ġonce": 6241,
      "Ġincreasingly": 6242,
      "Any": 6243,
      "ĠOPERATIONS": 6244,
      "Ġtrig": 6245,
      "ĠSubsidiaries": 6246,
      "performance": 6247,
      "Ġfeature": 6248,
      "Ġembedded": 6249,
      "duction": 6250,
      "ĠPension": 6251,
      "2019": 6252,
      "Ġdelayed": 6253,
      "ein": 6254,
      "Ġwww": 6255,
      "ai": 6256,
      "2017": 6257,
      "($": 6258,
      "MC": 6259,
      "Ġlaboratory": 6260,
      "UN": 6261,
      "Ġpressure": 6262,
      "Ġauditor": 6263,
      "Ġaware": 6264,
      "ĠMarketing": 6265,
      "ĠVirgin": 6266,
      "bor": 6267,
      "ourth": 6268,
      "ĠSe": 6269,
      "Ġcollectively": 6270,
      "Ġpredic": 6271,
      "Ġadvisors": 6272,
      "Agreement": 6273,
      "190": 6274,
      "sufficient": 6275,
      "Ġdiligence": 6276,
      "Ġreceives": 6277,
      "ĠAdvisors": 6278,
      "ĠPresentation": 6279,
      "Ġwhereby": 6280,
      "ĠNone": 6281,
      "Ġsolution": 6282,
      "unicipal": 6283,
      "ourage": 6284,
      "Ġdeath": 6285,
      "ĠSchedule": 6286,
      "ĠSale": 6287,
      "Ġmanagers": 6288,
      "ymbol": 6289,
      "Information": 6290,
      "avid": 6291,
      "Ġintangibles": 6292,
      "bre": 6293,
      "Ġlegislative": 6294,
      "ivestit": 6295,
      "Ġundiscounted": 6296,
      "ĠTread": 6297,
      "ISK": 6298,
      "154": 6299,
      "Ġregions": 6300,
      "ĠAccounts": 6301,
      "Ġfailures": 6302,
      "Ġimplied": 6303,
      "Ġexecutives": 6304,
      "ĠPR": 6305,
      "Amounts": 6306,
      "ĠGen": 6307,
      "ĠCong": 6308,
      "Ġpromulg": 6309,
      "Ġconstit": 6310,
      "rep": 6311,
      "Ġconsidering": 6312,
      "ĠManaging": 6313,
      "ĠSponsoring": 6314,
      "dil": 6315,
      "ask": 6316,
      "uting": 6317,
      "ĠINCOME": 6318,
      "BC": 6319,
      "Ġ2001": 6320,
      "ĠArk": 6321,
      "gen": 6322,
      "Ġexclusivity": 6323,
      "220": 6324,
      "hapter": 6325,
      "rest": 6326,
      "rins": 6327,
      "Ġworth": 6328,
      "Ġvaluations": 6329,
      "167": 6330,
      "asters": 6331,
      "Ġvolatile": 6332,
      "held": 6333,
      "Ġanniversary": 6334,
      "water": 6335,
      "ĠTreadway": 6336,
      "Ġrealiz": 6337,
      "Ġdispositions": 6338,
      "llino": 6339,
      "Ġimpairments": 6340,
      "llinois": 6341,
      "report": 6342,
      "oration": 6343,
      "Ġcour": 6344,
      "inue": 6345,
      "Ġcontam": 6346,
      "ĠReform": 6347,
      "Ġoutcomes": 6348,
      "Ġsupporting": 6349,
      "Ġfunctional": 6350,
      "ulture": 6351,
      "Ġmembership": 6352,
      "Ġunvested": 6353,
      "SP": 6354,
      "157": 6355,
      "ĠOTC": 6356,
      "210": 6357,
      "BL": 6358,
      "Ġintends": 6359,
      "Ġexpose": 6360,
      "153": 6361,
      "ĠEl": 6362,
      "Ġ2026": 6363,
      "icha": 6364,
      "Ġ401": 6365,
      "do": 6366,
      "Ġsubj": 6367,
      "Ġenhanced": 6368,
      "ĠAustral": 6369,
      "Ġexception": 6370,
      "Ġ37": 6371,
      "152": 6372,
      "ORPOR": 6373,
      "172": 6374,
      "Ġproducing": 6375,
      "201": 6376,
      "ĠPatent": 6377,
      "lot": 6378,
      "develop": 6379,
      "ĠCarol": 6380,
      "uch": 6381,
      "rinsic": 6382,
      "Ġconsummate": 6383,
      "156": 6384,
      "ĠAtt": 6385,
      "Ġadd": 6386,
      "Ġappeal": 6387,
      "Ġapproximate": 6388,
      "Ġtools": 6389,
      "struct": 6390,
      "Ġevolving": 6391,
      "Ġresponsibilities": 6392,
      "Ġcontribute": 6393,
      "Ġreadily": 6394,
      "ĠOT": 6395,
      "151": 6396,
      "Ġconstrain": 6397,
      "level": 6398,
      "148": 6399,
      "Ġgovernments": 6400,
      "Ġspecialty": 6401,
      "Ġreceiving": 6402,
      "Ġfrequently": 6403,
      "HAR": 6404,
      "ĠET": 6405,
      "quisite": 6406,
      "149": 6407,
      "void": 6408,
      "Ġpeople": 6409,
      "Ġcapitalization": 6410,
      "Ġcannabis": 6411,
      "arget": 6412,
      "Ġintent": 6413,
      "Ġrad": 6414,
      "Ġir": 6415,
      "ĠFunding": 6416,
      "Ġattacks": 6417,
      "Ġquot": 6418,
      "END": 6419,
      "tional": 6420,
      "162": 6421,
      "Ġredeemed": 6422,
      "org": 6423,
      "Intangible": 6424,
      "Ġmanufactured": 6425,
      "Ġprofitable": 6426,
      "Disc": 6427,
      "Ġscientific": 6428,
      "Ġreimbur": 6429,
      "Ġalig": 6430,
      "163": 6431,
      "Years": 6432,
      "kers": 6433,
      "Ġpreferences": 6434,
      "169": 6435,
      "statements": 6436,
      "February": 6437,
      "Ġmodifications": 6438,
      "230": 6439,
      "171": 6440,
      "enchmark": 6441,
      "Ġware": 6442,
      "sc": 6443,
      "168": 6444,
      "Ġforecasted": 6445,
      "specific": 6446,
      "Ġnewly": 6447,
      "Ġusage": 6448,
      "Ġdisp": 6449,
      "ĠFuture": 6450,
      "ĠBy": 6451,
      "plus": 6452,
      "ĠAfter": 6453,
      "159": 6454,
      "Ġtelephone": 6455,
      "By": 6456,
      "ming": 6457,
      "romissory": 6458,
      "Ġfirms": 6459,
      "158": 6460,
      "ichael": 6461,
      "Ġdetailed": 6462,
      "pecially": 6463,
      "front": 6464,
      "ireless": 6465,
      "Derivative": 6466,
      "Ġdiscovery": 6467,
      "Ġassuming": 6468,
      "olved": 6469,
      "Ġ65": 6470,
      "Ġsecondary": 6471,
      "ris": 6472,
      "Ġentering": 6473,
      "ipp": 6474,
      "Ġsubstances": 6475,
      "Impairment": 6476,
      "ĠPennsylvania": 6477,
      "ground": 6478,
      "Ġvis": 6479,
      "164": 6480,
      "Ġdisputes": 6481,
      "ĠAgency": 6482,
      "inery": 6483,
      "ĠSun": 6484,
      "Ġflexibility": 6485,
      "207": 6486,
      "ĠCASH": 6487,
      "Ġavoid": 6488,
      "Revenues": 6489,
      "Exchange": 6490,
      "Ġlist": 6491,
      "hest": 6492,
      "161": 6493,
      "Ġexposures": 6494,
      "Ġclean": 6495,
      "chang": 6496,
      "uilding": 6497,
      "ĠSci": 6498,
      "Ġtermin": 6499,
      "187": 6500,
      "suming": 6501,
      "RB": 6502,
      "Ġcur": 6503,
      "Ġaccording": 6504,
      "arma": 6505,
      "Ġcertificates": 6506,
      "Ġexpired": 6507,
      "ateralized": 6508,
      "WN": 6509,
      "185": 6510,
      "Series": 6511,
      "Ġapplying": 6512,
      "ĠArkansas": 6513,
      "Ġintercompany": 6514,
      "antitative": 6515,
      "199": 6516,
      "Plan": 6517,
      "ĠPacific": 6518,
      "ne": 6519,
      "Ġschedules": 6520,
      "ready": 6521,
      "Related": 6522,
      "650": 6523,
      "Ġenroll": 6524,
      "Ġjud": 6525,
      "Ġmature": 6526,
      "Ġsecuritization": 6527,
      "Ġlabeling": 6528,
      "262": 6529,
      "clusive": 6530,
      "550": 6531,
      "arding": 6532,
      "ANAG": 6533,
      "ĠRES": 6534,
      "athering": 6535,
      "ĠMin": 6536,
      "ounds": 6537,
      "ĠNOL": 6538,
      "Ġportions": 6539,
      "upon": 6540,
      "odies": 6541,
      "Real": 6542,
      "Ġtari": 6543,
      "Ġvia": 6544,
      "gages": 6545,
      "ĠInf": 6546,
      "Ġowed": 6547,
      "ulting": 6548,
      "Investments": 6549,
      "ĠAut": 6550,
      "ĠBenefits": 6551,
      "ettlement": 6552,
      "Ġindicative": 6553,
      "Ġreceipts": 6554,
      "Prior": 6555,
      "Ġinterpretations": 6556,
      "istor": 6557,
      "Ġupg": 6558,
      "Exercise": 6559,
      "Ġutilities": 6560,
      "Ġrapidly": 6561,
      "ĠÂ¨": 6562,
      "ĠRegistrants": 6563,
      "325": 6564,
      "275": 6565,
      "ĠFailure": 6566,
      "Ġwind": 6567,
      "downs": 6568,
      "Ġadvisor": 6569,
      "Ġqualifying": 6570,
      "Ġimmediate": 6571,
      "rove": 6572,
      "could": 6573,
      "ourse": 6574,
      "approval": 6575,
      "likely": 6576,
      "Ġrein": 6577,
      "Ġcommunicated": 6578,
      "229": 6579,
      "appropri": 6580,
      "Ġconflict": 6581,
      "176": 6582,
      "Ġzero": 6583,
      "ĠCommitments": 6584,
      "affiliates": 6585,
      "ĠNAV": 6586,
      "ĠThird": 6587,
      "Ġachieving": 6588,
      "Ġincident": 6589,
      "âĢĿ.": 6590,
      "Ġcompeting": 6591,
      "177": 6592,
      "ĠFacilities": 6593,
      "205": 6594,
      "Ġespecially": 6595,
      "195": 6596,
      "otechnology": 6597,
      "Ġbill": 6598,
      "osing": 6599,
      "oyalty": 6600,
      "ham": 6601,
      "Ġrenewable": 6602,
      "wood": 6603,
      "Ġnegotiated": 6604,
      "Selling": 6605,
      "price": 6606,
      "subject": 6607,
      "ĠHed": 6608,
      "bl": 6609,
      "Ġ740": 6610,
      "Ġpayroll": 6611,
      "CP": 6612,
      "Ġfall": 6613,
      "Ġunamortized": 6614,
      "181": 6615,
      "Ġmerg": 6616,
      "Ġfulfill": 6617,
      "ole": 6618,
      "ruck": 6619,
      "179": 6620,
      "Ġindication": 6621,
      "anticipated": 6622,
      "ĠHigh": 6623,
      "ĠIllinois": 6624,
      "Ġ1933": 6625,
      "Ġstatutes": 6626,
      "330": 6627,
      "Ġcommission": 6628,
      "ANAGEMENT": 6629,
      "uit": 6630,
      "Ġpopulation": 6631,
      "well": 6632,
      "emerging": 6633,
      "Ġhardware": 6634,
      "ctive": 6635,
      "Ġreliance": 6636,
      "Ġinterpretation": 6637,
      "NG": 6638,
      "174": 6639,
      "Ġ39": 6640,
      "188": 6641,
      "Ġsettlements": 6642,
      "Ġcontempl": 6643,
      "Ġmarketplace": 6644,
      "ARK": 6645,
      "Ġrole": 6646,
      "178": 6647,
      "leet": 6648,
      "Ġpossibility": 6649,
      "Ġnone": 6650,
      "Ġworkforce": 6651,
      "raded": 6652,
      "Section": 6653,
      "ĠPe": 6654,
      "viously": 6655,
      "Ġhedged": 6656,
      "Ġupdated": 6657,
      "ĠExhibits": 6658,
      "ĠCH": 6659,
      "Although": 6660,
      "ĠEd": 6661,
      "Percent": 6662,
      "173": 6663,
      "OP": 6664,
      "Ġmach": 6665,
      "risk": 6666,
      "Ġelements": 6667,
      "Ġdescription": 6668,
      "Ġrevision": 6669,
      "quirements": 6670,
      "ĠGenerally": 6671,
      "arges": 6672,
      "etrole": 6673,
      "ĠRecognition": 6674,
      "Ġtrend": 6675,
      "common": 6676,
      "Employment": 6677,
      "Ġconducting": 6678,
      "met": 6679,
      "Ġcomplying": 6680,
      "Directors": 6681,
      "ĠPolicy": 6682,
      "Adjusted": 6683,
      "Ġsolar": 6684,
      "260": 6685,
      "Ġinput": 6686,
      "etroleum": 6687,
      "Ġmarketed": 6688,
      "Ġdiseases": 6689,
      "Ġresource": 6690,
      "ĠNatural": 6691,
      "202": 6692,
      "Ġobsol": 6693,
      "excluding": 6694,
      "olec": 6695,
      "Ġvideo": 6696,
      "With": 6697,
      "ĠCirc": 6698,
      "Ġmodify": 6699,
      "Ġtum": 6700,
      "ĠKey": 6701,
      "Ġrequisite": 6702,
      "Ġproc": 6703,
      "ĠAccountants": 6704,
      "Ġgrade": 6705,
      "Ġ000": 6706,
      "ĠSupply": 6707,
      "Ġled": 6708,
      "186": 6709,
      "ĠMAT": 6710,
      "Ġconfirm": 6711,
      "ĠPL": 6712,
      "Ġestimating": 6713,
      "Ġerr": 6714,
      "Ġfl": 6715,
      "ĠFee": 6716,
      "Ġmultip": 6717,
      "Ġvery": 6718,
      "Ġinhibit": 6719,
      "ĠInteractive": 6720,
      "Ġ404": 6721,
      "Ġsalaries": 6722,
      "Ġcomposition": 6723,
      "Ġbenefici": 6724,
      "ĠParent": 6725,
      "ĠOf": 6726,
      "183": 6727,
      "212": 6728,
      "President": 6729,
      "illiam": 6730,
      "Ġprevailing": 6731,
      "IA": 6732,
      "Ġdeficiencies": 6733,
      "Ġtested": 6734,
      "success": 6735,
      "Ġpromulgated": 6736,
      "long": 6737,
      "eutics": 6738,
      "beli": 6739,
      "Legal": 6740,
      "203": 6741,
      "AIN": 6742,
      "Ġmutual": 6743,
      "204": 6744,
      "206": 6745,
      "ĠArrange": 6746,
      "Ġrestaurants": 6747,
      "ĠForward": 6748,
      "Ġpresence": 6749,
      "exerc": 6750,
      "Ġcas": 6751,
      "ĠFLO": 6752,
      "prises": 6753,
      "family": 6754,
      "ĠAR": 6755,
      "OF": 6756,
      "ĠIRS": 6757,
      "Ġleadership": 6758,
      "Ġhousing": 6759,
      "Ġpipelines": 6760,
      "ABIL": 6761,
      "Ġ38": 6762,
      "Supplemental": 6763,
      "182": 6764,
      "ways": 6765,
      "Ġadministered": 6766,
      "ĠTri": 6767,
      "Ġexceeded": 6768,
      "ĠREGIS": 6769,
      "Ġ(#": 6770,
      "ode": 6771,
      "From": 6772,
      "arned": 6773,
      "Ġprelim": 6774,
      "Ġpage": 6775,
      "ray": 6776,
      "198": 6777,
      "ĠBri": 6778,
      "ĠWork": 6779,
      "ĠIndustrial": 6780,
      "Med": 6781,
      "aryland": 6782,
      "Pension": 6783,
      "Ġcalculate": 6784,
      "EG": 6785,
      "Ġappear": 6786,
      "208": 6787,
      "226": 6788,
      "215": 6789,
      "Ġpath": 6790,
      "Ġpartial": 6791,
      "Ġforecast": 6792,
      "alone": 6793,
      "pred": 6794,
      "letion": 6795,
      "issipp": 6796,
      "ersey": 6797,
      "andon": 6798,
      "ESS": 6799,
      "Ġmandatory": 6800,
      "Security": 6801,
      "following": 6802,
      "Ġbearing": 6803,
      "Ġprobability": 6804,
      "ĠQualitative": 6805,
      "ĠPayments": 6806,
      "Ġrepair": 6807,
      "ps": 6808,
      "ulner": 6809,
      "Ġremoval": 6810,
      "Ġalready": 6811,
      "Ġlaunch": 6812,
      "Eff": 6813,
      "ĠAvenue": 6814,
      "ĠJapan": 6815,
      "economic": 6816,
      "Ġhost": 6817,
      "Ġconstitute": 6818,
      "Ġterrit": 6819,
      "196": 6820,
      "Ġprocessed": 6821,
      "management": 6822,
      "Ar": 6823,
      "189": 6824,
      "ĠRO": 6825,
      "Ġconfidence": 6826,
      "Ġwaiver": 6827,
      "Ġconcentration": 6828,
      "Ġ55": 6829,
      "Ġwithholding": 6830,
      "ĠOmn": 6831,
      "inter": 6832,
      "Ġestablishes": 6833,
      "Ġgaming": 6834,
      "Ġretrospective": 6835,
      "Ġwarranties": 6836,
      "orded": 6837,
      "Ġinternet": 6838,
      "Ġactively": 6839,
      "401": 6840,
      "Ġhotel": 6841,
      "ĠDE": 6842,
      "193": 6843,
      "lan": 6844,
      "ĠDec": 6845,
      "Ġdisasters": 6846,
      "ĠVirginia": 6847,
      "Ġ52": 6848,
      "ĠIntangible": 6849,
      "AM": 6850,
      "Basis": 6851,
      "pite": 6852,
      "Ġ42": 6853,
      "235": 6854,
      "One": 6855,
      "Ġrise": 6856,
      "360": 6857,
      "Valuation": 6858,
      "ĠContingencies": 6859,
      "October": 6860,
      "Ġforced": 6861,
      "Ġrul": 6862,
      "Ġshows": 6863,
      "Ġsubjective": 6864,
      "Ġshipping": 6865,
      "Ġtaxing": 6866,
      "Ġerrors": 6867,
      "218": 6868,
      "consolidated": 6869,
      "Ġautomatically": 6870,
      "May": 6871,
      "192": 6872,
      "issued": 6873,
      "340": 6874,
      "ecessor": 6875,
      "located": 6876,
      "Ġadequacy": 6877,
      "ranche": 6878,
      "Ġvendor": 6879,
      "ĠLegal": 6880,
      "Ġtrack": 6881,
      "Ġdownt": 6882,
      "Ġaccruals": 6883,
      "ĠRiver": 6884,
      "Ġsplit": 6885,
      "eld": 6886,
      "ĠEcon": 6887,
      "ancing": 6888,
      "ĠEm": 6889,
      "cings": 6890,
      "ides": 6891,
      "issippi": 6892,
      "road": 6893,
      "Ġidentification": 6894,
      "194": 6895,
      "Ġdilution": 6896,
      "Ġvulner": 6897,
      "Ġforeclosure": 6898,
      "Ġunderwriters": 6899,
      "ĠJersey": 6900,
      "850": 6901,
      "ta": 6902,
      "uity": 6903,
      "Ġdisch": 6904,
      "Ġlien": 6905,
      "Ġ302": 6906,
      "Ġdrive": 6907,
      "184": 6908,
      "ĠMeasurements": 6909,
      "Adjustments": 6910,
      "270": 6911,
      "2023": 6912,
      "ifth": 6913,
      "Ġduty": 6914,
      "Ġsupplement": 6915,
      "HC": 6916,
      "Ġdeem": 6917,
      "ĠUtilities": 6918,
      "Ġinsufficient": 6919,
      "itation": 6920,
      "ĠCMS": 6921,
      "Ġprotoc": 6922,
      "227": 6923,
      "667": 6924,
      "Value": 6925,
      "211": 6926,
      "Ġsubjects": 6927,
      "ĠMod": 6928,
      "Ġmerchandise": 6929,
      "280": 6930,
      "ĠReceivable": 6931,
      "Ġ$(": 6932,
      "197": 6933,
      "ationally": 6934,
      "301": 6935,
      "ĠConduct": 6936,
      "gthe": 6937,
      "Ġsteps": 6938,
      "Significant": 6939,
      "Ġexpires": 6940,
      "ĠEnvironmental": 6941,
      "/(": 6942,
      "ĠNor": 6943,
      "ibus": 6944,
      "ĠIntegrated": 6945,
      "224": 6946,
      "Ġretailers": 6947,
      "Ġagree": 6948,
      "avings": 6949,
      "216": 6950,
      "resolved": 6951,
      "alid": 6952,
      "ĠPharmaceuticals": 6953,
      "ĠAG": 6954,
      "NY": 6955,
      "Ġconven": 6956,
      "ommission": 6957,
      "Ġdecide": 6958,
      "ĠGP": 6959,
      "Ġcreditors": 6960,
      "Ġdisrupt": 6961,
      "Product": 6962,
      "FORMATION": 6963,
      "elecomm": 6964,
      "CS": 6965,
      "Filed": 6966,
      "191": 6967,
      "ĠTra": 6968,
      "Ġmainly": 6969,
      "PT": 6970,
      "obert": 6971,
      "orado": 6972,
      "222": 6973,
      "Ġsimp": 6974,
      "Ġautomotive": 6975,
      "luded": 6976,
      "atter": 6977,
      "Ġblock": 6978,
      "ĠMA": 6979,
      "Liquidity": 6980,
      "ĠUpdate": 6981,
      "titution": 6982,
      "Ġengagement": 6983,
      "ĠRus": 6984,
      "Ġyields": 6985,
      "Ġobserv": 6986,
      "Ġinjury": 6987,
      "255": 6988,
      "Ġcommencing": 6989,
      "Ġvirt": 6990,
      "Ġgoal": 6991,
      "Ġquick": 6992,
      "0001": 6993,
      "Ġsharing": 6994,
      "ĠPipel": 6995,
      "ighest": 6996,
      "Ġpreliminary": 6997,
      "atch": 6998,
      "Ġours": 6999,
      "214": 7000,
      "Ġintegrate": 7001,
      "Ġbuildings": 7002,
      "eem": 7003,
      "Ġrun": 7004,
      "Ġdepreci": 7005,
      "Ġpros": 7006,
      "Ġproperly": 7007,
      "Ġstatute": 7008,
      "ignation": 7009,
      "Ġdivided": 7010,
      "Ġdetection": 7011,
      "Ġassumption": 7012,
      "Ġcommencement": 7013,
      "ĠWashington": 7014,
      "ĠInvestors": 7015,
      "209": 7016,
      "ĠMont": 7017,
      "ĠDivision": 7018,
      "Ġ49": 7019,
      "Ġantib": 7020,
      "Ġinvalid": 7021,
      "Ġattrib": 7022,
      "ĠCor": 7023,
      "Ġdemonstrate": 7024,
      "Ġfalse": 7025,
      "Ġtransl": 7026,
      "Payments": 7027,
      "ening": 7028,
      "Ġ48": 7029,
      "Ġeight": 7030,
      "ĠGrant": 7031,
      "Ġphase": 7032,
      "TORS": 7033,
      "cap": 7034,
      "Ġstop": 7035,
      "Page": 7036,
      "ĠAmounts": 7037,
      "ĠCongress": 7038,
      "ABILITIES": 7039,
      "213": 7040,
      "Ġprevention": 7041,
      "Ġpackaging": 7042,
      "245": 7043,
      "050": 7044,
      "221": 7045,
      "Ġfounder": 7046,
      "ses": 7047,
      "Ġmaxim": 7048,
      "Ġborrowed": 7049,
      "assets": 7050,
      "Ġexpanding": 7051,
      "Fixed": 7052,
      "aho": 7053,
      "Ġrealizable": 7054,
      "etts": 7055,
      "Statements": 7056,
      "cise": 7057,
      "Ġprove": 7058,
      "265": 7059,
      "223": 7060,
      "April": 7061,
      "ĠMass": 7062,
      "Ġserious": 7063,
      "MR": 7064,
      "achus": 7065,
      "Ġselection": 7066,
      "Ġinitiated": 7067,
      "Ġforecasts": 7068,
      "right": 7069,
      "Ġinstitutional": 7070,
      "OCI": 7071,
      "Ġprivately": 7072,
      "achusetts": 7073,
      "217": 7074,
      "Ġlate": 7075,
      "Ġmortgages": 7076,
      "Ġomitted": 7077,
      "recurring": 7078,
      "ĠCONT": 7079,
      "237": 7080,
      "changed": 7081,
      "Ġfails": 7082,
      "Ġabandon": 7083,
      "Ġ43": 7084,
      "MBS": 7085,
      "Ġdefense": 7086,
      "Ġrepresentations": 7087,
      "320": 7088,
      "ĠTw": 7089,
      "Ġrealization": 7090,
      "228": 7091,
      "Ġeliminate": 7092,
      "entions": 7093,
      "ĠMac": 7094,
      "approximately": 7095,
      "Ġapprais": 7096,
      "Additionally": 7097,
      "233": 7098,
      "Ġreti": 7099,
      "ĠComb": 7100,
      "ĠTe": 7101,
      "242": 7102,
      "direct": 7103,
      "point": 7104,
      "adjusted": 7105,
      "Trust": 7106,
      "248": 7107,
      "219": 7108,
      "ĠGerm": 7109,
      "Nove": 7110,
      "ola": 7111,
      "Ġstring": 7112,
      "criptions": 7113,
      "Ġplaintiffs": 7114,
      "part": 7115,
      "Ġclearing": 7116,
      "uction": 7117,
      "Use": 7118,
      "Inventories": 7119,
      "million": 7120,
      "valents": 7121,
      "Ġthough": 7122,
      "Ġgeneric": 7123,
      "shore": 7124,
      "ĠTherapeutics": 7125,
      "Ġunders": 7126,
      "Critical": 7127,
      "Ġcourts": 7128,
      "November": 7129,
      "ĠBraz": 7130,
      "ĠCON": 7131,
      "ĠHar": 7132,
      "Customer": 7133,
      "Ġhighest": 7134,
      "Ġrelation": 7135,
      "Ġmeetings": 7136,
      "Ġindicators": 7137,
      "alent": 7138,
      "ĠBran": 7139,
      "249": 7140,
      "ologies": 7141,
      "Ġsearch": 7142,
      "950": 7143,
      "Ġsettle": 7144,
      "Ġherewith": 7145,
      "ĠMississippi": 7146,
      "Ġsymbol": 7147,
      "Ġdiverse": 7148,
      "ittle": 7149,
      "Ġcalled": 7150,
      "252": 7151,
      "ultural": 7152,
      "selves": 7153,
      "ĠRefer": 7154,
      "ung": 7155,
      "Ġaggreg": 7156,
      "Ġhospitals": 7157,
      "Ġlowest": 7158,
      "Registrant": 7159,
      "affiliated": 7160,
      "Ġfloating": 7161,
      "Ġcomparison": 7162,
      "Ġdealer": 7163,
      "uck": 7164,
      "ĠFort": 7165,
      "234": 7166,
      "IREC": 7167,
      "Ġreserved": 7168,
      "EPEND": 7169,
      "class": 7170,
      "ĠDo": 7171,
      "ĠAccumulated": 7172,
      "He": 7173,
      "Ġbur": 7174,
      "Ġundertake": 7175,
      "Ġdelinquent": 7176,
      "ĠAEP": 7177,
      "Ġunknown": 7178,
      "Ġdeductible": 7179,
      "Ġexhibits": 7180,
      "public": 7181,
      "Board": 7182,
      "ĠAmortization": 7183,
      "atio": 7184,
      "Ġmunicipal": 7185,
      "Ġproced": 7186,
      "310": 7187,
      "Ġwilling": 7188,
      "Ġdistin": 7189,
      "Ġmeaningful": 7190,
      "Â®,": 7191,
      "Further": 7192,
      "ARKET": 7193,
      "HIP": 7194,
      "registered": 7195,
      "tt": 7196,
      "ĠINFORMATION": 7197,
      "Ġlawsuit": 7198,
      "Ġ53": 7199,
      "PB": 7200,
      "Ġsecuring": 7201,
      "ATIVE": 7202,
      "Ġdealers": 7203,
      "otor": 7204,
      "efore": 7205,
      "Ġsupplemental": 7206,
      "Ġassociation": 7207,
      "Ġways": 7208,
      "Ġresid": 7209,
      ".\"": 7210,
      "TIONS": 7211,
      "Ġassistance": 7212,
      "Ġvarying": 7213,
      "Ġexemption": 7214,
      "di": 7215,
      "eness": 7216,
      "Ġintegrity": 7217,
      "ĠLeg": 7218,
      "SIGN": 7219,
      "ĠWorld": 7220,
      "Granted": 7221,
      "Ġimmaterial": 7222,
      "Ġi": 7223,
      "Short": 7224,
      "eemable": 7225,
      "290": 7226,
      "Ġdividing": 7227,
      "ĠGross": 7228,
      "Ġdivision": 7229,
      "345": 7230,
      "ommissioning": 7231,
      "253": 7232,
      "ITED": 7233,
      "Ġdeduct": 7234,
      "Ġstringent": 7235,
      "258": 7236,
      "Ġemerg": 7237,
      "Ġdiagnostic": 7238,
      "Mark": 7239,
      "231": 7240,
      "location": 7241,
      "ĠCap": 7242,
      "ĠThrough": 7243,
      "236": 7244,
      "238": 7245,
      "Ġoverhead": 7246,
      "244": 7247,
      "Commitments": 7248,
      "Ġinnovative": 7249,
      "Ġclin": 7250,
      "count": 7251,
      "Ġet": 7252,
      "MO": 7253,
      "ĠCarolina": 7254,
      "ĠUK": 7255,
      "ert": 7256,
      "322": 7257,
      "Ġ85": 7258,
      "ĠCentral": 7259,
      "247": 7260,
      "ĠJoint": 7261,
      "Ġcollateralized": 7262,
      "Ġdoing": 7263,
      "ĠTRANS": 7264,
      "dollars": 7265,
      "ĠCodification": 7266,
      "weighted": 7267,
      "285": 7268,
      "essional": 7269,
      "Ġexit": 7270,
      "urtail": 7271,
      "ourcing": 7272,
      "Ġsuspension": 7273,
      "ĠConn": 7274,
      "243": 7275,
      "Stockholders": 7276,
      "Ġ51": 7277,
      "Ġ41": 7278,
      "Spec": 7279,
      "256": 7280,
      "Ġdedic": 7281,
      "ĠDAT": 7282,
      "Ġdemands": 7283,
      "Ġoriginally": 7284,
      "ĠPlant": 7285,
      "259": 7286,
      "ĠFLOWS": 7287,
      "Sp": 7288,
      "uations": 7289,
      "241": 7290,
      "Ġseverity": 7291,
      "246": 7292,
      "Ġfacilitate": 7293,
      "ĠOut": 7294,
      "ĠStat": 7295,
      "Ġcommunication": 7296,
      "ĠRetail": 7297,
      "Estim": 7298,
      "ĠGreen": 7299,
      "ĠMaryland": 7300,
      "ortfolios": 7301,
      "Ġrelations": 7302,
      "Ġremained": 7303,
      "âĺĲ": 7304,
      "emiconduct": 7305,
      "Ġmolec": 7306,
      "Ġwast": 7307,
      "Ġcaption": 7308,
      "Ġpromp": 7309,
      "Ġdifficulty": 7310,
      "Ġunrelated": 7311,
      "257": 7312,
      "American": 7313,
      "Ġdose": 7314,
      "Ġexplo": 7315,
      "ĠPost": 7316,
      "UTIVE": 7317,
      "Ġprocure": 7318,
      "Ġrecoveries": 7319,
      "rum": 7320,
      "inable": 7321,
      "Ġfleet": 7322,
      "Ġhomes": 7323,
      "Ġ150": 7324,
      "Ġkeep": 7325,
      "ĠLitigation": 7326,
      "365": 7327,
      "ĠDisagreements": 7328,
      "Ġdiscretionary": 7329,
      "Ġ1350": 7330,
      "ĠAdv": 7331,
      "287": 7332,
      "ERTAIN": 7333,
      "assess": 7334,
      "ECUTIVE": 7335,
      "urb": 7336,
      "334": 7337,
      "Accounting": 7338,
      "ayman": 7339,
      "Ġbreak": 7340,
      "Ġconfidentiality": 7341,
      "Ġredemptions": 7342,
      "ĠAssoci": 7343,
      "ĠIslands": 7344,
      "Ġbiotechnology": 7345,
      "Ġdivestit": 7346,
      "Ġdissol": 7347,
      "Ġoriginated": 7348,
      "erves": 7349,
      "ony": 7350,
      "305": 7351,
      "274": 7352,
      "obs": 7353,
      "ĠMorgan": 7354,
      "ĠOWN": 7355,
      "Ġ1999": 7356,
      "Ġoccupancy": 7357,
      "vents": 7358,
      "itivity": 7359,
      "ĠINDEPEND": 7360,
      "ĠAf": 7361,
      "atin": 7362,
      "pped": 7363,
      "ervation": 7364,
      "Ġmethodologies": 7365,
      "Ġmisstatements": 7366,
      "dep": 7367,
      "Ġclar": 7368,
      "emor": 7369,
      "ĠER": 7370,
      "254": 7371,
      "Ġwithdrawal": 7372,
      "August": 7373,
      "Ġ20549": 7374,
      "Ġwhenever": 7375,
      "239": 7376,
      "Ġminor": 7377,
      "Ġprohibited": 7378,
      "Ġpromote": 7379,
      "vey": 7380,
      "AX": 7381,
      "Ġcommodities": 7382,
      "Ġrestaurant": 7383,
      "328": 7384,
      "Ġinvo": 7385,
      "lines": 7386,
      "Ġchallenging": 7387,
      "SIGNAT": 7388,
      "Ġminimize": 7389,
      "imin": 7390,
      "268": 7391,
      "lin": 7392,
      "ients": 7393,
      "Ġauthorizations": 7394,
      "Ġplay": 7395,
      "380": 7396,
      "atell": 7397,
      "each": 7398,
      "orney": 7399,
      "Ġheadquarters": 7400,
      "Par": 7401,
      "ĠAustralia": 7402,
      "Fourth": 7403,
      "conn": 7404,
      "Segment": 7405,
      "smaller": 7406,
      "263": 7407,
      "itc": 7408,
      "ĠAT": 7409,
      "Ġ44": 7410,
      "ĠLI": 7411,
      "264": 7412,
      "Ġrefinance": 7413,
      "ĠRen": 7414,
      "Ġproposals": 7415,
      "Ġemp": 7416,
      "Ġdistinct": 7417,
      "302": 7418,
      "ĠClinical": 7419,
      "Ġorphan": 7420,
      "orgia": 7421,
      "266": 7422,
      "roller": 7423,
      "Enter": 7424,
      "Ġcycle": 7425,
      "Ġpresently": 7426,
      "Ġreliable": 7427,
      "Ġtelevision": 7428,
      "Effect": 7429,
      "Ġrestrictive": 7430,
      "ĠMassachusetts": 7431,
      "apt": 7432,
      "Purchases": 7433,
      "lam": 7434,
      "281": 7435,
      "251": 7436,
      "was": 7437,
      "ĠCurrency": 7438,
      "ĠPrem": 7439,
      "Ġnotional": 7440,
      "Ġeducation": 7441,
      "Ġcer": 7442,
      "ĠDATA": 7443,
      "ĠMD": 7444,
      "ĠEar": 7445,
      "267": 7446,
      "277": 7447,
      "Ġpractic": 7448,
      "forward": 7449,
      "iles": 7450,
      "Ġcomputing": 7451,
      "esting": 7452,
      "Ġheav": 7453,
      "Ġpublish": 7454,
      "Ġhire": 7455,
      "Ġnovel": 7456,
      "daho": 7457,
      "370": 7458,
      "HG": 7459,
      "Ġrecoverability": 7460,
      "control": 7461,
      "))": 7462,
      "Ġdefendants": 7463,
      "295": 7464,
      "Ġrequests": 7465,
      "Ġrail": 7466,
      "Ġdeductions": 7467,
      "Ġbilling": 7468,
      "Ġfix": 7469,
      "olidation": 7470,
      "gred": 7471,
      "ĠComments": 7472,
      "atric": 7473,
      "315": 7474,
      "425": 7475,
      "Ġcertification": 7476,
      "Ġbases": 7477,
      "leg": 7478,
      "Ġretaining": 7479,
      "269": 7480,
      "Ġbrokers": 7481,
      "TERS": 7482,
      "ĠMember": 7483,
      "ĠSimilar": 7484,
      "299": 7485,
      "Ġconsiderations": 7486,
      "havi": 7487,
      "Ġmetrics": 7488,
      "Future": 7489,
      "271": 7490,
      "Ġlimiting": 7491,
      "303": 7492,
      "Ġshell": 7493,
      "ĠMain": 7494,
      "288": 7495,
      "Ġ906": 7496,
      "ĠParty": 7497,
      "Sel": 7498,
      "een": 7499,
      "292": 7500,
      "ĠAL": 7501,
      "440": 7502,
      "Ġremote": 7503,
      "ARD": 7504,
      "sumption": 7505,
      "Contractual": 7506,
      "Ġ46": 7507,
      "286": 7508,
      "reased": 7509,
      "Ġforma": 7510,
      "Ġportfolios": 7511,
      "Ġmonit": 7512,
      "ĠSuper": 7513,
      "approved": 7514,
      "347": 7515,
      "Ġinherently": 7516,
      "Ġbacklog": 7517,
      "predict": 7518,
      "Govern": 7519,
      "insured": 7520,
      "ĠSubsequent": 7521,
      "Ġside": 7522,
      "July": 7523,
      "Ġinterruption": 7524,
      "Ġtend": 7525,
      "ards": 7526,
      "276": 7527,
      "ks": 7528,
      "ĠSuite": 7529,
      "Ġversus": 7530,
      "326": 7531,
      "Ġclosely": 7532,
      "recognized": 7533,
      "Ġpurchasers": 7534,
      "PPL": 7535,
      "temporary": 7536,
      "323": 7537,
      "urate": 7538,
      "Ġformula": 7539,
      "Ġdeteriorate": 7540,
      "position": 7541,
      "278": 7542,
      "Ġjoining": 7543,
      "Ġ718": 7544,
      "298": 7545,
      "Ġinstallation": 7546,
      "Ġrata": 7547,
      "ĠIm": 7548,
      "PI": 7549,
      "297": 7550,
      "Ġpenalty": 7551,
      "ĠPipeline": 7552,
      "Ġdire": 7553,
      "ĠLiability": 7554,
      "307": 7555,
      "arrying": 7556,
      "dilutive": 7557,
      "Ġbranch": 7558,
      "ĠOmnibus": 7559,
      "312": 7560,
      "While": 7561,
      "Ġdeterminable": 7562,
      "Ġwireless": 7563,
      "ĠOwner": 7564,
      "TER": 7565,
      "ained": 7566,
      "Ġfinancings": 7567,
      "ĠReports": 7568,
      "Ġchallenge": 7569,
      "Del": 7570,
      "272": 7571,
      "390": 7572,
      "Ġpressures": 7573,
      "ĠCustodian": 7574,
      "480": 7575,
      "ĠBrands": 7576,
      "ectible": 7577,
      "Ġtaxation": 7578,
      "296": 7579,
      "Exhibits": 7580,
      "Ġeas": 7581,
      "283": 7582,
      "Ġnine": 7583,
      "309": 7584,
      "included": 7585,
      "Ġinsurers": 7586,
      "306": 7587,
      "ĠTen": 7588,
      "291": 7589,
      "Ġskills": 7590,
      "327": 7591,
      "Ġperceived": 7592,
      "ĠGood": 7593,
      "ĠAffili": 7594,
      "Ġcatast": 7595,
      "INESS": 7596,
      "INGS": 7597,
      "294": 7598,
      "ĠMedia": 7599,
      "308": 7600,
      "USINESS": 7601,
      "Ġunanticipated": 7602,
      "ĠRISK": 7603,
      "Forfe": 7604,
      "Ġgathering": 7605,
      "Ġsupported": 7606,
      "orneys": 7607,
      "ENCE": 7608,
      "ĠAbout": 7609,
      "Ġappoint": 7610,
      "SIGNATURES": 7611,
      "Ġ820": 7612,
      "346": 7613,
      "324": 7614,
      "Ġworkers": 7615,
      "Ġcamp": 7616,
      "ocation": 7617,
      "ĠHolder": 7618,
      "Ġhydro": 7619,
      "Ġdeduction": 7620,
      "standard": 7621,
      "VER": 7622,
      "Ġdeploy": 7623,
      "ĠColumb": 7624,
      "NUAL": 7625,
      "289": 7626,
      "410": 7627,
      "Ġexchanges": 7628,
      "ĠAnd": 7629,
      "ĠWil": 7630,
      "rades": 7631,
      "gu": 7632,
      "293": 7633,
      "Up": 7634,
      "large": 7635,
      "ligence": 7636,
      "mith": 7637,
      "420": 7638,
      "High": 7639,
      "ĠMATTERS": 7640,
      "orb": 7641,
      "Ġenables": 7642,
      "Ġintention": 7643,
      "ATE": 7644,
      "lood": 7645,
      "ĠDepreciation": 7646,
      "Ġrequested": 7647,
      "cance": 7648,
      "304": 7649,
      "Ġrat": 7650,
      "Ġcorrect": 7651,
      "ĠCB": 7652,
      "279": 7653,
      "stand": 7654,
      "hire": 7655,
      "261": 7656,
      "Ġcontamination": 7657,
      "ĠJohn": 7658,
      "Regulatory": 7659,
      "ĠAuthor": 7660,
      "credit": 7661,
      "Ġwords": 7662,
      "ĠEquivalents": 7663,
      "Ġforfeitures": 7664,
      "Ġregulate": 7665,
      "284": 7666,
      "Ġliens": 7667,
      "Ġimposition": 7668,
      "355": 7669,
      "Ġprofile": 7670,
      "ĠPPL": 7671,
      "ĠSal": 7672,
      "313": 7673,
      "273": 7674,
      "Star": 7675,
      "riting": 7676,
      "Ġvessels": 7677,
      "Ġdivert": 7678,
      "282": 7679,
      "Ġquickly": 7680,
      "ĠDigital": 7681,
      "Ġallowing": 7682,
      "002": 7683,
      "Ġinstallments": 7684,
      "light": 7685,
      "Ġreflecting": 7686,
      "Financing": 7687,
      "Ġsells": 7688,
      "prof": 7689,
      "335": 7690,
      "666": 7691,
      "Ġallocate": 7692,
      "Ġunexpected": 7693,
      "Ġindemnify": 7694,
      "PG": 7695,
      "Ġlever": 7696,
      "Ġ47": 7697,
      "Ġweight": 7698,
      "ĠDeposit": 7699,
      "ĠAmericas": 7700,
      "ĠArrangements": 7701,
      "aution": 7702,
      "ronic": 7703,
      "ĠIndustry": 7704,
      "Ġstrengthe": 7705,
      "Ġbenchmark": 7706,
      "318": 7707,
      "break": 7708,
      "years": 7709,
      "Ġ1940": 7710,
      "Ġexamining": 7711,
      "Ġconstruct": 7712,
      "owers": 7713,
      "337": 7714,
      "Ġincidents": 7715,
      "utine": 7716,
      "amed": 7717,
      "Ġcollective": 7718,
      "Ġpractical": 7719,
      "344": 7720,
      "329": 7721,
      "former": 7722,
      "385": 7723,
      "ĠHealthcare": 7724,
      "Ġess": 7725,
      "339": 7726,
      "bon": 7727,
      "dum": 7728,
      "Ġsimplif": 7729,
      "316": 7730,
      "314": 7731,
      "Ġundersigned": 7732,
      "Decrease": 7733,
      "Ġtalent": 7734,
      "ĠPayment": 7735,
      "Ġinternally": 7736,
      "Ġraised": 7737,
      "Ġindependently": 7738,
      "Ġinstead": 7739,
      "Overview": 7740,
      "rees": 7741,
      "urances": 7742,
      "Ġvoluntary": 7743,
      "Ġrig": 7744,
      "ĠClaims": 7745,
      "361": 7746,
      "317": 7747,
      "ĠPU": 7748,
      "Ġcomplexity": 7749,
      "istributed": 7750,
      "Ġtreatments": 7751,
      "eals": 7752,
      "oor": 7753,
      "emand": 7754,
      "ĠLetter": 7755,
      "operations": 7756,
      "Ġdismiss": 7757,
      "Ġexcludes": 7758,
      "ĠLine": 7759,
      "367": 7760,
      "331": 7761,
      "ĠConsequently": 7762,
      "uses": 7763,
      "Ġcalculating": 7764,
      "321": 7765,
      "Ġbehavi": 7766,
      "Ġglob": 7767,
      "Ġdecommissioning": 7768,
      "products": 7769,
      "inese": 7770,
      "securities": 7771,
      "Ġ2027": 7772,
      "Ġhours": 7773,
      "475": 7774,
      "Ġresidual": 7775,
      "ĠBio": 7776,
      "Ġreinvest": 7777,
      "Ġouts": 7778,
      "357": 7779,
      "311": 7780,
      "payment": 7781,
      "Ġuncoll": 7782,
      "Ġfurnished": 7783,
      "ĠPronouncements": 7784,
      "Ġsuspended": 7785,
      "worth": 7786,
      "Ġthreats": 7787,
      "ĠCommunications": 7788,
      "Ġsch": 7789,
      "Ġfeed": 7790,
      "353": 7791,
      "Ġcurtail": 7792,
      "ĠAmeren": 7793,
      "332": 7794,
      "Ġregister": 7795,
      "Control": 7796,
      "Ġmeasuring": 7797,
      "Ġfrequency": 7798,
      "cel": 7799,
      "025": 7800,
      "338": 7801,
      "terns": 7802,
      "FC": 7803,
      "525": 7804,
      "go": 7805,
      "Ġcontaining": 7806,
      "Ġinterruptions": 7807,
      "605": 7808,
      "Ġsoon": 7809,
      "Ġ842": 7810,
      "470": 7811,
      "lf": 7812,
      "366": 7813,
      "415": 7814,
      "ĠEngine": 7815,
      "Ġdispl": 7816,
      "ariable": 7817,
      "Ġaccuracy": 7818,
      "Ġseasonal": 7819,
      "dens": 7820,
      "Ġacres": 7821,
      "Ġreached": 7822,
      "ĠBY": 7823,
      "Ġwarehouse": 7824,
      "319": 7825,
      "ares": 7826,
      "Ġreorganization": 7827,
      "Ġcounsel": 7828,
      "Op": 7829,
      "duc": 7830,
      "EA": 7831,
      "dentification": 7832,
      "Ġtelecomm": 7833,
      "ĠBond": 7834,
      "Ġgraph": 7835,
      "404": 7836,
      "Ġinclusion": 7837,
      "Results": 7838,
      "Ġfloor": 7839,
      "ĠSHAR": 7840,
      "Ġcontinuous": 7841,
      "Ġexemptions": 7842,
      "Ġbrokerage": 7843,
      "358": 7844,
      "376": 7845,
      "Ġoperator": 7846,
      "Ġpenny": 7847,
      "ĠOWNERS": 7848,
      "bas": 7849,
      "356": 7850,
      "ĠDiluted": 7851,
      "ĠPromissory": 7852,
      "IF": 7853,
      "Ġorganized": 7854,
      "third": 7855,
      "ype": 7856,
      "self": 7857,
      "Ġutilizes": 7858,
      "Ġalternatives": 7859,
      "Ġrecruit": 7860,
      "560": 7861,
      "Ġpatterns": 7862,
      "asurer": 7863,
      "ĠGrowth": 7864,
      "Ġamounted": 7865,
      "336": 7866,
      "can": 7867,
      "consuming": 7868,
      "ĠColorado": 7869,
      "Ġpromotional": 7870,
      "Ġ300": 7871,
      "Ġthereunder": 7872,
      "349": 7873,
      "ouri": 7874,
      "381": 7875,
      "Sign": 7876,
      "Ġdepository": 7877,
      "Â§": 7878,
      "Ġmuch": 7879,
      "tainment": 7880,
      "Ġprescribed": 7881,
      "ĠIndustries": 7882,
      "ret": 7883,
      "ounded": 7884,
      "Ġsurplus": 7885,
      "510": 7886,
      "ĠCayman": 7887,
      "Ġdispose": 7888,
      "==": 7889,
      "540": 7890,
      "351": 7891,
      "board": 7892,
      "Own": 7893,
      "pe": 7894,
      "Ġconstant": 7895,
      "Ġexclude": 7896,
      "emaining": 7897,
      "ĠCR": 7898,
      "Ġ1998": 7899,
      "Ġcontact": 7900,
      "354": 7901,
      "Vested": 7902,
      "408": 7903,
      "Ġclearance": 7904,
      "itch": 7905,
      "Ġinterv": 7906,
      "Ġlicens": 7907,
      "Ġmeets": 7908,
      "ĠHot": 7909,
      "ĠDividend": 7910,
      "Ġbylaws": 7911,
      "999": 7912,
      "Gu": 7913,
      "Ġcomparing": 7914,
      "Ġaccurate": 7915,
      "460": 7916,
      "ĠIS": 7917,
      "ĠFlow": 7918,
      "Ġcompleting": 7919,
      "ĠValuation": 7920,
      "ĠRock": 7921,
      "employment": 7922,
      "portation": 7923,
      "Ġpublicity": 7924,
      "Ġshared": 7925,
      "Ġreconcile": 7926,
      "unior": 7927,
      "Ġpledged": 7928,
      "ĠIdaho": 7929,
      "ĠInvestor": 7930,
      "Ġdefinitions": 7931,
      "387": 7932,
      "Ġingred": 7933,
      "384": 7934,
      "Ġdevote": 7935,
      "anta": 7936,
      "Ġpursuing": 7937,
      "Ġforum": 7938,
      "Ġgra": 7939,
      "Ġaffairs": 7940,
      "388": 7941,
      "ading": 7942,
      "342": 7943,
      "ĠSpr": 7944,
      "359": 7945,
      "Pa": 7946,
      "399": 7947,
      "emiconductor": 7948,
      "372": 7949,
      "process": 7950,
      "Ġremainder": 7951,
      "386": 7952,
      "Energy": 7953,
      "OS": 7954,
      "dealer": 7955,
      "Ġ*": 7956,
      "ĠDerivatives": 7957,
      "istent": 7958,
      "ĠGeorgia": 7959,
      "Ġbudget": 7960,
      "ĠEPS": 7961,
      "Ġassurances": 7962,
      "Service": 7963,
      "rut": 7964,
      "368": 7965,
      "575": 7966,
      "quality": 7967,
      "ĠSER": 7968,
      "ĠNe": 7969,
      "382": 7970,
      "imary": 7971,
      "Ġgiving": 7972,
      "yc": 7973,
      "501": 7974,
      "Ġtruck": 7975,
      "Ġinform": 7976,
      "ĠRealty": 7977,
      "499": 7978,
      "352": 7979,
      "Ġfinished": 7980,
      "Large": 7981,
      "Ġrepresentatives": 7982,
      "Ġsuperior": 7983,
      "ĠMANAGEMENT": 7984,
      "acro": 7985,
      "ISSION": 7986,
      "495": 7987,
      "Ġsup": 7988,
      "Ġrepayments": 7989,
      "Ġpharm": 7990,
      "Ġdirected": 7991,
      "Ġdefaults": 7992,
      "004": 7993,
      "Ins": 7994,
      "IPA": 7995,
      "383": 7996,
      "ĠSever": 7997,
      "Ġcarriers": 7998,
      "costs": 7999,
      "Beginning": 8000,
      "embers": 8001,
      "ĠYou": 8002,
      "Ġteams": 8003,
      "Ġjudicial": 8004,
      "ĠMo": 8005,
      "vency": 8006,
      "Ġaffirm": 8007,
      "PSC": 8008,
      "enn": 8009,
      "520": 8010,
      "Ġchapter": 8011,
      "ĠCas": 8012,
      "Ġ1995": 8013,
      "406": 8014,
      "Ġnegotiate": 8015,
      "341": 8016,
      "Ġbad": 8017,
      "Ġalter": 8018,
      "pet": 8019,
      "ĠAcquisitions": 8020,
      "Ġseasoned": 8021,
      "Ġlittle": 8022,
      "Ġsurg": 8023,
      "ynam": 8024,
      "how": 8025,
      "ĠReference": 8026,
      "Ġcovenant": 8027,
      "aneous": 8028,
      "Ġsolic": 8029,
      "Ġsurv": 8030,
      "rical": 8031,
      "Ġrecommendations": 8032,
      "447": 8033,
      "363": 8034,
      "Ġreviewing": 8035,
      "ĠPA": 8036,
      "FA": 8037,
      "Ġescrow": 8038,
      "Ġreput": 8039,
      "rew": 8040,
      "455": 8041,
      "ĠLien": 8042,
      "395": 8043,
      "378": 8044,
      "414": 8045,
      "Ġcommittees": 8046,
      "Represents": 8047,
      "ĠDefin": 8048,
      "Ġtraffic": 8049,
      "Ġabsence": 8050,
      "417": 8051,
      "444": 8052,
      "ĠMaterial": 8053,
      "ama": 8054,
      "capitalized": 8055,
      "502": 8056,
      "FASB": 8057,
      "364": 8058,
      "Ġcollaborations": 8059,
      "ologic": 8060,
      "Ġlost": 8061,
      "Ġ57": 8062,
      "rutin": 8063,
      "urric": 8064,
      "Ġinsol": 8065,
      "Ġintense": 8066,
      "391": 8067,
      "ĠChinese": 8068,
      "Ġengaging": 8069,
      "asurement": 8070,
      "opping": 8071,
      "ectrum": 8072,
      "Cl": 8073,
      "earned": 8074,
      "Gas": 8075,
      "Ġissuers": 8076,
      "ĠParticipant": 8077,
      "riz": 8078,
      "394": 8079,
      "446": 8080,
      "Benef": 8081,
      "005": 8082,
      "Ġ95": 8083,
      "413": 8084,
      "Ġauditors": 8085,
      "424": 8086,
      "bit": 8087,
      "cement": 8088,
      "403": 8089,
      "396": 8090,
      "Annual": 8091,
      "Ġinnovation": 8092,
      "emoran": 8093,
      "outstanding": 8094,
      "2011": 8095,
      "343": 8096,
      "369": 8097,
      "Ġreimbursed": 8098,
      "Ġcalculations": 8099,
      "Or": 8100,
      "Ġcollectability": 8101,
      "Ġstocks": 8102,
      "future": 8103,
      "377": 8104,
      "379": 8105,
      "720": 8106,
      "acing": 8107,
      "Ġattorneys": 8108,
      "SECURITIES": 8109,
      "Ġbeneficiary": 8110,
      "Certificate": 8111,
      "ordable": 8112,
      "490": 8113,
      "Ġdocumentation": 8114,
      "................": 8115,
      "820": 8116,
      "Ġconsultant": 8117,
      "Competition": 8118,
      "Ġcreating": 8119,
      "Ġsteel": 8120,
      "Ġfract": 8121,
      "Ġroutine": 8122,
      "371": 8123,
      "pted": 8124,
      "itcoin": 8125,
      "license": 8126,
      "ricultural": 8127,
      "580": 8128,
      "Ġoutbreak": 8129,
      "ĠPC": 8130,
      "392": 8131,
      "Ġserviced": 8132,
      "Ġques": 8133,
      "ĠReceivables": 8134,
      "ĠEconomic": 8135,
      "348": 8136,
      "445": 8137,
      "Ġconstraints": 8138,
      "397": 8139,
      "Ġoffsetting": 8140,
      "Ġresolved": 8141,
      "430": 8142,
      "Ġimproper": 8143,
      "Address": 8144,
      "Ġgreen": 8145,
      "ĠSavings": 8146,
      "ĠDIS": 8147,
      "ĠVenture": 8148,
      "Ġassume": 8149,
      "SB": 8150,
      "393": 8151,
      "Ġallocations": 8152,
      "olesale": 8153,
      "Ġacting": 8154,
      "ENSATION": 8155,
      "artered": 8156,
      "xic": 8157,
      "issue": 8158,
      "ĠDerivative": 8159,
      "ĠArticles": 8160,
      "tically": 8161,
      "760": 8162,
      "stone": 8163,
      "Ġopp": 8164,
      "402": 8165,
      "Ġconsecutive": 8166,
      "emorandum": 8167,
      "ids": 8168,
      "ĠDISCLOSURES": 8169,
      "uild": 8170,
      "398": 8171,
      "Ġexempt": 8172,
      "ĠClosing": 8173,
      "Ġdeterioration": 8174,
      "Ġinspection": 8175,
      "successful": 8176,
      "atri": 8177,
      "409": 8178,
      "362": 8179,
      "374": 8180,
      "462": 8181,
      "eved": 8182,
      "Ġvacc": 8183,
      "496": 8184,
      "Ġconsummated": 8185,
      "ĠPrac": 8186,
      "389": 8187,
      "465": 8188,
      "HIB": 8189,
      "Ġmicro": 8190,
      "418": 8191,
      "432": 8192,
      "530": 8193,
      "ITATIVE": 8194,
      "411": 8195,
      "ĠOrder": 8196,
      "Ġdemonstrated": 8197,
      "ĠAdvisory": 8198,
      "Estimated": 8199,
      "Forfeited": 8200,
      "Since": 8201,
      "Ġcommonly": 8202,
      "ualty": 8203,
      "438": 8204,
      "443": 8205,
      "ĠFollowing": 8206,
      "ĠMonth": 8207,
      "373": 8208,
      "Ġsponsors": 8209,
      "HIBIT": 8210,
      "ĠSettlement": 8211,
      "Ġtit": 8212,
      "Ġpoll": 8213,
      "003": 8214,
      "Ġdifferenti": 8215,
      "Ġentry": 8216,
      "onal": 8217,
      "Ġanim": 8218,
      "Ġcomputation": 8219,
      "Ġenfor": 8220,
      "463": 8221,
      "ĠBanking": 8222,
      "Tre": 8223,
      "Ġintroduced": 8224,
      "Each": 8225,
      "izational": 8226,
      "429": 8227,
      "ĠESPP": 8228,
      "416": 8229,
      "--------": 8230,
      "ĠMW": 8231,
      "503": 8232,
      "488": 8233,
      "740": 8234,
      "Ġattributes": 8235,
      "Ġorganic": 8236,
      "ĠÃ": 8237,
      "factory": 8238,
      "486": 8239,
      "Continued": 8240,
      "Ġsatell": 8241,
      "ocal": 8242,
      "407": 8243,
      "467": 8244,
      "BT": 8245,
      "Ġindicates": 8246,
      "ĠPerson": 8247,
      "485": 8248,
      "ĠImpairment": 8249,
      "Ġarticles": 8250,
      "TE": 8251,
      "660": 8252,
      "lications": 8253,
      "Ġcontinually": 8254,
      "ĠBar": 8255,
      "Ġcategor": 8256,
      "Ġbecoming": 8257,
      "Ġschool": 8258,
      "Ġenrollment": 8259,
      "437": 8260,
      "ĠRatio": 8261,
      "Ġaccrue": 8262,
      "ĠAre": 8263,
      "ĠFutures": 8264,
      "Ġaccident": 8265,
      "ĠJr": 8266,
      "Ġstages": 8267,
      "Ġremoved": 8268,
      "ĠStan": 8269,
      "Ġprogramming": 8270,
      "478": 8271,
      "427": 8272,
      "Ġtakes": 8273,
      "Ġsensitivity": 8274,
      "435": 8275,
      "IAL": 8276,
      "ountain": 8277,
      "sell": 8278,
      "ĠHuman": 8279,
      "468": 8280,
      "Ġenab": 8281,
      "Ġprescription": 8282,
      "Thereafter": 8283,
      "expenses": 8284,
      "orporations": 8285,
      "Ġcertainty": 8286,
      "Ġfurnish": 8287,
      "significant": 8288,
      "Ġalleging": 8289,
      "Ġcontext": 8290,
      "Convertible": 8291,
      "ĠCard": 8292,
      "Ġexistence": 8293,
      "428": 8294,
      "640": 8295,
      "tib": 8296,
      "Ġimproving": 8297,
      "Ġwebsites": 8298,
      "rem": 8299,
      "ĠAM": 8300,
      "436": 8301,
      "GC": 8302,
      "Ġintrinsic": 8303,
      "unto": 8304,
      "Ġshift": 8305,
      "ĠAdministrator": 8306,
      "ALANCE": 8307,
      "ĠValley": 8308,
      "Performance": 8309,
      "EAR": 8310,
      "ĠMost": 8311,
      "Ġindependence": 8312,
      "usive": 8313,
      "840": 8314,
      "412": 8315,
      "ĠLabor": 8316,
      "Ġpassed": 8317,
      "675": 8318,
      "494": 8319,
      "ĠFounder": 8320,
      "481": 8321,
      "Ġrol": 8322,
      "466": 8323,
      "Costs": 8324,
      "Ġreme": 8325,
      "570": 8326,
      "603": 8327,
      "formerly": 8328,
      "IPAA": 8329,
      "775": 8330,
      "493": 8331,
      "ideration": 8332,
      "Ġindenture": 8333,
      "ĠCAR": 8334,
      "Ġextra": 8335,
      "680": 8336,
      "afe": 8337,
      "Ġstay": 8338,
      "ĠFF": 8339,
      "Ġmaximize": 8340,
      "426": 8341,
      "Ġ56": 8342,
      "OBS": 8343,
      "itz": 8344,
      "484": 8345,
      "Ġleasehold": 8346,
      "ĠMissouri": 8347,
      "433": 8348,
      "505": 8349,
      "rates": 8350,
      "Ġdistributor": 8351,
      "addition": 8352,
      "458": 8353,
      "atories": 8354,
      "ĠWeb": 8355,
      "ĠMeasurement": 8356,
      "developed": 8357,
      "590": 8358,
      "audit": 8359,
      "ulent": 8360,
      "vantage": 8361,
      "ULTS": 8362,
      "Price": 8363,
      "Ġbarg": 8364,
      "Deficit": 8365,
      "uctions": 8366,
      "liabilities": 8367,
      "512": 8368,
      "Ġâ": 8369,
      "look": 8370,
      "Ġstri": 8371,
      "Ġspent": 8372,
      "Ġformation": 8373,
      "419": 8374,
      "HS": 8375,
      "Ġsem": 8376,
      "439": 8377,
      "Ġprospect": 8378,
      "Ġjoined": 8379,
      "Ġtariffs": 8380,
      "080": 8381,
      "West": 8382,
      "010": 8383,
      "006": 8384,
      "007": 8385,
      "Ġshut": 8386,
      "Ġspecialized": 8387,
      "Ġupfront": 8388,
      "Ġnoninterest": 8389,
      "451": 8390,
      "Ġhotels": 8391,
      "Exact": 8392,
      "ogen": 8393,
      "Ġcarbon": 8394,
      "422": 8395,
      "Ġextreme": 8396,
      "Ġadvantages": 8397,
      "508": 8398,
      "449": 8399,
      "Ġdeficiency": 8400,
      "Ġinitiate": 8401,
      "442": 8402,
      "Ġstorm": 8403,
      "hether": 8404,
      "479": 8405,
      "Ġ$.": 8406,
      "Ġentirety": 8407,
      "ĠCiti": 8408,
      "provid": 8409,
      "ĠAD": 8410,
      "Ġseparation": 8411,
      "421": 8412,
      "ĠBay": 8413,
      "492": 8414,
      "Ġformal": 8415,
      "ĠCOMMISSION": 8416,
      "473": 8417,
      "cor": 8418,
      "gain": 8419,
      "Ġsuccessor": 8420,
      "ĠTransfer": 8421,
      "Ġmergers": 8422,
      "Corp": 8423,
      "ĠEV": 8424,
      "iber": 8425,
      "Ġ1996": 8426,
      "464": 8427,
      "ĠHolders": 8428,
      "497": 8429,
      "461": 8430,
      "610": 8431,
      "Ġsolid": 8432,
      "Chairman": 8433,
      "Ġextensions": 8434,
      "555": 8435,
      "571": 8436,
      "630": 8437,
      "liability": 8438,
      "^)": 8439,
      "015": 8440,
      "441": 8441,
      "Summary": 8442,
      "entioned": 8443,
      "Ġpracticable": 8444,
      "Available": 8445,
      "489": 8446,
      "ĠACTIV": 8447,
      "012": 8448,
      "Ġpeer": 8449,
      ",^)": 8450,
      "Ġinterm": 8451,
      "solute": 8452,
      "ĠFL": 8453,
      "agraph": 8454,
      "ĠAdop": 8455,
      "Ġprohibits": 8456,
      "ĠRich": 8457,
      "Additions": 8458,
      "515": 8459,
      "currently": 8460,
      "aneously": 8461,
      "Cal": 8462,
      "istorically": 8463,
      "Ġfaith": 8464,
      "448": 8465,
      "075": 8466,
      "ago": 8467,
      "ky": 8468,
      "ĠMARKET": 8469,
      "Ġovers": 8470,
      "Ġincorporate": 8471,
      "Ġapproximates": 8472,
      "Ġdest": 8473,
      "483": 8474,
      "469": 8475,
      "Ġblood": 8476,
      "ylaws": 8477,
      "omas": 8478,
      "berty": 8479,
      "471": 8480,
      "UNITED": 8481,
      "498": 8482,
      "ĠOrganization": 8483,
      "Ġexercises": 8484,
      "Ġdiversified": 8485,
      "Ġ54": 8486,
      "ĠVIEs": 8487,
      "Entergy": 8488,
      "Ġdepart": 8489,
      "ĠKong": 8490,
      "Ġrevisions": 8491,
      "ANG": 8492,
      "090": 8493,
      "Ġconcentrations": 8494,
      "020": 8495,
      "ĠColumbia": 8496,
      "ĠIndia": 8497,
      "Ġseeks": 8498,
      "ĠSTOCKHOLDER": 8499,
      "Ġ66": 8500,
      "ĠDIREC": 8501,
      "Ġaffects": 8502,
      "ĠOutstanding": 8503,
      "ĠEmployer": 8504,
      "825": 8505,
      "770": 8506,
      "tish": 8507,
      "616": 8508,
      "ĠSpecific": 8509,
      "Ġhyp": 8510,
      "Ġdebentures": 8511,
      "earning": 8512,
      "482": 8513,
      "Ġfailed": 8514,
      "690": 8515,
      "ĠChase": 8516,
      "believe": 8517,
      "725": 8518,
      "ĠLa": 8519,
      "yses": 8520,
      "Ġprepayments": 8521,
      "ĠCERTAIN": 8522,
      "Ġlock": 8523,
      "Ġresale": 8524,
      "othe": 8525,
      "ĠNom": 8526,
      "456": 8527,
      "ĠImprove": 8528,
      "518": 8529,
      "ĠFCC": 8530,
      "491": 8531,
      "dis": 8532,
      "ickback": 8533,
      "Em": 8534,
      "Ġabsolute": 8535,
      "Properties": 8536,
      "845": 8537,
      "609": 8538,
      "vide": 8539,
      "Ġcausing": 8540,
      "Ġadditions": 8541,
      "ultif": 8542,
      "ĠLand": 8543,
      "Ġstructures": 8544,
      "Ġobsolete": 8545,
      "olver": 8546,
      "ĠWilliam": 8547,
      "454": 8548,
      "ĠSG": 8549,
      "Ġcomprom": 8550,
      "arbor": 8551,
      "ĠCounsel": 8552,
      "Ġweb": 8553,
      "526": 8554,
      "Ġterminal": 8555,
      "Ġfewer": 8556,
      "925": 8557,
      "Ġ1997": 8558,
      "453": 8559,
      "Ġrestruct": 8560,
      "Ġestablishment": 8561,
      "Warrants": 8562,
      "474": 8563,
      "Reclass": 8564,
      "Ġsubcontract": 8565,
      "Ġculture": 8566,
      "487": 8567,
      "547": 8568,
      "472": 8569,
      "ĠOEM": 8570,
      "Ġprint": 8571,
      "las": 8572,
      "Ġconcess": 8573,
      "ROs": 8574,
      "608": 8575,
      "459": 8576,
      "Ġmisappropri": 8577,
      "Rev": 8578,
      "Ġill": 8579,
      "434": 8580,
      "615": 8581,
      "ĠTDR": 8582,
      "ĠGHG": 8583,
      "Ġemployer": 8584,
      "Ġsurface": 8585,
      "534": 8586,
      "617": 8587,
      "980": 8588,
      "Ġbuilt": 8589,
      "517": 8590,
      "452": 8591,
      "Ġunused": 8592,
      "ĠSTOCKHOLDERS": 8593,
      "602": 8594,
      "visory": 8595,
      "ĠMS": 8596,
      "556": 8597,
      "Ġmine": 8598,
      "ĠWestern": 8599,
      "Ġbarrel": 8600,
      "670": 8601,
      "onents": 8602,
      "potential": 8603,
      "476": 8604,
      "Ġlogistics": 8605,
      "establis": 8606,
      "Ġapproving": 8607,
      "ĠEnd": 8608,
      "Ġannuity": 8609,
      "060": 8610,
      "423": 8611,
      "Ġassemb": 8612,
      "Ġexpression": 8613,
      "ĠACTIVITIES": 8614,
      "ĠJV": 8615,
      "angu": 8616,
      "Ġreturned": 8617,
      "535": 8618,
      "HA": 8619,
      "pati": 8620,
      "506": 8621,
      "601": 8622,
      "070": 8623,
      "Derivatives": 8624,
      "ossible": 8625,
      "533": 8626,
      "determ": 8627,
      "ĠHong": 8628,
      "Ġclosure": 8629,
      "urchas": 8630,
      "920": 8631,
      "ĠRuss": 8632,
      "alt": 8633,
      "562": 8634,
      "ĠSchool": 8635,
      "Ġbehavior": 8636,
      "making": 8637,
      "Ġ58": 8638,
      "enari": 8639,
      "leans": 8640,
      "justment": 8641,
      "Ġexaminations": 8642,
      "ĠRoad": 8643,
      "529": 8644,
      "ruption": 8645,
      "Ġthereunto": 8646,
      "040": 8647,
      "507": 8648,
      "intend": 8649,
      "780": 8650,
      "Registration": 8651,
      "542": 8652,
      "595": 8653,
      "620": 8654,
      "ĠSoftware": 8655,
      "Ġdraw": 8656,
      "irable": 8657,
      "ĠNO": 8658,
      "583": 8659,
      "ĠIssuance": 8660,
      "rist": 8661,
      "Ġencounter": 8662,
      "524": 8663,
      "509": 8664,
      "Ġqualification": 8665,
      "Ġalign": 8666,
      "688": 8667,
      "itary": 8668,
      "ĠMess": 8669,
      "Ġpronouncements": 8670,
      "reporting": 8671,
      "527": 8672,
      "880": 8673,
      "Ġdiscussions": 8674,
      "Ġsil": 8675,
      "Ġ180": 8676,
      "585": 8677,
      "Ġactually": 8678,
      "fair": 8679,
      "enty": 8680,
      "Ġunen": 8681,
      "ĠCP": 8682,
      "Ġnar": 8683,
      "Ġglobally": 8684,
      "rizona": 8685,
      "Ġbody": 8686,
      "ENE": 8687,
      "017": 8688,
      "Code": 8689,
      "Ġfreight": 8690,
      "Ġrefinancing": 8691,
      "606": 8692,
      "Accelerated": 8693,
      "576": 8694,
      "Ġdefects": 8695,
      "Ġretired": 8696,
      "Ġweeks": 8697,
      "PCAOB": 8698,
      "ĠClean": 8699,
      "Ġimposes": 8700,
      "Ġconclus": 8701,
      "563": 8702,
      "ĠIssued": 8703,
      "secured": 8704,
      "Ġcentral": 8705,
      "Distributions": 8706,
      "665": 8707,
      "Ġcontemplated": 8708,
      "Ġbears": 8709,
      "Ġbranded": 8710,
      "710": 8711,
      "Ġsuc": 8712,
      "Ġdiscover": 8713,
      "Ġentirely": 8714,
      "030": 8715,
      "ĠDeb": 8716,
      "Ġanalyses": 8717,
      "514": 8718,
      "ĠGO": 8719,
      "ĠAfric": 8720,
      "558": 8721,
      "ying": 8722,
      "Ġexped": 8723,
      "Ġreplaced": 8724,
      "ĠBrazil": 8725,
      "511": 8726,
      "CASH": 8727,
      "reases": 8728,
      "zz": 8729,
      "Ġreinvestment": 8730,
      "ectivity": 8731,
      "Ġstatis": 8732,
      "PERT": 8733,
      "ĠTRS": 8734,
      "Ġasserted": 8735,
      "Ġprocedure": 8736,
      "536": 8737,
      "Ġoutl": 8738,
      "Ġentertain": 8739,
      "ASS": 8740,
      "Ġintroduction": 8741,
      "546": 8742,
      "597": 8743,
      "522": 8744,
      "Ġremove": 8745,
      "ĠCircuit": 8746,
      "Ġratably": 8747,
      "055": 8748,
      "eng": 8749,
      "516": 8750,
      "Ġsetting": 8751,
      "Ġdisposed": 8752,
      "Ġenactment": 8753,
      "equi": 8754,
      "med": 8755,
      "975": 8756,
      "Ġ(Â§": 8757,
      "aza": 8758,
      "588": 8759,
      "Ġmacro": 8760,
      "2024": 8761,
      "Ġcontractually": 8762,
      "521": 8763,
      "632": 8764,
      "970": 8765,
      "Ġdeclined": 8766,
      "Ġpetition": 8767,
      "ĠCross": 8768,
      "ache": 8769,
      "477": 8770,
      "tiliz": 8771,
      "ĠIsra": 8772,
      "Ġundistributed": 8773,
      "Depos": 8774,
      "combination": 8775,
      "ustomers": 8776,
      "572": 8777,
      "enth": 8778,
      "ĠTr": 8779,
      "607": 8780,
      "545": 8781,
      "ĠGermany": 8782,
      "619": 8783,
      "Ġresell": 8784,
      "Ġreversal": 8785,
      "Benefit": 8786,
      "ats": 8787,
      "Ġraising": 8788,
      "Coll": 8789,
      "Option": 8790,
      "Ġaw": 8791,
      "Ġalleg": 8792,
      "531": 8793,
      "584": 8794,
      "Ġsurren": 8795,
      "Ġskilled": 8796,
      "940": 8797,
      "outh": 8798,
      "457": 8799,
      "960": 8800,
      "Ġhim": 8801,
      "ĠAuthorized": 8802,
      "draul": 8803,
      "Ġliquidate": 8804,
      "Ġbelief": 8805,
      "833": 8806,
      "Ġaccretion": 8807,
      "Ġdismis": 8808,
      "ĠAOCI": 8809,
      "ĠRegarding": 8810,
      "589": 8811,
      "ĠTreasurer": 8812,
      "OD": 8813,
      "Ġcontracted": 8814,
      "539": 8815,
      "Ġsections": 8816,
      "Ġscrutin": 8817,
      "Ġshipment": 8818,
      "OTAL": 8819,
      "Ġinternationally": 8820,
      "519": 8821,
      "oms": 8822,
      "504": 8823,
      "ĠOrleans": 8824,
      "mon": 8825,
      "Ġdimin": 8826,
      "705": 8827,
      "Ġsurround": 8828,
      "664": 8829,
      "008": 8830,
      "538": 8831,
      "Ġ(#,^)": 8832,
      "omin": 8833,
      "Ġoral": 8834,
      "561": 8835,
      "there": 8836,
      "787": 8837,
      "REPORT": 8838,
      "person": 8839,
      "oung": 8840,
      "Ġsituations": 8841,
      "Ġproductivity": 8842,
      "itations": 8843,
      "no": 8844,
      "Ġbodies": 8845,
      "lication": 8846,
      "ought": 8847,
      "ĠHedging": 8848,
      "656": 8849,
      "olumn": 8850,
      "431": 8851,
      "528": 8852,
      "Lo": 8853,
      "009": 8854,
      "581": 8855,
      "were": 8856,
      "Ġfire": 8857,
      "ĠMon": 8858,
      "ABLE": 8859,
      "Washington": 8860,
      "ĠRegulations": 8861,
      "ĠCORPOR": 8862,
      "045": 8863,
      "564": 8864,
      "ĠRisks": 8865,
      "ĠEarly": 8866,
      "628": 8867,
      "532": 8868,
      "bridge": 8869,
      "tures": 8870,
      "ĠPol": 8871,
      "ĠCOMPENSATION": 8872,
      "Ġrebates": 8873,
      "613": 8874,
      "642": 8875,
      "exclusive": 8876,
      "regulatory": 8877,
      "810": 8878,
      "acquisition": 8879,
      "Ġspend": 8880,
      "035": 8881,
      "losed": 8882,
      "Ġdefending": 8883,
      "565": 8884,
      "860": 8885,
      "Ġrenewed": 8886,
      "Ġmechanisms": 8887,
      "innes": 8888,
      "Cent": 8889,
      "rete": 8890,
      "Ġitself": 8891,
      "592": 8892,
      "513": 8893,
      "990": 8894,
      "Ġbroader": 8895,
      "541": 8896,
      "ĠTrade": 8897,
      "expect": 8898,
      "Ġcharacterized": 8899,
      "Ġcontribut": 8900,
      "innesota": 8901,
      "Ġblank": 8902,
      "569": 8903,
      "stage": 8904,
      "Ġmatching": 8905,
      "ĠVi": 8906,
      "553": 8907,
      "GP": 8908,
      "ĠManufacturing": 8909,
      "692": 8910,
      "Ġcollections": 8911,
      "735": 8912,
      "018": 8913,
      "097": 8914,
      "635": 8915,
      "inf": 8916,
      "Ġpetroleum": 8917,
      "Ġtransp": 8918,
      "astern": 8919,
      "abl": 8920,
      "commerce": 8921,
      "atent": 8922,
      "atest": 8923,
      "Ġliving": 8924,
      "ĠPPP": 8925,
      "Ġfunda": 8926,
      "668": 8927,
      "MI": 8928,
      "Ob": 8929,
      "657": 8930,
      "Ġfraudulent": 8931,
      "BB": 8932,
      "cology": 8933,
      "arious": 8934,
      "687": 8935,
      "Ġforfeiture": 8936,
      "Ġremedies": 8937,
      "812": 8938,
      "Ġinterf": 8939,
      "Ġ61": 8940,
      "551": 8941,
      ")%": 8942,
      "548": 8943,
      "566": 8944,
      "ĠMine": 8945,
      "Ġ63": 8946,
      "604": 8947,
      "626": 8948,
      "Ġsought": 8949,
      "523": 8950,
      "051": 8951,
      "930": 8952,
      "Ġ59": 8953,
      "ĠSupreme": 8954,
      "Ġ]": 8955,
      "624": 8956,
      "764": 8957,
      "Ġexperiences": 8958,
      "Ġtumor": 8959,
      "ĠSil": 8960,
      "704": 8961,
      "otes": 8962,
      "Ġstations": 8963,
      "994": 8964,
      "Ġsucceed": 8965,
      "596": 8966,
      "Ġholdings": 8967,
      "Ġreputational": 8968,
      "rective": 8969,
      "654": 8970,
      "085": 8971,
      "633": 8972,
      "Quarter": 8973,
      "Rate": 8974,
      "Ġspeed": 8975,
      "Ġrepairs": 8976,
      "Ġdescrib": 8977,
      "Ġforfeited": 8978,
      "BER": 8979,
      "554": 8980,
      "visor": 8981,
      "Ġshortages": 8982,
      "Ġcorporations": 8983,
      "ultifamily": 8984,
      "543": 8985,
      "579": 8986,
      "622": 8987,
      "ontinued": 8988,
      "730": 8989,
      "cil": 8990,
      "ĠRepurchase": 8991,
      "Ġuncollectible": 8992,
      "807": 8993,
      "557": 8994,
      "718": 8995,
      "ĠStrategy": 8996,
      "Work": 8997,
      "imarily": 8998,
      "703": 8999,
      "Ġsectors": 9000,
      "567": 9001,
      "ĠInstitute": 9002,
      "ĠSelect": 9003,
      "CPA": 9004,
      "016": 9005,
      "ĠAmong": 9006,
      "Ġattributed": 9007,
      "031": 9008,
      "Selected": 9009,
      "653": 9010,
      "ĠEXECUTIVE": 9011,
      "544": 9012,
      "Ġenhancements": 9013,
      "078": 9014,
      "647": 9015,
      "568": 9016,
      "TA": 9017,
      "652": 9018,
      "857": 9019,
      "777": 9020,
      "Ġmedi": 9021,
      "Ġsug": 9022,
      "013": 9023,
      "Ġaccelerate": 9024,
      "598": 9025,
      "site": 9026,
      "pts": 9027,
      "Ref": 9028,
      "578": 9029,
      "reage": 9030,
      "Ġprime": 9031,
      "715": 9032,
      "586": 9033,
      "537": 9034,
      "kl": 9035,
      "707": 9036,
      "audited": 9037,
      "Ġsubstance": 9038,
      "662": 9039,
      "Ġspecifications": 9040,
      "ĠMer": 9041,
      "Ġdiscourage": 9042,
      "ĠEntities": 9043,
      "034": 9044,
      "information": 9045,
      "830": 9046,
      "lable": 9047,
      "development": 9048,
      "Inventory": 9049,
      "815": 9050,
      "udent": 9051,
      "Ġ101": 9052,
      "Ġfunctionality": 9053,
      "fficer": 9054,
      "890": 9055,
      "ĠCOMMON": 9056,
      "577": 9057,
      "Ġincorpor": 9058,
      "Ġ815": 9059,
      "037": 9060,
      "Ġscenari": 9061,
      "Ġpercentages": 9062,
      "SCH": 9063,
      "767": 9064,
      "Ġdiversity": 9065,
      "618": 9066,
      "962": 9067,
      "Ġpermitting": 9068,
      "745": 9069,
      "rigin": 9070,
      "ĠEr": 9071,
      "ĠSTATES": 9072,
      "bi": 9073,
      "594": 9074,
      "Ġroles": 9075,
      "label": 9076,
      "liant": 9077,
      "801": 9078,
      "095": 9079,
      "685": 9080,
      "786": 9081,
      "International": 9082,
      "033": 9083,
      "Ġ.": 9084,
      "701": 9085,
      "084": 9086,
      "574": 9087,
      "Ġunfunded": 9088,
      "ĠMichael": 9089,
      "083": 9090,
      "equity": 9091,
      "Ġpreference": 9092,
      "DITION": 9093,
      "Ġrecording": 9094,
      "011": 9095,
      "Ġ350": 9096,
      "Ġbiological": 9097,
      "Ġentertainment": 9098,
      "ROM": 9099,
      "Ġdedicated": 9100,
      "FER": 9101,
      "888": 9102,
      "713": 9103,
      "Ġunderstand": 9104,
      "593": 9105,
      "draulic": 9106,
      "Ġunpredict": 9107,
      "Ġpol": 9108,
      "Paid": 9109,
[...]
